{
  "version": "1.0",
  "truncation": null,
  "padding": null,
  "added_tokens": [
    {
      "id": 0,
      "content": "<pad>",
      "single_word": false,
      "lstrip": false,
      "rstrip": false,
      "normalized": false,
      "special": true
    },
    {
      "id": 1,
      "content": "<sos>",
      "single_word": false,
      "lstrip": false,
      "rstrip": false,
      "normalized": false,
      "special": true
    },
    {
      "id": 2,
      "content": "<eos>",
      "single_word": false,
      "lstrip": false,
      "rstrip": false,
      "normalized": false,
      "special": true
    },
    {
      "id": 3,
      "content": "<unk>",
      "single_word": false,
      "lstrip": false,
      "rstrip": false,
      "normalized": false,
      "special": true
    }
  ],
  "normalizer": null,
  "pre_tokenizer": {
    "type": "Whitespace"
  },
  "post_processor": null,
  "decoder": null,
  "model": {
    "type": "BPE",
    "dropout": null,
    "unk_token": null,
    "continuing_subword_prefix": null,
    "end_of_word_suffix": null,
    "fuse_unk": false,
    "byte_fallback": false,
    "ignore_merges": false,
    "vocab": {
      "<pad>": 0,
      "<sos>": 1,
      "<eos>": 2,
      "<unk>": 3,
      "!": 4,
      "\"": 5,
      "#": 6,
      "$": 7,
      "%": 8,
      "&": 9,
      "'": 10,
      "(": 11,
      ")": 12,
      "*": 13,
      "+": 14,
      ",": 15,
      "-": 16,
      ".": 17,
      "/": 18,
      "0": 19,
      "1": 20,
      "2": 21,
      "3": 22,
      "4": 23,
      "5": 24,
      "6": 25,
      "7": 26,
      "8": 27,
      "9": 28,
      ":": 29,
      ";": 30,
      "<": 31,
      "=": 32,
      ">": 33,
      "?": 34,
      "@": 35,
      "A": 36,
      "B": 37,
      "C": 38,
      "D": 39,
      "E": 40,
      "F": 41,
      "G": 42,
      "H": 43,
      "I": 44,
      "J": 45,
      "K": 46,
      "L": 47,
      "M": 48,
      "N": 49,
      "O": 50,
      "P": 51,
      "Q": 52,
      "R": 53,
      "S": 54,
      "T": 55,
      "U": 56,
      "V": 57,
      "W": 58,
      "X": 59,
      "Y": 60,
      "Z": 61,
      "[": 62,
      "\\": 63,
      "]": 64,
      "^": 65,
      "_": 66,
      "`": 67,
      "a": 68,
      "b": 69,
      "c": 70,
      "d": 71,
      "e": 72,
      "f": 73,
      "g": 74,
      "h": 75,
      "i": 76,
      "j": 77,
      "k": 78,
      "l": 79,
      "m": 80,
      "n": 81,
      "o": 82,
      "p": 83,
      "q": 84,
      "r": 85,
      "s": 86,
      "t": 87,
      "u": 88,
      "v": 89,
      "w": 90,
      "x": 91,
      "y": 92,
      "z": 93,
      "{": 94,
      "}": 95,
      "~": 96,
      "": 97,
      "": 98,
      "": 99,
      "": 100,
      "": 101,
      "": 102,
      "": 103,
      "": 104,
      "": 105,
      "": 106,
      "": 107,
      "": 108,
      "": 109,
      "": 110,
      "": 111,
      "": 112,
      "": 113,
      "": 114,
      "": 115,
      "": 116,
      "": 117,
      "": 118,
      "¡": 119,
      "¢": 120,
      "£": 121,
      "¤": 122,
      "¥": 123,
      "¦": 124,
      "§": 125,
      "¨": 126,
      "©": 127,
      "ª": 128,
      "«": 129,
      "¬": 130,
      "­": 131,
      "®": 132,
      "¯": 133,
      "°": 134,
      "±": 135,
      "²": 136,
      "³": 137,
      "´": 138,
      "µ": 139,
      "¶": 140,
      "·": 141,
      "¸": 142,
      "¹": 143,
      "º": 144,
      "»": 145,
      "¼": 146,
      "½": 147,
      "¾": 148,
      "¿": 149,
      "À": 150,
      "Á": 151,
      "Â": 152,
      "Ã": 153,
      "Ä": 154,
      "Å": 155,
      "Æ": 156,
      "Ç": 157,
      "È": 158,
      "É": 159,
      "Ê": 160,
      "Ë": 161,
      "Ì": 162,
      "Í": 163,
      "Î": 164,
      "Ï": 165,
      "Ð": 166,
      "Ñ": 167,
      "Ò": 168,
      "Ó": 169,
      "Ô": 170,
      "Õ": 171,
      "Ö": 172,
      "×": 173,
      "Ø": 174,
      "Ù": 175,
      "Ú": 176,
      "Û": 177,
      "Ü": 178,
      "Ý": 179,
      "Þ": 180,
      "ß": 181,
      "à": 182,
      "á": 183,
      "â": 184,
      "ã": 185,
      "ä": 186,
      "å": 187,
      "æ": 188,
      "ç": 189,
      "è": 190,
      "é": 191,
      "ê": 192,
      "ë": 193,
      "ì": 194,
      "í": 195,
      "î": 196,
      "ï": 197,
      "ð": 198,
      "ñ": 199,
      "ò": 200,
      "ó": 201,
      "ô": 202,
      "õ": 203,
      "ö": 204,
      "÷": 205,
      "ø": 206,
      "ù": 207,
      "ú": 208,
      "û": 209,
      "ü": 210,
      "ý": 211,
      "þ": 212,
      "ÿ": 213,
      "Ā": 214,
      "ā": 215,
      "Ă": 216,
      "ă": 217,
      "ą": 218,
      "Ć": 219,
      "ć": 220,
      "ĉ": 221,
      "ċ": 222,
      "Č": 223,
      "č": 224,
      "ď": 225,
      "Đ": 226,
      "đ": 227,
      "Ē": 228,
      "ē": 229,
      "Ĕ": 230,
      "ĕ": 231,
      "ė": 232,
      "ę": 233,
      "Ě": 234,
      "ě": 235,
      "ĝ": 236,
      "Ğ": 237,
      "ğ": 238,
      "ġ": 239,
      "Ģ": 240,
      "ģ": 241,
      "Ĥ": 242,
      "ĥ": 243,
      "Ħ": 244,
      "ħ": 245,
      "ĩ": 246,
      "Ī": 247,
      "ī": 248,
      "ĭ": 249,
      "Į": 250,
      "į": 251,
      "İ": 252,
      "ı": 253,
      "Ĳ": 254,
      "ĳ": 255,
      "Ĵ": 256,
      "ĵ": 257,
      "Ķ": 258,
      "ķ": 259,
      "ĸ": 260,
      "Ĺ": 261,
      "ĺ": 262,
      "Ļ": 263,
      "ļ": 264,
      "Ľ": 265,
      "ľ": 266,
      "Ŀ": 267,
      "ŀ": 268,
      "Ł": 269,
      "ł": 270,
      "Ń": 271,
      "ń": 272,
      "ņ": 273,
      "ň": 274,
      "ŉ": 275,
      "Ŋ": 276,
      "ŋ": 277,
      "Ō": 278,
      "ō": 279,
      "Ŏ": 280,
      "ŏ": 281,
      "ő": 282,
      "Œ": 283,
      "œ": 284,
      "Ŕ": 285,
      "ŕ": 286,
      "ŗ": 287,
      "ř": 288,
      "Ś": 289,
      "ś": 290,
      "ŝ": 291,
      "Ş": 292,
      "ş": 293,
      "Š": 294,
      "š": 295,
      "ţ": 296,
      "Ť": 297,
      "ť": 298,
      "Ŧ": 299,
      "ŧ": 300,
      "Ũ": 301,
      "ũ": 302,
      "Ū": 303,
      "ū": 304,
      "Ŭ": 305,
      "ŭ": 306,
      "Ů": 307,
      "ů": 308,
      "Ű": 309,
      "ű": 310,
      "Ų": 311,
      "ų": 312,
      "Ŵ": 313,
      "ŵ": 314,
      "Ŷ": 315,
      "ŷ": 316,
      "Ÿ": 317,
      "Ź": 318,
      "ź": 319,
      "Ż": 320,
      "ż": 321,
      "Ž": 322,
      "ž": 323,
      "ſ": 324,
      "Ɓ": 325,
      "Ƃ": 326,
      "Ə": 327,
      "Ɛ": 328,
      "Ƒ": 329,
      "ƒ": 330,
      "Ɩ": 331,
      "ƙ": 332,
      "ơ": 333,
      "Ƣ": 334,
      "ƣ": 335,
      "Ƥ": 336,
      "ƥ": 337,
      "Ʃ": 338,
      "ƪ": 339,
      "ƫ": 340,
      "Ƭ": 341,
      "ƭ": 342,
      "Ʈ": 343,
      "Ư": 344,
      "ư": 345,
      "Ʊ": 346,
      "Ʋ": 347,
      "Ƴ": 348,
      "ƴ": 349,
      "Ƶ": 350,
      "ƶ": 351,
      "Ʒ": 352,
      "Ƹ": 353,
      "ƹ": 354,
      "ƺ": 355,
      "ƻ": 356,
      "Ƽ": 357,
      "ƽ": 358,
      "ƾ": 359,
      "ƿ": 360,
      "ǀ": 361,
      "ǁ": 362,
      "ǂ": 363,
      "ǎ": 364,
      "Ǐ": 365,
      "ǐ": 366,
      "ǒ": 367,
      "Ǔ": 368,
      "ǔ": 369,
      "Ǖ": 370,
      "ǖ": 371,
      "Ǘ": 372,
      "ǘ": 373,
      "Ǚ": 374,
      "ǚ": 375,
      "Ǜ": 376,
      "ǜ": 377,
      "ǝ": 378,
      "ǡ": 379,
      "ǣ": 380,
      "Ǥ": 381,
      "ǥ": 382,
      "ǧ": 383,
      "Ǩ": 384,
      "ǩ": 385,
      "Ǯ": 386,
      "ǯ": 387,
      "ǰ": 388,
      "Ǳ": 389,
      "ǲ": 390,
      "ǳ": 391,
      "Ǵ": 392,
      "ǵ": 393,
      "Ƕ": 394,
      "Ƿ": 395,
      "Ǹ": 396,
      "ǹ": 397,
      "Ǻ": 398,
      "ǻ": 399,
      "Ǽ": 400,
      "ǽ": 401,
      "Ǿ": 402,
      "ǿ": 403,
      "Ȃ": 404,
      "Ȋ": 405,
      "Ȕ": 406,
      "ȕ": 407,
      "Ȗ": 408,
      "ȗ": 409,
      "ș": 410,
      "Ț": 411,
      "ț": 412,
      "ȡ": 413,
      "Ȣ": 414,
      "ȣ": 415,
      "Ȥ": 416,
      "ȥ": 417,
      "Ȧ": 418,
      "Ȩ": 419,
      "ȩ": 420,
      "Ȫ": 421,
      "ȫ": 422,
      "ȭ": 423,
      "Ȯ": 424,
      "ȯ": 425,
      "Ȱ": 426,
      "ȱ": 427,
      "Ȳ": 428,
      "ȳ": 429,
      "ȴ": 430,
      "ȵ": 431,
      "ȶ": 432,
      "ȷ": 433,
      "ȸ": 434,
      "ȹ": 435,
      "Ⱥ": 436,
      "Ȼ": 437,
      "ȼ": 438,
      "Ƚ": 439,
      "Ⱦ": 440,
      "ȿ": 441,
      "Ɂ": 442,
      "ɂ": 443,
      "Ʉ": 444,
      "Ɉ": 445,
      "ɉ": 446,
      "Ɋ": 447,
      "Ɏ": 448,
      "ɐ": 449,
      "ɑ": 450,
      "ɔ": 451,
      "ɖ": 452,
      "ɗ": 453,
      "ə": 454,
      "ɛ": 455,
      "ɡ": 456,
      "ɢ": 457,
      "ɣ": 458,
      "ɤ": 459,
      "ɥ": 460,
      "ɨ": 461,
      "ɩ": 462,
      "ɪ": 463,
      "ɫ": 464,
      "ɬ": 465,
      "ɭ": 466,
      "ɮ": 467,
      "ɰ": 468,
      "ɱ": 469,
      "ɲ": 470,
      "ɳ": 471,
      "ɴ": 472,
      "ɵ": 473,
      "ɶ": 474,
      "ɷ": 475,
      "ɸ": 476,
      "ɹ": 477,
      "ɺ": 478,
      "ɻ": 479,
      "ɼ": 480,
      "ɽ": 481,
      "ɾ": 482,
      "ɿ": 483,
      "ʁ": 484,
      "ʃ": 485,
      "ʉ": 486,
      "ʊ": 487,
      "ʋ": 488,
      "ʌ": 489,
      "ʏ": 490,
      "ʒ": 491,
      "ʡ": 492,
      "ʢ": 493,
      "ʣ": 494,
      "ʤ": 495,
      "ʥ": 496,
      "ʦ": 497,
      "ʧ": 498,
      "ʩ": 499,
      "ʪ": 500,
      "ʬ": 501,
      "ʮ": 502,
      "ʯ": 503,
      "ʰ": 504,
      "ʱ": 505,
      "ʲ": 506,
      "ʳ": 507,
      "ʴ": 508,
      "ʵ": 509,
      "ʶ": 510,
      "ʷ": 511,
      "ʸ": 512,
      "ʹ": 513,
      "ʺ": 514,
      "ʻ": 515,
      "ʼ": 516,
      "ʽ": 517,
      "ʾ": 518,
      "ʿ": 519,
      "ˆ": 520,
      "ˈ": 521,
      "ˎ": 522,
      "ˑ": 523,
      "˘": 524,
      "˚": 525,
      "˜": 526,
      "˞": 527,
      "ˡ": 528,
      "ˢ": 529,
      "ˣ": 530,
      "ˤ": 531,
      "˥": 532,
      "˦": 533,
      "˧": 534,
      "˫": 535,
      "˭": 536,
      "ˮ": 537,
      "˯": 538,
      "˰": 539,
      "˱": 540,
      "˲": 541,
      "˳": 542,
      "˴": 543,
      "˵": 544,
      "˶": 545,
      "˷": 546,
      "˸": 547,
      "˹": 548,
      "˺": 549,
      "˻": 550,
      "˼": 551,
      "˽": 552,
      "˾": 553,
      "˿": 554,
      "̀": 555,
      "́": 556,
      "̂": 557,
      "̃": 558,
      "̄": 559,
      "̈": 560,
      "̉": 561,
      "̋": 562,
      "̌": 563,
      "̍": 564,
      "̎": 565,
      "̏": 566,
      "̐": 567,
      "̑": 568,
      "̓": 569,
      "̖": 570,
      "̗": 571,
      "̝": 572,
      "̡": 573,
      "̣": 574,
      "̤": 575,
      "̥": 576,
      "̨": 577,
      "̩": 578,
      "̪": 579,
      "̫": 580,
      "̬": 581,
      "̯": 582,
      "̰": 583,
      "̱": 584,
      "̲": 585,
      "̳": 586,
      "̴": 587,
      "̵": 588,
      "̶": 589,
      "̷": 590,
      "̸": 591,
      "̹": 592,
      "̺": 593,
      "̻": 594,
      "̼": 595,
      "̽": 596,
      "̾": 597,
      "̿": 598,
      "́": 599,
      "͂": 600,
      "̓": 601,
      "͊": 602,
      "͋": 603,
      "͍": 604,
      "͎": 605,
      "͕": 606,
      "͡": 607,
      "ͣ": 608,
      "ͤ": 609,
      "ͥ": 610,
      "ͨ": 611,
      "ͬ": 612,
      "ͭ": 613,
      "ͯ": 614,
      "Ͱ": 615,
      "ͱ": 616,
      "Ͳ": 617,
      "ͳ": 618,
      "ʹ": 619,
      "͵": 620,
      "Ͷ": 621,
      "ͷ": 622,
      "͸": 623,
      "͹": 624,
      "ͺ": 625,
      "ͻ": 626,
      "ͼ": 627,
      "ͽ": 628,
      ";": 629,
      "Ϳ": 630,
      "Ό": 631,
      "Ώ": 632,
      "Α": 633,
      "Β": 634,
      "Γ": 635,
      "Δ": 636,
      "Ε": 637,
      "Ζ": 638,
      "Η": 639,
      "Ι": 640,
      "Λ": 641,
      "Ν": 642,
      "Ξ": 643,
      "Ρ": 644,
      "΢": 645,
      "Σ": 646,
      "Τ": 647,
      "Υ": 648,
      "Φ": 649,
      "Χ": 650,
      "Ψ": 651,
      "Ω": 652,
      "Ϊ": 653,
      "Ϋ": 654,
      "ά": 655,
      "έ": 656,
      "ή": 657,
      "ί": 658,
      "ΰ": 659,
      "α": 660,
      "β": 661,
      "γ": 662,
      "δ": 663,
      "ε": 664,
      "ζ": 665,
      "η": 666,
      "θ": 667,
      "ι": 668,
      "κ": 669,
      "λ": 670,
      "μ": 671,
      "ν": 672,
      "ξ": 673,
      "ο": 674,
      "π": 675,
      "ρ": 676,
      "ς": 677,
      "σ": 678,
      "υ": 679,
      "φ": 680,
      "χ": 681,
      "ψ": 682,
      "ω": 683,
      "ύ": 684,
      "ώ": 685,
      "ϡ": 686,
      "Ϣ": 687,
      "ϣ": 688,
      "Ϥ": 689,
      "ϥ": 690,
      "ϧ": 691,
      "ϩ": 692,
      "ϫ": 693,
      "ϭ": 694,
      "Ϯ": 695,
      "ϯ": 696,
      "ϰ": 697,
      "ϱ": 698,
      "ϲ": 699,
      "ϳ": 700,
      "ϴ": 701,
      "ϵ": 702,
      "϶": 703,
      "Ϸ": 704,
      "ϸ": 705,
      "Ϲ": 706,
      "Ϻ": 707,
      "ϻ": 708,
      "ϼ": 709,
      "Ͻ": 710,
      "Ͼ": 711,
      "Ͽ": 712,
      "Ђ": 713,
      "Ѓ": 714,
      "Ѕ": 715,
      "І": 716,
      "Љ": 717,
      "А": 718,
      "Б": 719,
      "В": 720,
      "Г": 721,
      "Д": 722,
      "Ж": 723,
      "З": 724,
      "И": 725,
      "Й": 726,
      "К": 727,
      "М": 728,
      "О": 729,
      "П": 730,
      "Р": 731,
      "С": 732,
      "Т": 733,
      "У": 734,
      "Ф": 735,
      "Х": 736,
      "Ц": 737,
      "Ч": 738,
      "Щ": 739,
      "Ь": 740,
      "Э": 741,
      "Ю": 742,
      "а": 743,
      "б": 744,
      "в": 745,
      "г": 746,
      "д": 747,
      "е": 748,
      "ж": 749,
      "з": 750,
      "и": 751,
      "й": 752,
      "к": 753,
      "л": 754,
      "м": 755,
      "н": 756,
      "о": 757,
      "п": 758,
      "р": 759,
      "с": 760,
      "т": 761,
      "у": 762,
      "ф": 763,
      "х": 764,
      "ц": 765,
      "ч": 766,
      "ш": 767,
      "щ": 768,
      "ъ": 769,
      "ы": 770,
      "ь": 771,
      "э": 772,
      "ю": 773,
      "я": 774,
      "ё": 775,
      "ѓ": 776,
      "є": 777,
      "ѕ": 778,
      "і": 779,
      "ї": 780,
      "ј": 781,
      "њ": 782,
      "ќ": 783,
      "ѡ": 784,
      "Ѥ": 785,
      "ѥ": 786,
      "ѧ": 787,
      "Ѫ": 788,
      "ѭ": 789,
      "Ѯ": 790,
      "ѯ": 791,
      "Ѱ": 792,
      "ѱ": 793,
      "Ѳ": 794,
      "ѳ": 795,
      "Ѵ": 796,
      "ѵ": 797,
      "Ѷ": 798,
      "Ѹ": 799,
      "ѹ": 800,
      "Ѻ": 801,
      "ѻ": 802,
      "Ѽ": 803,
      "ѽ": 804,
      "Ѿ": 805,
      "ѿ": 806,
      "ҁ": 807,
      "Ґ": 808,
      "ґ": 809,
      "Қ": 810,
      "қ": 811,
      "ҝ": 812,
      "ҡ": 813,
      "ң": 814,
      "Ҥ": 815,
      "ҥ": 816,
      "Ҧ": 817,
      "ҧ": 818,
      "ҩ": 819,
      "Ҫ": 820,
      "ҫ": 821,
      "ү": 822,
      "Ұ": 823,
      "ұ": 824,
      "Ҳ": 825,
      "ҳ": 826,
      "Ҵ": 827,
      "ҵ": 828,
      "Ҷ": 829,
      "ҷ": 830,
      "Ҹ": 831,
      "ҹ": 832,
      "Һ": 833,
      "һ": 834,
      "Ҽ": 835,
      "ҽ": 836,
      "Ҿ": 837,
      "ҿ": 838,
      "ә": 839,
      "Ӝ": 840,
      "ӡ": 841,
      "Ӣ": 842,
      "ӣ": 843,
      "Ӥ": 844,
      "ӥ": 845,
      "Ӧ": 846,
      "Ӫ": 847,
      "ӭ": 848,
      "ӯ": 849,
      "Ӱ": 850,
      "ӱ": 851,
      "Ӳ": 852,
      "ӳ": 853,
      "Ӵ": 854,
      "ӵ": 855,
      "Ӷ": 856,
      "ӷ": 857,
      "Ӹ": 858,
      "ӹ": 859,
      "Ӻ": 860,
      "ӻ": 861,
      "Ӽ": 862,
      "ӽ": 863,
      "Ӿ": 864,
      "ӿ": 865,
      "ԃ": 866,
      "Ԕ": 867,
      "ԡ": 868,
      "ԣ": 869,
      "Ԥ": 870,
      "ԥ": 871,
      "ԩ": 872,
      "Ԫ": 873,
      "ԫ": 874,
      "ԭ": 875,
      "԰": 876,
      "Ա": 877,
      "Բ": 878,
      "Դ": 879,
      "Ե": 880,
      "Զ": 881,
      "Է": 882,
      "Ը": 883,
      "Թ": 884,
      "Ժ": 885,
      "Ի": 886,
      "Լ": 887,
      "Խ": 888,
      "Ծ": 889,
      "Կ": 890,
      "Հ": 891,
      "Ձ": 892,
      "Ղ": 893,
      "Յ": 894,
      "Շ": 895,
      "Ո": 896,
      "Վ": 897,
      "Ւ": 898,
      "ա": 899,
      "բ": 900,
      "գ": 901,
      "դ": 902,
      "ե": 903,
      "զ": 904,
      "թ": 905,
      "ժ": 906,
      "ի": 907,
      "լ": 908,
      "ծ": 909,
      "կ": 910,
      "հ": 911,
      "ձ": 912,
      "ղ": 913,
      "ճ": 914,
      "մ": 915,
      "յ": 916,
      "ն": 917,
      "շ": 918,
      "ո": 919,
      "չ": 920,
      "ջ": 921,
      "ռ": 922,
      "ս": 923,
      "վ": 924,
      "տ": 925,
      "ր": 926,
      "ւ": 927,
      "փ": 928,
      "ք": 929,
      "֌": 930,
      "֎": 931,
      "֡": 932,
      "֣": 933,
      "֤": 934,
      "֥": 935,
      "֦": 936,
      "֧": 937,
      "֪": 938,
      "֫": 939,
      "֮": 940,
      "֯": 941,
      "ְ": 942,
      "ֱ": 943,
      "ֲ": 944,
      "ֳ": 945,
      "ִ": 946,
      "ֵ": 947,
      "ֶ": 948,
      "ַ": 949,
      "ָ": 950,
      "ֹ": 951,
      "ֺ": 952,
      "ֻ": 953,
      "ּ": 954,
      "ֽ": 955,
      "ֿ": 956,
      "ׁ": 957,
      "׊": 958,
      "א": 959,
      "ב": 960,
      "ג": 961,
      "ד": 962,
      "ה": 963,
      "ו": 964,
      "ז": 965,
      "ח": 966,
      "ט": 967,
      "י": 968,
      "כ": 969,
      "ל": 970,
      "ם": 971,
      "מ": 972,
      "ן": 973,
      "נ": 974,
      "ס": 975,
      "ע": 976,
      "ף": 977,
      "פ": 978,
      "ץ": 979,
      "צ": 980,
      "ק": 981,
      "ר": 982,
      "ש": 983,
      "ת": 984,
      "׫": 985,
      "׮": 986,
      "ׯ": 987,
      "װ": 988,
      "ױ": 989,
      "ײ": 990,
      "׳": 991,
      "״": 992,
      "׵": 993,
      "׶": 994,
      "׷": 995,
      "׸": 996,
      "׹": 997,
      "׺": 998,
      "׻": 999,
      "׼": 1000,
      "׽": 1001,
      "׾": 1002,
      "׿": 1003,
      "؁": 1004,
      "؂": 1005,
      "،": 1006,
      "ؐ": 1007,
      "ؒ": 1008,
      "ؕ": 1009,
      "؟": 1010,
      "ء": 1011,
      "آ": 1012,
      "أ": 1013,
      "ؤ": 1014,
      "إ": 1015,
      "ا": 1016,
      "ب": 1017,
      "ة": 1018,
      "ت": 1019,
      "ج": 1020,
      "ح": 1021,
      "د": 1022,
      "ذ": 1023,
      "ر": 1024,
      "ز": 1025,
      "س": 1026,
      "ش": 1027,
      "ص": 1028,
      "ض": 1029,
      "ط": 1030,
      "ظ": 1031,
      "ع": 1032,
      "غ": 1033,
      "ػ": 1034,
      "ؼ": 1035,
      "ؽ": 1036,
      "ؾ": 1037,
      "ؿ": 1038,
      "ـ": 1039,
      "ف": 1040,
      "ق": 1041,
      "ك": 1042,
      "ل": 1043,
      "م": 1044,
      "ن": 1045,
      "ه": 1046,
      "و": 1047,
      "ي": 1048,
      "ْ": 1049,
      "١": 1050,
      "٣": 1051,
      "٤": 1052,
      "٥": 1053,
      "ٮ": 1054,
      "ٰ": 1055,
      "ٱ": 1056,
      "ٲ": 1057,
      "ٳ": 1058,
      "ٴ": 1059,
      "ٶ": 1060,
      "ٷ": 1061,
      "ٸ": 1062,
      "ٹ": 1063,
      "ٺ": 1064,
      "ٻ": 1065,
      "ټ": 1066,
      "ٽ": 1067,
      "پ": 1068,
      "ځ": 1069,
      "ڂ": 1070,
      "ڄ": 1071,
      "چ": 1072,
      "ڌ": 1073,
      "ڡ": 1074,
      "ڣ": 1075,
      "ڤ": 1076,
      "ڥ": 1077,
      "ڧ": 1078,
      "ک": 1079,
      "ڭ": 1080,
      "گ": 1081,
      "ڰ": 1082,
      "ڱ": 1083,
      "ڲ": 1084,
      "ڳ": 1085,
      "ڴ": 1086,
      "ڵ": 1087,
      "ڶ": 1088,
      "ڷ": 1089,
      "ڸ": 1090,
      "ڹ": 1091,
      "ں": 1092,
      "ڻ": 1093,
      "ڼ": 1094,
      "ڽ": 1095,
      "ھ": 1096,
      "ڿ": 1097,
      "ۃ": 1098,
      "ۊ": 1099,
      "ی": 1100,
      "ێ": 1101,
      "ې": 1102,
      "ۑ": 1103,
      "ۘ": 1104,
      "ۚ": 1105,
      "ۛ": 1106,
      "ۡ": 1107,
      "ۣ": 1108,
      "ۤ": 1109,
      "ۥ": 1110,
      "ۧ": 1111,
      "ۨ": 1112,
      "۱": 1113,
      "۲": 1114,
      "۳": 1115,
      "۴": 1116,
      "۵": 1117,
      "۶": 1118,
      "۷": 1119,
      "۸": 1120,
      "۹": 1121,
      "ۺ": 1122,
      "ۻ": 1123,
      "ۼ": 1124,
      "۽": 1125,
      "۾": 1126,
      "ۿ": 1127,
      "܁": 1128,
      "܂": 1129,
      "ܗ": 1130,
      "ܡ": 1131,
      "ܣ": 1132,
      "ܤ": 1133,
      "ܥ": 1134,
      "ܰ": 1135,
      "ܱ": 1136,
      "ܲ": 1137,
      "ܳ": 1138,
      "ܴ": 1139,
      "ܵ": 1140,
      "ܶ": 1141,
      "ܷ": 1142,
      "ܸ": 1143,
      "ܹ": 1144,
      "ܺ": 1145,
      "ܻ": 1146,
      "ܼ": 1147,
      "ܽ": 1148,
      "ܾ": 1149,
      "ܿ": 1150,
      "݌": 1151,
      "ݡ": 1152,
      "ݣ": 1153,
      "ݤ": 1154,
      "ݥ": 1155,
      "ݮ": 1156,
      "ݰ": 1157,
      "ݱ": 1158,
      "ݲ": 1159,
      "ݳ": 1160,
      "ݴ": 1161,
      "ݵ": 1162,
      "ݶ": 1163,
      "ݷ": 1164,
      "ݸ": 1165,
      "ݹ": 1166,
      "ݺ": 1167,
      "ݻ": 1168,
      "ݼ": 1169,
      "ݽ": 1170,
      "ݾ": 1171,
      "ݿ": 1172,
      "ށ": 1173,
      "ނ": 1174,
      "ޗ": 1175,
      "ޡ": 1176,
      "ޣ": 1177,
      "ޤ": 1178,
      "ޥ": 1179,
      "ް": 1180,
      "ޱ": 1181,
      "޳": 1182,
      "޴": 1183,
      "޶": 1184,
      "޷": 1185,
      "޸": 1186,
      "޹": 1187,
      "޺": 1188,
      "޻": 1189,
      "޼": 1190,
      "޽": 1191,
      "޾": 1192,
      "޿": 1193,
      "߁": 1194,
      "ߡ": 1195,
      "ߣ": 1196,
      "ߤ": 1197,
      "ߥ": 1198,
      "߰": 1199,
      "߱": 1200,
      "߲": 1201,
      "߳": 1202,
      "ߴ": 1203,
      "ߵ": 1204,
      "߶": 1205,
      "߷": 1206,
      "߸": 1207,
      "߹": 1208,
      "ߺ": 1209,
      "߻": 1210,
      "߼": 1211,
      "߽": 1212,
      "߾": 1213,
      "߿": 1214,
      "ࡢ": 1215,
      "ࡣ": 1216,
      "ࡦ": 1217,
      "ࡱ": 1218,
      "ࡼ": 1219,
      "ं": 1220,
      "ः": 1221,
      "आ": 1222,
      "क": 1223,
      "ग": 1224,
      "ङ": 1225,
      "ठ": 1226,
      "त": 1227,
      "द": 1228,
      "न": 1229,
      "प": 1230,
      "ब": 1231,
      "म": 1232,
      "र": 1233,
      "ल": 1234,
      "श": 1235,
      "ह": 1236,
      "ा": 1237,
      "ि": 1238,
      "ी": 1239,
      "े": 1240,
      "ो": 1241,
      "्": 1242,
      "ॹ": 1243,
      "ॺ": 1244,
      "ং": 1245,
      "ব": 1246,
      "ল": 1247,
      "া": 1248,
      "ਕ": 1249,
      "ਗ": 1250,
      "ਜ": 1251,
      "ਟ": 1252,
      "ਠ": 1253,
      "ਤ": 1254,
      "ਪ": 1255,
      "ਫ": 1256,
      "ਬ": 1257,
      "ਰ": 1258,
      "ਵ": 1259,
      "ਾ": 1260,
      "ੀ": 1261,
      "ੋ": 1262,
      "ੰ": 1263,
      "ગ": 1264,
      "જ": 1265,
      "ટ": 1266,
      "ત": 1267,
      "પ": 1268,
      "ફ": 1269,
      "બ": 1270,
      "ર": 1271,
      "લ": 1272,
      "શ": 1273,
      "સ": 1274,
      "ા": 1275,
      "ી": 1276,
      "ુ": 1277,
      "ો": 1278,
      "્": 1279,
      "ஐ": 1280,
      "ண": 1281,
      "த": 1282,
      "ந": 1283,
      "ம": 1284,
      "ய": 1285,
      "ழ": 1286,
      "ா": 1287,
      "ி": 1288,
      "்": 1289,
      "గ": 1290,
      "త": 1291,
      "ల": 1292,
      "ు": 1293,
      "ె": 1294,
      "౸": 1295,
      "౿": 1296,
      "ಂ": 1297,
      "ಕ": 1298,
      "ಚ": 1299,
      "ಡ": 1300,
      "ನ": 1301,
      "ಿ": 1302,
      "ು": 1303,
      "್": 1304,
      "ം": 1305,
      "ച": 1306,
      "ത": 1307,
      "മ": 1308,
      "യ": 1309,
      "ല": 1310,
      "ള": 1311,
      "ഺ": 1312,
      "ാ": 1313,
      "ി": 1314,
      "൨": 1315,
      "ං": 1316,
      "ආ": 1317,
      "ඉ": 1318,
      "ණ": 1319,
      "ත": 1320,
      "ද": 1321,
      "න": 1322,
      "ම": 1323,
      "ය": 1324,
      "ර": 1325,
      "ල": 1326,
      "ව": 1327,
      "ස": 1328,
      "හ": 1329,
      "්": 1330,
      "ා": 1331,
      "ි": 1332,
      "ෲ": 1333,
      "෽": 1334,
      "ก": 1335,
      "ข": 1336,
      "ง": 1337,
      "ช": 1338,
      "ฒ": 1339,
      "ด": 1340,
      "ต": 1341,
      "ถ": 1342,
      "ท": 1343,
      "ธ": 1344,
      "น": 1345,
      "บ": 1346,
      "ฝ": 1347,
      "ภ": 1348,
      "ม": 1349,
      "ย": 1350,
      "ร": 1351,
      "ฦ": 1352,
      "ว": 1353,
      "ศ": 1354,
      "ษ": 1355,
      "ส": 1356,
      "ห": 1357,
      "อ": 1358,
      "ั": 1359,
      "า": 1360,
      "ิ": 1361,
      "ี": 1362,
      "ึ": 1363,
      "ู": 1364,
      "฿": 1365,
      "เ": 1366,
      "แ": 1367,
      "ใ": 1368,
      "ไ": 1369,
      "่": 1370,
      "้": 1371,
      "์": 1372,
      "ພ": 1373,
      "ລ": 1374,
      "ວ": 1375,
      "ສ": 1376,
      "າ": 1377,
      "ູ": 1378,
      "༭": 1379,
      "࿴": 1380,
      "စ": 1381,
      "န": 1382,
      "မ": 1383,
      "ာ": 1384,
      "်": 1385,
      "ြ": 1386,
      "ა": 1387,
      "დ": 1388,
      "თ": 1389,
      "ი": 1390,
      "კ": 1391,
      "ლ": 1392,
      "რ": 1393,
      "უ": 1394,
      "ქ": 1395,
      "ღ": 1396,
      "ህ": 1397,
      "መ": 1398,
      "ማ": 1399,
      "ሩ": 1400,
      "ር": 1401,
      "ስ": 1402,
      "ሺ": 1403,
      "ሽ": 1404,
      "ቀ": 1405,
      "ቃ": 1406,
      "ቅ": 1407,
      "በ": 1408,
      "ብ": 1409,
      "ቦ": 1410,
      "ታ": 1411,
      "ት": 1412,
      "ቶ": 1413,
      "ን": 1414,
      "ኛ": 1415,
      "አ": 1416,
      "ኢ": 1417,
      "ክ": 1418,
      "ደ": 1419,
      "ድ": 1420,
      "ገ": 1421,
      "ግ": 1422,
      "ጥ": 1423,
      "ፍ": 1424,
      "ፎ": 1425,
      "Ꭲ": 1426,
      "ខ": 1427,
      "ត": 1428,
      "ថ": 1429,
      "ភ": 1430,
      "ម": 1431,
      "រ": 1432,
      "ល": 1433,
      "ស": 1434,
      "ា": 1435,
      "ែ": 1436,
      "ៃ": 1437,
      "្": 1438,
      "០": 1439,
      "៣": 1440,
      "៦": 1441,
      "ᡢ": 1442,
      "ᡣ": 1443,
      "᡼": 1444,
      "ᣬ": 1445,
      "᣺": 1446,
      "᣻": 1447,
      "ᤫ": 1448,
      "᤮": 1449,
      "ᤷ": 1450,
      "᤿": 1451,
      "ᥙ": 1452,
      "ᥤ": 1453,
      "ᥫ": 1454,
      "ᥬ": 1455,
      "ᨁ": 1456,
      "ᨅ": 1457,
      "ᨔ": 1458,
      "ᨕ": 1459,
      "ᨗ": 1460,
      "ᨘ": 1461,
      "ᰡ": 1462,
      "ᱛ": 1463,
      "ᱟ": 1464,
      "ᱤ": 1465,
      "ᱥ": 1466,
      "ᱱ": 1467,
      "ᱲ": 1468,
      "ᱹ": 1469,
      "Ტ": 1470,
      "ᵃ": 1471,
      "ᵐ": 1472,
      "ᵒ": 1473,
      "ᵗ": 1474,
      "ᵳ": 1475,
      "ᵾ": 1476,
      "ᶙ": 1477,
      "ᶤ": 1478,
      "ᶨ": 1479,
      "ᷢ": 1480,
      "Ḁ": 1481,
      "ḁ": 1482,
      "ḃ": 1483,
      "ḅ": 1484,
      "ḇ": 1485,
      "ḉ": 1486,
      "ḋ": 1487,
      "ḍ": 1488,
      "ḏ": 1489,
      "ḑ": 1490,
      "ḓ": 1491,
      "ḕ": 1492,
      "ḗ": 1493,
      "ḙ": 1494,
      "ḛ": 1495,
      "ḝ": 1496,
      "ḟ": 1497,
      "ḡ": 1498,
      "ḣ": 1499,
      "ḥ": 1500,
      "ḧ": 1501,
      "ḩ": 1502,
      "ḫ": 1503,
      "ḭ": 1504,
      "ḯ": 1505,
      "ḱ": 1506,
      "ḳ": 1507,
      "ḵ": 1508,
      "Ḷ": 1509,
      "ḷ": 1510,
      "ḹ": 1511,
      "ḻ": 1512,
      "ḽ": 1513,
      "ḿ": 1514,
      "ṁ": 1515,
      "ṃ": 1516,
      "Ṅ": 1517,
      "ṅ": 1518,
      "ṇ": 1519,
      "ṉ": 1520,
      "ṋ": 1521,
      "ṍ": 1522,
      "ṏ": 1523,
      "ṑ": 1524,
      "ṓ": 1525,
      "ṕ": 1526,
      "ṗ": 1527,
      "ṙ": 1528,
      "ṛ": 1529,
      "ṝ": 1530,
      "ṟ": 1531,
      "ṡ": 1532,
      "Ṣ": 1533,
      "ṣ": 1534,
      "Ṥ": 1535,
      "ṥ": 1536,
      "ṧ": 1537,
      "ṩ": 1538,
      "ṫ": 1539,
      "ṭ": 1540,
      "ṯ": 1541,
      "ṱ": 1542,
      "Ṳ": 1543,
      "ṳ": 1544,
      "Ṵ": 1545,
      "ṵ": 1546,
      "Ṷ": 1547,
      "ṷ": 1548,
      "Ṹ": 1549,
      "ṹ": 1550,
      "Ṻ": 1551,
      "ṻ": 1552,
      "ṽ": 1553,
      "ṿ": 1554,
      "ẁ": 1555,
      "ẃ": 1556,
      "ẅ": 1557,
      "ẇ": 1558,
      "ẉ": 1559,
      "ẋ": 1560,
      "ẍ": 1561,
      "ẏ": 1562,
      "ẑ": 1563,
      "ẓ": 1564,
      "ẕ": 1565,
      "ẖ": 1566,
      "ẗ": 1567,
      "ẘ": 1568,
      "ẙ": 1569,
      "ẚ": 1570,
      "ẜ": 1571,
      "ẝ": 1572,
      "ẟ": 1573,
      "Ạ": 1574,
      "ạ": 1575,
      "Ả": 1576,
      "ả": 1577,
      "Ấ": 1578,
      "ấ": 1579,
      "Ầ": 1580,
      "ầ": 1581,
      "Ẩ": 1582,
      "ẩ": 1583,
      "Ẫ": 1584,
      "ẫ": 1585,
      "Ậ": 1586,
      "ậ": 1587,
      "Ắ": 1588,
      "ắ": 1589,
      "Ằ": 1590,
      "ằ": 1591,
      "Ẳ": 1592,
      "ẳ": 1593,
      "Ẵ": 1594,
      "ẵ": 1595,
      "Ặ": 1596,
      "ặ": 1597,
      "Ẹ": 1598,
      "ẹ": 1599,
      "ẻ": 1600,
      "ẽ": 1601,
      "ế": 1602,
      "ề": 1603,
      "ể": 1604,
      "ễ": 1605,
      "ệ": 1606,
      "Ỉ": 1607,
      "ỉ": 1608,
      "Ị": 1609,
      "ị": 1610,
      "Ọ": 1611,
      "ọ": 1612,
      "Ỏ": 1613,
      "ỏ": 1614,
      "Ố": 1615,
      "ố": 1616,
      "Ồ": 1617,
      "ồ": 1618,
      "Ổ": 1619,
      "ổ": 1620,
      "Ỗ": 1621,
      "ỗ": 1622,
      "Ộ": 1623,
      "ộ": 1624,
      "Ớ": 1625,
      "ớ": 1626,
      "Ờ": 1627,
      "ờ": 1628,
      "Ở": 1629,
      "ở": 1630,
      "Ỡ": 1631,
      "ỡ": 1632,
      "Ợ": 1633,
      "ợ": 1634,
      "Ụ": 1635,
      "ụ": 1636,
      "Ủ": 1637,
      "ủ": 1638,
      "Ứ": 1639,
      "ứ": 1640,
      "Ừ": 1641,
      "ừ": 1642,
      "Ử": 1643,
      "ử": 1644,
      "Ữ": 1645,
      "ữ": 1646,
      "Ự": 1647,
      "ự": 1648,
      "Ỳ": 1649,
      "ỳ": 1650,
      "Ỵ": 1651,
      "ỵ": 1652,
      "Ỷ": 1653,
      "ỷ": 1654,
      "ỹ": 1655,
      "ỻ": 1656,
      "ỽ": 1657,
      "ỿ": 1658,
      "ἀ": 1659,
      "ἁ": 1660,
      "ἂ": 1661,
      "ἃ": 1662,
      "ἄ": 1663,
      "ἅ": 1664,
      "ἆ": 1665,
      "ἇ": 1666,
      "Ἀ": 1667,
      "Ἁ": 1668,
      "Ἂ": 1669,
      "Ἃ": 1670,
      "Ἄ": 1671,
      "Ἅ": 1672,
      "Ἆ": 1673,
      "Ἇ": 1674,
      "ὐ": 1675,
      "ὑ": 1676,
      "ὒ": 1677,
      "ὓ": 1678,
      "ὔ": 1679,
      "ὕ": 1680,
      "ὖ": 1681,
      "ὗ": 1682,
      "Ὠ": 1683,
      "ὰ": 1684,
      "ά": 1685,
      "ό": 1686,
      "ὺ": 1687,
      "ύ": 1688,
      "ᾀ": 1689,
      "ᾁ": 1690,
      "ᾂ": 1691,
      "ᾃ": 1692,
      "ᾄ": 1693,
      "ᾅ": 1694,
      "ᾆ": 1695,
      "ᾇ": 1696,
      "ᾈ": 1697,
      "ᾉ": 1698,
      "ᾊ": 1699,
      "ᾋ": 1700,
      "ᾌ": 1701,
      "ᾍ": 1702,
      "ᾎ": 1703,
      "ᾏ": 1704,
      "ᾰ": 1705,
      "ᾱ": 1706,
      "ᾲ": 1707,
      "ᾳ": 1708,
      "ᾴ": 1709,
      "᾵": 1710,
      "ᾶ": 1711,
      "ᾷ": 1712,
      "Ᾰ": 1713,
      "Ᾱ": 1714,
      "Ὰ": 1715,
      "Ά": 1716,
      "ᾼ": 1717,
      "Ὶ": 1718,
      "Ί": 1719,
      "῝": 1720,
      "῞": 1721,
      "῟": 1722,
      "ῠ": 1723,
      "ῡ": 1724,
      "ῢ": 1725,
      "ΰ": 1726,
      "ῤ": 1727,
      "ῥ": 1728,
      "ῦ": 1729,
      "ῧ": 1730,
      "Ῠ": 1731,
      "Ῡ": 1732,
      "Ὺ": 1733,
      "​": 1734,
      "‌": 1735,
      "‍": 1736,
      "‎": 1737,
      "‐": 1738,
      "‑": 1739,
      "‒": 1740,
      "–": 1741,
      "—": 1742,
      "―": 1743,
      "‘": 1744,
      "’": 1745,
      "‚": 1746,
      "“": 1747,
      "”": 1748,
      "„": 1749,
      "‟": 1750,
      "†": 1751,
      "‡": 1752,
      "•": 1753,
      "…": 1754,
      "‧": 1755,
      "‬": 1756,
      "‰": 1757,
      "′": 1758,
      "″": 1759,
      "‹": 1760,
      "›": 1761,
      "※": 1762,
      "‿": 1763,
      "⁀": 1764,
      "⁺": 1765,
      "₂": 1766,
      "₃": 1767,
      "₄": 1768,
      "ₐ": 1769,
      "ₒ": 1770,
      "ₕ": 1771,
      "ₙ": 1772,
      "₦": 1773,
      "₪": 1774,
      "€": 1775,
      "₱": 1776,
      "₷": 1777,
      "₹": 1778,
      "₺": 1779,
      "⃣": 1780,
      "℃": 1781,
      "℉": 1782,
      "№": 1783,
      "™": 1784,
      "⅓": 1785,
      "Ⅰ": 1786,
      "Ⅱ": 1787,
      "Ⅲ": 1788,
      "Ⅳ": 1789,
      "Ⅿ": 1790,
      "ⅼ": 1791,
      "←": 1792,
      "↑": 1793,
      "→": 1794,
      "↓": 1795,
      "↩": 1796,
      "⇐": 1797,
      "⇒": 1798,
      "∎": 1799,
      "−": 1800,
      "∙": 1801,
      "√": 1802,
      "∥": 1803,
      "∫": 1804,
      "≈": 1805,
      "≡": 1806,
      "≤": 1807,
      "≥": 1808,
      "⊥": 1809,
      "⋆": 1810,
      "⌘": 1811,
      "⌛": 1812,
      "⏩": 1813,
      "①": 1814,
      "②": 1815,
      "③": 1816,
      "④": 1817,
      "⑤": 1818,
      "⑥": 1819,
      "⑴": 1820,
      "⑵": 1821,
      "⑶": 1822,
      "⑷": 1823,
      "⓵": 1824,
      "⓷": 1825,
      "⓸": 1826,
      "⓹": 1827,
      "⓽": 1828,
      "─": 1829,
      "│": 1830,
      "┃": 1831,
      "═": 1832,
      "║": 1833,
      "╔": 1834,
      "╗": 1835,
      "╙": 1836,
      "╚": 1837,
      "╜": 1838,
      "╝": 1839,
      "▀": 1840,
      "▄": 1841,
      "█": 1842,
      "▌": 1843,
      "▐": 1844,
      "░": 1845,
      "▒": 1846,
      "▓": 1847,
      "■": 1848,
      "□": 1849,
      "▪": 1850,
      "▲": 1851,
      "△": 1852,
      "▶": 1853,
      "▷": 1854,
      "►": 1855,
      "▼": 1856,
      "▽": 1857,
      "▾": 1858,
      "◄": 1859,
      "◆": 1860,
      "◊": 1861,
      "○": 1862,
      "◎": 1863,
      "●": 1864,
      "◪": 1865,
      "◯": 1866,
      "☀": 1867,
      "☁": 1868,
      "★": 1869,
      "☆": 1870,
      "☑": 1871,
      "☞": 1872,
      "☤": 1873,
      "♠": 1874,
      "♡": 1875,
      "♣": 1876,
      "♥": 1877,
      "♦": 1878,
      "♪": 1879,
      "⚙": 1880,
      "⚠": 1881,
      "⚫": 1882,
      "✅": 1883,
      "✉": 1884,
      "✓": 1885,
      "✔": 1886,
      "✖": 1887,
      "✗": 1888,
      "✨": 1889,
      "✯": 1890,
      "✳": 1891,
      "✿": 1892,
      "❀": 1893,
      "❏": 1894,
      "❝": 1895,
      "❞": 1896,
      "❤": 1897,
      "❯": 1898,
      "➡": 1899,
      "➤": 1900,
      "➥": 1901,
      "➹": 1902,
      "⟵": 1903,
      "⟶": 1904,
      "⠀": 1905,
      "⡢": 1906,
      "⡣": 1907,
      "⡦": 1908,
      "⡼": 1909,
      "⣬": 1910,
      "⣺": 1911,
      "⤓": 1912,
      "⤤": 1913,
      "⤦": 1914,
      "⤳": 1915,
      "⥢": 1916,
      "⥶": 1917,
      "⥻": 1918,
      "⨯": 1919,
      "⭐": 1920,
      "Ⱑ": 1921,
      "Ⱓ": 1922,
      "Ⱝ": 1923,
      "Ᵽ": 1924,
      "ⱼ": 1925,
      "Ⲣ": 1926,
      "⳥": 1927,
      "⳰": 1928,
      "⳵": 1929,
      "ⴴ": 1930,
      "ⵡ": 1931,
      "⵵": 1932,
      "⵽": 1933,
      "⶧": 1934,
      "ⶳ": 1935,
      "ⷢ": 1936,
      "ⷨ": 1937,
      "⸄": 1938,
      "⸅": 1939,
      "⹤": 1940,
      "⹮": 1941,
      "⹰": 1942,
      "⹻": 1943,
      "⺭": 1944,
      "⺻": 1945,
      "⼯": 1946,
      "⼰": 1947,
      "⼸": 1948,
      "⽭": 1949,
      "⽵": 1950,
      "⾮": 1951,
      "、": 1952,
      "。": 1953,
      "〇": 1954,
      "〉": 1955,
      "《": 1956,
      "》": 1957,
      "「": 1958,
      "」": 1959,
      "』": 1960,
      "【": 1961,
      "】": 1962,
      "〒": 1963,
      "〜": 1964,
      "あ": 1965,
      "い": 1966,
      "う": 1967,
      "え": 1968,
      "お": 1969,
      "か": 1970,
      "が": 1971,
      "ぎ": 1972,
      "く": 1973,
      "さ": 1974,
      "じ": 1975,
      "つ": 1976,
      "づ": 1977,
      "て": 1978,
      "と": 1979,
      "に": 1980,
      "は": 1981,
      "ゅ": 1982,
      "ょ": 1983,
      "を": 1984,
      "ん": 1985,
      "ァ": 1986,
      "ア": 1987,
      "ィ": 1988,
      "イ": 1989,
      "ゥ": 1990,
      "ウ": 1991,
      "ェ": 1992,
      "エ": 1993,
      "ォ": 1994,
      "オ": 1995,
      "カ": 1996,
      "キ": 1997,
      "ゴ": 1998,
      "シ": 1999,
      "ス": 2000,
      "ズ": 2001,
      "セ": 2002,
      "ッ": 2003,
      "テ": 2004,
      "デ": 2005,
      "ト": 2006,
      "バ": 2007,
      "パ": 2008,
      "フ": 2009,
      "ブ": 2010,
      "ベ": 2011,
      "ボ": 2012,
      "マ": 2013,
      "メ": 2014,
      "ョ": 2015,
      "リ": 2016,
      "ル": 2017,
      "レ": 2018,
      "ロ": 2019,
      "ン": 2020,
      "・": 2021,
      "ー": 2022,
      "ㄩ": 2023,
      "㎜": 2024,
      "㎡": 2025,
      "㡣": 2026,
      "㣬": 2027,
      "㣱": 2028,
      "㣺": 2029,
      "㤤": 2030,
      "㥫": 2031,
      "㥵": 2032,
      "㥻": 2033,
      "㰮": 2034,
      "㲼": 2035,
      "㲿": 2036,
      "㳡": 2037,
      "㳲": 2038,
      "㴳": 2039,
      "㵤": 2040,
      "㵺": 2041,
      "㵽": 2042,
      "㶫": 2043,
      "㷢": 2044,
      "㷺": 2045,
      "㷿": 2046,
      "㸶": 2047,
      "㹥": 2048,
      "㹫": 2049,
      "㼭": 2050,
      "㼾": 2051,
      "㽭": 2052,
      "㽻": 2053,
      "㾭": 2054,
      "䡡": 2055,
      "䡢": 2056,
      "䡦": 2057,
      "䡪": 2058,
      "䡰": 2059,
      "䡼": 2060,
      "䣴": 2061,
      "䣺": 2062,
      "䤤": 2063,
      "䤵": 2064,
      "䤷": 2065,
      "䤹": 2066,
      "䤿": 2067,
      "䥤": 2068,
      "䱳": 2069,
      "䲰": 2070,
      "䳫": 2071,
      "䴬": 2072,
      "一": 2073,
      "三": 2074,
      "上": 2075,
      "下": 2076,
      "不": 2077,
      "丨": 2078,
      "中": 2079,
      "丮": 2080,
      "丵": 2081,
      "主": 2082,
      "乫": 2083,
      "于": 2084,
      "亚": 2085,
      "亦": 2086,
      "享": 2087,
      "人": 2088,
      "代": 2089,
      "以": 2090,
      "仯": 2091,
      "件": 2092,
      "伊": 2093,
      "会": 2094,
      "伴": 2095,
      "体": 2096,
      "作": 2097,
      "佱": 2098,
      "例": 2099,
      "俄": 2100,
      "信": 2101,
      "修": 2102,
      "八": 2103,
      "公": 2104,
      "净": 2105,
      "分": 2106,
      "切": 2107,
      "列": 2108,
      "利": 2109,
      "刷": 2110,
      "刺": 2111,
      "力": 2112,
      "功": 2113,
      "加": 2114,
      "务": 2115,
      "包": 2116,
      "午": 2117,
      "卓": 2118,
      "单": 2119,
      "卡": 2120,
      "厄": 2121,
      "压": 2122,
      "厚": 2123,
      "厛": 2124,
      "原": 2125,
      "厦": 2126,
      "反": 2127,
      "古": 2128,
      "召": 2129,
      "可": 2130,
      "台": 2131,
      "号": 2132,
      "司": 2133,
      "同": 2134,
      "名": 2135,
      "员": 2136,
      "咷": 2137,
      "品": 2138,
      "哥": 2139,
      "商": 2140,
      "喜": 2141,
      "嗪": 2142,
      "器": 2143,
      "噻": 2144,
      "围": 2145,
      "型": 2146,
      "埃": 2147,
      "培": 2148,
      "基": 2149,
      "塞": 2150,
      "塢": 2151,
      "塣": 2152,
      "塧": 2153,
      "塼": 2154,
      "境": 2155,
      "增": 2156,
      "士": 2157,
      "备": 2158,
      "夏": 2159,
      "外": 2160,
      "多": 2161,
      "夜": 2162,
      "夬": 2163,
      "失": 2164,
      "头": 2165,
      "夵": 2166,
      "奎": 2167,
      "奨": 2168,
      "奵": 2169,
      "字": 2170,
      "安": 2171,
      "室": 2172,
      "宽": 2173,
      "寸": 2174,
      "寻": 2175,
      "小": 2176,
      "尔": 2177,
      "尵": 2178,
      "尺": 2179,
      "島": 2180,
      "嵥": 2181,
      "嵳": 2182,
      "川": 2183,
      "工": 2184,
      "巹": 2185,
      "巽": 2186,
      "市": 2187,
      "帲": 2188,
      "帻": 2189,
      "幕": 2190,
      "年": 2191,
      "床": 2192,
      "店": 2193,
      "府": 2194,
      "庤": 2195,
      "度": 2196,
      "廓": 2197,
      "式": 2198,
      "弭": 2199,
      "張": 2200,
      "形": 2201,
      "径": 2202,
      "徳": 2203,
      "徺": 2204,
      "总": 2205,
      "息": 2206,
      "惊": 2207,
      "扫": 2208,
      "持": 2209,
      "挂": 2210,
      "损": 2211,
      "接": 2212,
      "掲": 2213,
      "描": 2214,
      "搶": 2215,
      "擾": 2216,
      "支": 2217,
      "救": 2218,
      "文": 2219,
      "料": 2220,
      "於": 2221,
      "日": 2222,
      "时": 2223,
      "昊": 2224,
      "春": 2225,
      "時": 2226,
      "最": 2227,
      "月": 2228,
      "有": 2229,
      "服": 2230,
      "本": 2231,
      "机": 2232,
      "李": 2233,
      "材": 2234,
      "条": 2235,
      "株": 2236,
      "案": 2237,
      "桢": 2238,
      "档": 2239,
      "桪": 2240,
      "桱": 2241,
      "桼": 2242,
      "梅": 2243,
      "棡": 2244,
      "棬": 2245,
      "棳": 2246,
      "棴": 2247,
      "椬": 2248,
      "椺": 2249,
      "標": 2250,
      "歌": 2251,
      "歡": 2252,
      "死": 2253,
      "比": 2254,
      "毛": 2255,
      "氶": 2256,
      "汳": 2257,
      "汹": 2258,
      "沈": 2259,
      "沪": 2260,
      "泫": 2261,
      "泲": 2262,
      "浡": 2263,
      "浵": 2264,
      "浶": 2265,
      "浻": 2266,
      "液": 2267,
      "添": 2268,
      "渮": 2269,
      "渶": 2270,
      "湮": 2271,
      "溯": 2272,
      "溸": 2273,
      "满": 2274,
      "滮": 2275,
      "漢": 2276,
      "漰": 2277,
      "漴": 2278,
      "漼": 2279,
      "潻": 2280,
      "澩": 2281,
      "濡": 2282,
      "濴": 2283,
      "濵": 2284,
      "点": 2285,
      "照": 2286,
      "片": 2287,
      "版": 2288,
      "特": 2289,
      "牺": 2290,
      "独": 2291,
      "獨": 2292,
      "率": 2293,
      "現": 2294,
      "瓜": 2295,
      "用": 2296,
      "甲": 2297,
      "电": 2298,
      "目": 2299,
      "直": 2300,
      "短": 2301,
      "石": 2302,
      "砸": 2303,
      "硢": 2304,
      "硦": 2305,
      "硪": 2306,
      "硰": 2307,
      "硱": 2308,
      "硼": 2309,
      "磊": 2310,
      "磬": 2311,
      "磿": 2312,
      "礬": 2313,
      "礭": 2314,
      "礹": 2315,
      "礻": 2316,
      "社": 2317,
      "祤": 2318,
      "禎": 2319,
      "积": 2320,
      "笠": 2321,
      "简": 2322,
      "管": 2323,
      "箱": 2324,
      "簢": 2325,
      "簭": 2326,
      "簳": 2327,
      "籩": 2328,
      "籫": 2329,
      "米": 2330,
      "粤": 2331,
      "糭": 2332,
      "系": 2333,
      "結": 2334,
      "絬": 2335,
      "經": 2336,
      "緽": 2337,
      "緿": 2338,
      "縩": 2339,
      "縳": 2340,
      "繁": 2341,
      "繦": 2342,
      "红": 2343,
      "绰": 2344,
      "缆": 2345,
      "缭": 2346,
      "缾": 2347,
      "罸": 2348,
      "羳": 2349,
      "翣": 2350,
      "翴": 2351,
      "肢": 2352,
      "能": 2353,
      "至": 2354,
      "芝": 2355,
      "苏": 2356,
      "范": 2357,
      "荣": 2358,
      "蛰": 2359,
      "衦": 2360,
      "表": 2361,
      "衱": 2362,
      "装": 2363,
      "褦": 2364,
      "褫": 2365,
      "褬": 2366,
      "褹": 2367,
      "褽": 2368,
      "襷": 2369,
      "见": 2370,
      "語": 2371,
      "词": 2372,
      "语": 2373,
      "谷": 2374,
      "豸": 2375,
      "賰": 2376,
      "赻": 2377,
      "跨": 2378,
      "踏": 2379,
      "踦": 2380,
      "軻": 2381,
      "載": 2382,
      "輪": 2383,
      "软": 2384,
      "轴": 2385,
      "轵": 2386,
      "这": 2387,
      "迵": 2388,
      "送": 2389,
      "速": 2390,
      "遊": 2391,
      "道": 2392,
      "邮": 2393,
      "邽": 2394,
      "部": 2395,
      "酒": 2396,
      "里": 2397,
      "重": 2398,
      "量": 2399,
      "金": 2400,
      "鉄": 2401,
      "錾": 2402,
      "鏚": 2403,
      "链": 2404,
      "锯": 2405,
      "长": 2406,
      "關": 2407,
      "门": 2408,
      "间": 2409,
      "限": 2410,
      "集": 2411,
      "雨": 2412,
      "雪": 2413,
      "雷": 2414,
      "電": 2415,
      "青": 2416,
      "面": 2417,
      "顡": 2418,
      "顢": 2419,
      "顣": 2420,
      "顩": 2421,
      "顰": 2422,
      "项": 2423,
      "顼": 2424,
      "飬": 2425,
      "飺": 2426,
      "餤": 2427,
      "餪": 2428,
      "餫": 2429,
      "餹": 2430,
      "饤": 2431,
      "饯": 2432,
      "饸": 2433,
      "饹": 2434,
      "馈": 2435,
      "驗": 2436,
      "骄": 2437,
      "體": 2438,
      "魹": 2439,
      "鱣": 2440,
      "鳫": 2441,
      "鶨": 2442,
      "鷽": 2443,
      "鸦": 2444,
      "鸸": 2445,
      "麣": 2446,
      "齨": 2447,
      "齫": 2448,
      "鿡": 2449,
      "鿪": 2450,
      "鿴": 2451,
      "ꂽ": 2452,
      "ꇳ": 2453,
      "ꎞ": 2454,
      "ꗗ": 2455,
      "Ꞹ": 2456,
      "ꞹ": 2457,
      "Ꞿ": 2458,
      "ꞿ": 2459,
      "ꡡ": 2460,
      "ꡢ": 2461,
      "ꡪ": 2462,
      "ꡰ": 2463,
      "꡼": 2464,
      "꣩": 2465,
      "꣬": 2466,
      "꣺": 2467,
      "ꤦ": 2468,
      "꤬": 2469,
      "꤯": 2470,
      "ꤷ": 2471,
      "ꤿ": 2472,
      "ꥢ": 2473,
      "ꥨ": 2474,
      "ꥪ": 2475,
      "ꥫ": 2476,
      "ꥱ": 2477,
      "ꥳ": 2478,
      "ꥷ": 2479,
      "ꥸ": 2480,
      "ꥹ": 2481,
      "ꥻ": 2482,
      "꥾": 2483,
      "ꭒ": 2484,
      "갈": 2485,
      "갓": 2486,
      "걨": 2487,
      "검": 2488,
      "격": 2489,
      "계": 2490,
      "고": 2491,
      "곱": 2492,
      "공": 2493,
      "곿": 2494,
      "광": 2495,
      "괧": 2496,
      "구": 2497,
      "국": 2498,
      "굮": 2499,
      "규": 2500,
      "긲": 2501,
      "김": 2502,
      "깥": 2503,
      "깺": 2504,
      "꺸": 2505,
      "꺻": 2506,
      "껯": 2507,
      "껵": 2508,
      "꽵": 2509,
      "꾦": 2510,
      "꿬": 2511,
      "남": 2512,
      "노": 2513,
      "니": 2514,
      "독": 2515,
      "동": 2516,
      "라": 2517,
      "러": 2518,
      "레": 2519,
      "로": 2520,
      "롡": 2521,
      "롢": 2522,
      "롣": 2523,
      "롦": 2524,
      "롯": 2525,
      "롰": 2526,
      "롼": 2527,
      "뤤": 2528,
      "뤦": 2529,
      "뤪": 2530,
      "뤬": 2531,
      "뤯": 2532,
      "뤳": 2533,
      "뤷": 2534,
      "뤹": 2535,
      "뤽": 2536,
      "뤿": 2537,
      "륢": 2538,
      "륨": 2539,
      "륪": 2540,
      "륫": 2541,
      "륮": 2542,
      "륯": 2543,
      "륳": 2544,
      "른": 2545,
      "륹": 2546,
      "륻": 2547,
      "를": 2548,
      "륿": 2549,
      "림": 2550,
      "마": 2551,
      "만": 2552,
      "매": 2553,
      "먹": 2554,
      "메": 2555,
      "명": 2556,
      "모": 2557,
      "무": 2558,
      "박": 2559,
      "뱫": 2560,
      "뱸": 2561,
      "버": 2562,
      "볡": 2563,
      "볫": 2564,
      "볱": 2565,
      "보": 2566,
      "뷭": 2567,
      "뷺": 2568,
      "브": 2569,
      "븐": 2570,
      "븣": 2571,
      "븩": 2572,
      "븮": 2573,
      "븶": 2574,
      "빫": 2575,
      "빮": 2576,
      "뺸": 2577,
      "뻡": 2578,
      "뻦": 2579,
      "뻷": 2580,
      "뼪": 2581,
      "뼱": 2582,
      "뽡": 2583,
      "뽭": 2584,
      "뿩": 2585,
      "사": 2586,
      "상": 2587,
      "선": 2588,
      "세": 2589,
      "수": 2590,
      "쉬": 2591,
      "쉽": 2592,
      "스": 2593,
      "슬": 2594,
      "시": 2595,
      "신": 2596,
      "쑢": 2597,
      "아": 2598,
      "안": 2599,
      "어": 2600,
      "에": 2601,
      "역": 2602,
      "온": 2603,
      "올": 2604,
      "우": 2605,
      "울": 2606,
      "원": 2607,
      "웰": 2608,
      "윤": 2609,
      "의": 2610,
      "이": 2611,
      "인": 2612,
      "재": 2613,
      "저": 2614,
      "제": 2615,
      "졢": 2616,
      "졼": 2617,
      "주": 2618,
      "중": 2619,
      "줬": 2620,
      "줷": 2621,
      "줿": 2622,
      "쥢": 2623,
      "쥤": 2624,
      "쥯": 2625,
      "쥳": 2626,
      "쥶": 2627,
      "쥷": 2628,
      "쥹": 2629,
      "즈": 2630,
      "증": 2631,
      "지": 2632,
      "진": 2633,
      "창": 2634,
      "챨": 2635,
      "처": 2636,
      "천": 2637,
      "철": 2638,
      "쳤": 2639,
      "쳿": 2640,
      "촴": 2641,
      "최": 2642,
      "쵤": 2643,
      "쵼": 2644,
      "춘": 2645,
      "춦": 2646,
      "춭": 2647,
      "춱": 2648,
      "츮": 2649,
      "츶": 2650,
      "치": 2651,
      "칮": 2652,
      "카": 2653,
      "캔": 2654,
      "켱": 2655,
      "코": 2656,
      "콨": 2657,
      "콸": 2658,
      "콻": 2659,
      "쾩": 2660,
      "쾰": 2661,
      "쾲": 2662,
      "턴": 2663,
      "텍": 2664,
      "텔": 2665,
      "통": 2666,
      "퇴": 2667,
      "튀": 2668,
      "튜": 2669,
      "트": 2670,
      "튼": 2671,
      "평": 2672,
      "폐": 2673,
      "픽": 2674,
      "하": 2675,
      "한": 2676,
      "함": 2677,
      "항": 2678,
      "호": 2679,
      "화": 2680,
      "": 2681,
      "": 2682,
      "": 2683,
      "": 2684,
      "": 2685,
      "": 2686,
      "": 2687,
      "": 2688,
      "": 2689,
      "": 2690,
      "": 2691,
      "": 2692,
      "": 2693,
      "": 2694,
      "": 2695,
      "": 2696,
      "": 2697,
      "": 2698,
      "": 2699,
      "": 2700,
      "": 2701,
      "": 2702,
      "": 2703,
      "": 2704,
      "": 2705,
      "": 2706,
      "": 2707,
      "": 2708,
      "": 2709,
      "": 2710,
      "": 2711,
      "": 2712,
      "": 2713,
      "": 2714,
      "": 2715,
      "": 2716,
      "": 2717,
      "": 2718,
      "": 2719,
      "": 2720,
      "": 2721,
      "": 2722,
      "": 2723,
      "": 2724,
      "": 2725,
      "": 2726,
      "": 2727,
      "": 2728,
      "": 2729,
      "": 2730,
      "": 2731,
      "": 2732,
      "": 2733,
      "": 2734,
      "": 2735,
      "": 2736,
      "": 2737,
      "": 2738,
      "": 2739,
      "": 2740,
      "": 2741,
      "": 2742,
      "": 2743,
      "": 2744,
      "": 2745,
      "": 2746,
      "": 2747,
      "": 2748,
      "": 2749,
      "": 2750,
      "": 2751,
      "": 2752,
      "": 2753,
      "": 2754,
      "": 2755,
      "": 2756,
      "": 2757,
      "": 2758,
      "": 2759,
      "": 2760,
      "": 2761,
      "": 2762,
      "": 2763,
      "": 2764,
      "": 2765,
      "": 2766,
      "": 2767,
      "": 2768,
      "": 2769,
      "": 2770,
      "": 2771,
      "": 2772,
      "襤": 2773,
      "櫓": 2774,
      "磻": 2775,
      "ﬁ": 2776,
      "ﬂ": 2777,
      "וּ": 2778,
      "וֹ": 2779,
      "ﮪ": 2780,
      "﮵": 2781,
      "﮶": 2782,
      "ﱳ": 2783,
      "ﲹ": 2784,
      "ﳲ": 2785,
      "﷿": 2786,
      "️": 2787,
      "﹒": 2788,
      "﹜": 2789,
      "﻿": 2790,
      "！": 2791,
      "＂": 2792,
      "％": 2793,
      "＆": 2794,
      "＇": 2795,
      "（": 2796,
      "）": 2797,
      "＊": 2798,
      "＋": 2799,
      "，": 2800,
      "－": 2801,
      "．": 2802,
      "／": 2803,
      "０": 2804,
      "１": 2805,
      "２": 2806,
      "３": 2807,
      "６": 2808,
      "８": 2809,
      "：": 2810,
      "；": 2811,
      "＜": 2812,
      "＝": 2813,
      "＞": 2814,
      "？": 2815,
      "［": 2816,
      "］": 2817,
      "ｍ": 2818,
      "｜": 2819,
      "～": 2820,
      "･": 2821,
      "￥": 2822,
      "￪": 2823,
      "￭": 2824,
      "￷": 2825,
      "￼": 2826,
      "�": 2827,
      "𒂊": 2828,
      "𒊹": 2829,
      "𒍢": 2830,
      "𝙰": 2831,
      "𝙱": 2832,
      "𝙲": 2833,
      "𝙴": 2834,
      "𝙶": 2835,
      "𝙸": 2836,
      "𝙼": 2837,
      "𝚂": 2838,
      "𝚃": 2839,
      "𝚄": 2840,
      "🆕": 2841,
      "🇦": 2842,
      "🇬": 2843,
      "🇭": 2844,
      "🇱": 2845,
      "🇳": 2846,
      "🇶": 2847,
      "🇸": 2848,
      "🇺": 2849,
      "🇼": 2850,
      "🇿": 2851,
      "🌏": 2852,
      "🌱": 2853,
      "🌹": 2854,
      "🍐": 2855,
      "🍴": 2856,
      "🍹": 2857,
      "🎎": 2858,
      "🎨": 2859,
      "🎰": 2860,
      "🏁": 2861,
      "🏆": 2862,
      "🏖": 2863,
      "🏠": 2864,
      "🏻": 2865,
      "🏼": 2866,
      "🏽": 2867,
      "🐣": 2868,
      "🐤": 2869,
      "🐥": 2870,
      "👀": 2871,
      "👉": 2872,
      "👍": 2873,
      "👜": 2874,
      "👥": 2875,
      "👩": 2876,
      "💋": 2877,
      "💌": 2878,
      "💔": 2879,
      "💖": 2880,
      "💘": 2881,
      "💙": 2882,
      "💚": 2883,
      "💛": 2884,
      "💡": 2885,
      "💥": 2886,
      "💰": 2887,
      "💻": 2888,
      "📁": 2889,
      "📍": 2890,
      "📰": 2891,
      "📷": 2892,
      "🔥": 2893,
      "🔧": 2894,
      "🔸": 2895,
      "🖤": 2896,
      "🗣": 2897,
      "😀": 2898,
      "😈": 2899,
      "😉": 2900,
      "😍": 2901,
      "😘": 2902,
      "😜": 2903,
      "😱": 2904,
      "🙁": 2905,
      "🙂": 2906,
      "🙋": 2907,
      "🙏": 2908,
      "🚀": 2909,
      "🛌": 2910,
      "🤑": 2911,
      "🤔": 2912,
      "🤖": 2913,
      "🤙": 2914,
      "🤠": 2915,
      "🥇": 2916,
      "🦰": 2917,
      "🧰": 2918,
      "𡢤": 2919,
      "𡰲": 2920,
      "𣬲": 2921,
      "𣬹": 2922,
      "𤵤": 2923,
      "𥨥": 2924,
      "𦡮": 2925,
      "𲽤": 2926,
      "𲿷": 2927,
      "𶢡": 2928,
      "𷴵": 2929,
      "𽺹": 2930,
      "𾭼": 2931,
      "񡢽": 2932,
      "񡰱": 2933,
      "񡱾": 2934,
      "񡹤": 2935,
      "񣺳": 2936,
      "񣺹": 2937,
      "񣺿": 2938,
      "񤷤": 2939,
      "񳫺": 2940,
      "񵯶": 2941,
      "񵻽": 2942,
      "񷨹": 2943,
      "񸫤": 2944,
      "񸲸": 2945,
      "񸻤": 2946,
      "񸻳": 2947,
      "񺽻": 2948,
      "񽺷": 2949,
      "򡡣": 2950,
      "򡢼": 2951,
      "򡧾": 2952,
      "򡷺": 2953,
      "򣿹": 2954,
      "򤪻": 2955,
      "򤴻": 2956,
      "򤷤": 2957,
      "򰡴": 2958,
      "򰡽": 2959,
      "򰮻": 2960,
      "򲨶": 2961,
      "򲻴": 2962,
      "򳫤": 2963,
      "򴹲": 2964,
      "򵡴": 2965,
      "򵡹": 2966,
      "򶵤": 2967,
      "򹯡": 2968,
      "򹹿": 2969,
      "򻯽": 2970,
      "򻲹": 2971,
      "򻹰": 2972,
      "򼯿": 2973,
      "򼺤": 2974,
      "򽡾": 2975,
      "򾭼": 2976,
      "󎺊": 2977,
      "󡡿": 2978,
      "󡢥": 2979,
      "󡢰": 2980,
      "󡦥": 2981,
      "󡱡": 2982,
      "󣬷": 2983,
      "󣬸": 2984,
      "󣬽": 2985,
      "󣱡": 2986,
      "󣲣": 2987,
      "󣲤": 2988,
      "󣳣": 2989,
      "󣵥": 2990,
      "󤫤": 2991,
      "󤲤": 2992,
      "󤵤": 2993,
      "󤷤": 2994,
      "󥢥": 2995,
      "󥪥": 2996,
      "󥫤": 2997,
      "󥭥": 2998,
      "󥯡": 2999,
      "󥯽": 3000,
      "󥰡": 3001,
      "󥰤": 3002,
      "󥰥": 3003,
      "󥰸": 3004,
      "󥱡": 3005,
      "󥲥": 3006,
      "󥵡": 3007,
      "󥷥": 3008,
      "󥸥": 3009,
      "󥹡": 3010,
      "󥹤": 3011,
      "󥹥": 3012,
      "󥻥": 3013,
      "󥽥": 3014,
      "󥿡": 3015,
      "󥿥": 3016,
      "󱨾": 3017,
      "󲽶": 3018,
      "󳱡": 3019,
      "󴬼": 3020,
      "󵨹": 3021,
      "󵵹": 3022,
      "󶡤": 3023,
      "󸮾": 3024,
      "󹫹": 3025,
      "󼨤": 3026,
      "󼰹": 3027,
      "󽣥": 3028,
      "󽫣": 3029,
      "󾭼": 3030,
      "er": 3031,
      "na": 3032,
      "in": 3033,
      "an": 3034,
      "he": 3035,
      "ar": 3036,
      "on": 3037,
      "or": 3038,
      "at": 3039,
      "es": 3040,
      "en": 3041,
      "it": 3042,
      "al": 3043,
      "ke": 3044,
      "ch": 3045,
      "st": 3046,
      "ic": 3047,
      "ur": 3048,
      "ma": 3049,
      "le": 3050,
      "ing": 3051,
      "kw": 3052,
      "ed": 3053,
      "the": 3054,
      "me": 3055,
      "is": 3056,
      "ro": 3057,
      "ka": 3058,
      "to": 3059,
      "and": 3060,
      "dị": 3061,
      "ta": 3062,
      "gb": 3063,
      "ere": 3064,
      "re": 3065,
      "gh": 3066,
      "of": 3067,
      "as": 3068,
      "el": 3069,
      "ri": 3070,
      "gw": 3071,
      "ou": 3072,
      "ion": 3073,
      "bụ": 3074,
      "nke": 3075,
      "rụ": 3076,
      "th": 3077,
      "ct": 3078,
      "ol": 3079,
      "kp": 3080,
      "et": 3081,
      "ra": 3082,
      "il": 3083,
      "ent": 3084,
      "de": 3085,
      "00": 3086,
      "om": 3087,
      "any": 3088,
      "we": 3089,
      "us": 3090,
      "ot": 3091,
      "ara": 3092,
      "ad": 3093,
      "be": 3094,
      "ah": 3095,
      "ye": 3096,
      "ow": 3097,
      "for": 3098,
      "hi": 3099,
      "si": 3100,
      "am": 3101,
      "20": 3102,
      "ji": 3103,
      "la": 3104,
      "pụ": 3105,
      "ge": 3106,
      "..": 3107,
      "ers": 3108,
      "��": 3109,
      "ite": 3110,
      "pe": 3111,
      "tụ": 3112,
      "nw": 3113,
      "ịa": 3114,
      "ve": 3115,
      "ce": 3116,
      "ihe": 3117,
      "ike": 3118,
      "nd": 3119,
      "ul": 3120,
      "ab": 3121,
      "ut": 3122,
      "ay": 3123,
      "ga": 3124,
      "pro": 3125,
      "ha": 3126,
      "kọ": 3127,
      "ndị": 3128,
      "ọrụ": 3129,
      "od": 3130,
      "ation": 3131,
      "ir": 3132,
      "zi": 3133,
      "um": 3134,
      "The": 3135,
      "id": 3136,
      "ter": 3137,
      "are": 3138,
      "lo": 3139,
      "em": 3140,
      "go": 3141,
      "ess": 3142,
      "ly": 3143,
      "kụ": 3144,
      "our": 3145,
      "ine": 3146,
      "se": 3147,
      "ith": 3148,
      "op": 3149,
      "un": 3150,
      "ac": 3151,
      "li": 3152,
      "ver": 3153,
      "201": 3154,
      "maka": 3155,
      "ya": 3156,
      "ti": 3157,
      "bi": 3158,
      "gwa": 3159,
      "lọ": 3160,
      "zọ": 3161,
      "up": 3162,
      "ity": 3163,
      "ght": 3164,
      "com": 3165,
      "te": 3166,
      "nwere": 3167,
      "oro": 3168,
      "with": 3169,
      "mm": 3170,
      "ghị": 3171,
      "kwa": 3172,
      "art": 3173,
      "uru": 3174,
      "ex": 3175,
      "kwụ": 3176,
      "pụta": 3177,
      "cha": 3178,
      "che": 3179,
      "one": 3180,
      "kwu": 3181,
      "qu": 3182,
      "du": 3183,
      "co": 3184,
      "iri": 3185,
      "ate": 3186,
      "mgb": 3187,
      "ment": 3188,
      "os": 3189,
      "con": 3190,
      "di": 3191,
      "10": 3192,
      "est": 3193,
      "you": 3194,
      "ahịa": 3195,
      "fe": 3196,
      "ap": 3197,
      "In": 3198,
      "anyị": 3199,
      "site": 3200,
      "ew": 3201,
      "eme": 3202,
      "ok": 3203,
      "so": 3204,
      "ngwa": 3205,
      "fa": 3206,
      "all": 3207,
      "ụlọ": 3208,
      "...": 3209,
      "ny": 3210,
      "chi": 3211,
      "iche": 3212,
      "gị": 3213,
      "aka": 3214,
      "ahụ": 3215,
      "Ch": 3216,
      "ni": 3217,
      "vi": 3218,
      "og": 3219,
      "mma": 3220,
      "per": 3221,
      "bu": 3222,
      "ure": 3223,
      "rọ": 3224,
      "ck": 3225,
      "ba": 3226,
      "elu": 3227,
      "ric": 3228,
      "ime": 3229,
      "wa": 3230,
      "ort": 3231,
      "ore": 3232,
      "ust": 3233,
      "nt": 3234,
      "ụrụ": 3235,
      "St": 3236,
      "ard": 3237,
      "Na": 3238,
      "ala": 3239,
      "Ma": 3240,
      "iz": 3241,
      "kwọ": 3242,
      "by": 3243,
      "gba": 3244,
      "ill": 3245,
      "ran": 3246,
      "nal": 3247,
      "bo": 3248,
      "ci": 3249,
      "do": 3250,
      "rom": 3251,
      "nụ": 3252,
      "chị": 3253,
      "mat": 3254,
      "tra": 3255,
      "ction": 3256,
      "=\"": 3257,
      "lu": 3258,
      "ọrọ": 3259,
      "ru": 3260,
      "ob": 3261,
      "ight": 3262,
      "ne": 3263,
      "rị": 3264,
      "ia": 3265,
      "zụ": 3266,
      "ebe": 3267,
      "dụ": 3268,
      "can": 3269,
      "af": 3270,
      "that": 3271,
      "ry": 3272,
      "wor": 3273,
      "isi": 3274,
      "kwụkwọ": 3275,
      "ist": 3276,
      "ig": 3277,
      "ber": 3278,
      "akp": 3279,
      "ies": 3280,
      "gbọ": 3281,
      "50": 3282,
      "ata": 3283,
      "out": 3284,
      "der": 3285,
      "anya": 3286,
      "ag": 3287,
      "your": 3288,
      "ant": 3289,
      "from": 3290,
      "ide": 3291,
      "mkp": 3292,
      "mme": 3293,
      "port": 3294,
      "gwu": 3295,
      "ree": 3296,
      "ọkụ": 3297,
      "mo": 3298,
      "arị": 3299,
      "vel": 3300,
      "gbu": 3301,
      "Re": 3302,
      "Pro": 3303,
      "Tra": 3304,
      "12": 3305,
      "ho": 3306,
      "sa": 3307,
      "ice": 3308,
      "ble": 3309,
      "pr": 3310,
      "ile": 3311,
      "ik": 3312,
      "pa": 3313,
      "ego": 3314,
      "sị": 3315,
      "19": 3316,
      "im": 3317,
      "Th": 3318,
      "30": 3319,
      "Chi": 3320,
      "����": 3321,
      "own": 3322,
      "iji": 3323,
      "sh": 3324,
      "ọtụ": 3325,
      "ind": 3326,
      "pl": 3327,
      "vers": 3328,
      "day": 3329,
      "ical": 3330,
      "oft": 3331,
      "Co": 3332,
      "ọzọ": 3333,
      "onal": 3334,
      "zu": 3335,
      "gwe": 3336,
      "100": 3337,
      "nye": 3338,
      "duct": 3339,
      "akwụkwọ": 3340,
      "ele": 3341,
      "nọ": 3342,
      "Al": 3343,
      "mụ": 3344,
      "fact": 3345,
      "man": 3346,
      "ụgbọ": 3347,
      "otu": 3348,
      "ld": 3349,
      "end": 3350,
      "able": 3351,
      "China": 3352,
      "if": 3353,
      "ak": 3354,
      "onye": 3355,
      "ther": 3356,
      "15": 3357,
      "ang": 3358,
      "enye": 3359,
      "ive": 3360,
      "ong": 3361,
      "comp": 3362,
      "usoro": 3363,
      "eji": 3364,
      "res": 3365,
      "ph": 3366,
      "ome": 3367,
      "For": 3368,
      "okp": 3369,
      "su": 3370,
      "mgbe": 3371,
      "We": 3372,
      "ser": 3373,
      "De": 3374,
      "have": 3375,
      "ntụ": 3376,
      "ff": 3377,
      "gụ": 3378,
      "An": 3379,
      "ip": 3380,
      "ated": 3381,
      "ware": 3382,
      "pla": 3383,
      "ous": 3384,
      "ell": 3385,
      "ding": 3386,
      "line": 3387,
      "000": 3388,
      "pt": 3389,
      "oge": 3390,
      "start": 3391,
      "ach": 3392,
      "enwe": 3393,
      "18": 3394,
      "akụ": 3395,
      "16": 3396,
      "adị": 3397,
      "ory": 3398,
      "inye": 3399,
      "arụ": 3400,
      "nj": 3401,
      "ụzọ": 3402,
      "US": 3403,
      "ọchị": 3404,
      "ana": 3405,
      "int": 3406,
      "dur": 3407,
      "ọnụ": 3408,
      "ezi": 3409,
      "It": 3410,
      "Light": 3411,
      "ase": 3412,
      "gwụ": 3413,
      "sy": 3414,
      "LE": 3415,
      "tara": 3416,
      "ihi": 3417,
      "soft": 3418,
      "net": 3419,
      "will": 3420,
      "this": 3421,
      "more": 3422,
      "200": 3423,
      "Com": 3424,
      "ish": 3425,
      "Any": 3426,
      "agba": 3427,
      "Ihe": 3428,
      "ack": 3429,
      "ple": 3430,
      "ass": 3431,
      "eri": 3432,
      "hu": 3433,
      "obi": 3434,
      "da": 3435,
      "not": 3436,
      "des": 3437,
      "Con": 3438,
      "po": 3439,
      "work": 3440,
      "ire": 3441,
      "bany": 3442,
      "abụ": 3443,
      "gbo": 3444,
      "ins": 3445,
      "pu": 3446,
      "24": 3447,
      "has": 3448,
      "cre": 3449,
      "rans": 3450,
      "ket": 3451,
      "Do": 3452,
      "uro": 3453,
      "odo": 3454,
      "cy": 3455,
      "11": 3456,
      "bụla": 3457,
      "\">": 3458,
      "aga": 3459,
      "ster": 3460,
      "mmiri": 3461,
      "hen": 3462,
      "ps": 3463,
      "ado": 3464,
      "here": 3465,
      "sup": 3466,
      "okwu": 3467,
      "ku": 3468,
      "cou": 3469,
      "ions": 3470,
      "ren": 3471,
      "igwe": 3472,
      "ozi": 3473,
      "niile": 3474,
      "hụrụ": 3475,
      "je": 3476,
      "ality": 3477,
      "rol": 3478,
      "igh": 3479,
      "25": 3480,
      "nwe": 3481,
      "kọta": 3482,
      "load": 3483,
      "Anyị": 3484,
      "stem": 3485,
      "und": 3486,
      "but": 3487,
      "iv": 3488,
      "asị": 3489,
      "ear": 3490,
      "Sh": 3491,
      "gwọ": 3492,
      "ngwaahịa": 3493,
      "bọchị": 3494,
      "Ex": 3495,
      "tu": 3496,
      "ors": 3497,
      "ufact": 3498,
      "ọtụtụ": 3499,
      "was": 3500,
      "ukwu": 3501,
      "hụ": 3502,
      "afọ": 3503,
      "13": 3504,
      "60": 3505,
      "Euro": 3506,
      "ian": 3507,
      "Au": 3508,
      "gu": 3509,
      "high": 3510,
      "whi": 3511,
      "14": 3512,
      "mer": 3513,
      "way": 3514,
      "He": 3515,
      "gen": 3516,
      "ary": 3517,
      "bụrụ": 3518,
      "ef": 3519,
      "oll": 3520,
      "ower": 3521,
      "inter": 3522,
      "ign": 3523,
      "ater": 3524,
      "ating": 3525,
      "cor": 3526,
      "ick": 3527,
      "Ad": 3528,
      "ast": 3529,
      "ducts": 3530,
      "2019": 3531,
      "olog": 3532,
      "ication": 3533,
      "ufactur": 3534,
      "mere": 3535,
      "azụ": 3536,
      "gra": 3537,
      "cess": 3538,
      "ens": 3539,
      "cl": 3540,
      "2018": 3541,
      "ko": 3542,
      "vice": 3543,
      "software": 3544,
      "chn": 3545,
      "High": 3546,
      "bl": 3547,
      "Wh": 3548,
      "ting": 3549,
      "njem": 3550,
      "Se": 3551,
      "Europe": 3552,
      "very": 3553,
      "yi": 3554,
      "cur": 3555,
      "gburu": 3556,
      "min": 3557,
      "ocha": 3558,
      "17": 3559,
      "Home": 3560,
      "use": 3561,
      "its": 3562,
      "form": 3563,
      "atụ": 3564,
      "spe": 3565,
      "data": 3566,
      "gha": 3567,
      "ence": 3568,
      "tọ": 3569,
      "now": 3570,
      "LED": 3571,
      "av": 3572,
      "no": 3573,
      "40": 3574,
      ").": 3575,
      "ound": 3576,
      "iti": 3577,
      "old": 3578,
      "Ap": 3579,
      "Ngwa": 3580,
      "kach": 3581,
      "anụ": 3582,
      "fo": 3583,
      "act": 3584,
      "tị": 3585,
      "ọdụ": 3586,
      "sp": 3587,
      "cial": 3588,
      "ale": 3589,
      "dis": 3590,
      "gharị": 3591,
      "kpọ": 3592,
      "80": 3593,
      "part": 3594,
      "age": 3595,
      "ress": 3596,
      "ng": 3597,
      "mon": 3598,
      "ụbọchị": 3599,
      "ownload": 3600,
      "ww": 3601,
      "Bo": 3602,
      "light": 3603,
      "which": 3604,
      "You": 3605,
      "ents": 3606,
      "ina": 3607,
      "zo": 3608,
      "Ph": 3609,
      "ss": 3610,
      "ọhụrụ": 3611,
      "aha": 3612,
      "nwa": 3613,
      "ọgwụ": 3614,
      "year": 3615,
      "off": 3616,
      "ndụ": 3617,
      "ie": 3618,
      "Train": 3619,
      "ult": 3620,
      "IN": 3621,
      "other": 3622,
      "wh": 3623,
      "Ndị": 3624,
      "nk": 3625,
      "kwado": 3626,
      "New": 3627,
      "vide": 3628,
      "wo": 3629,
      "RE": 3630,
      "au": 3631,
      "),": 3632,
      "No": 3633,
      "ama": 3634,
      "nche": 3635,
      "Ser": 3636,
      "nji": 3637,
      "pos": 3638,
      "chine": 3639,
      "pụrụ": 3640,
      "ihu": 3641,
      "anwe": 3642,
      "ze": 3643,
      "mb": 3644,
      "less": 3645,
      "gbe": 3646,
      "free": 3647,
      "On": 3648,
      "wụ": 3649,
      "pụtara": 3650,
      "jụ": 3651,
      "ink": 3652,
      "ekw": 3653,
      "Ụlọ": 3654,
      "And": 3655,
      "oke": 3656,
      ".,": 3657,
      "Nke": 3658,
      "chọ": 3659,
      "ance": 3660,
      "gwè": 3661,
      "AS": 3662,
      "ustom": 3663,
      "ator": 3664,
      "new": 3665,
      "mba": 3666,
      "Go": 3667,
      "get": 3668,
      "ca": 3669,
      "Mar": 3670,
      "AN": 3671,
      "Me": 3672,
      "pli": 3673,
      "quality": 3674,
      "ugbu": 3675,
      "mkpa": 3676,
      "wu": 3677,
      "hịa": 3678,
      "also": 3679,
      "onwe": 3680,
      "esị": 3681,
      "sọ": 3682,
      "ash": 3683,
      "fi": 3684,
      "ven": 3685,
      "ments": 3686,
      "ụdị": 3687,
      "ology": 3688,
      "eche": 3689,
      "let": 3690,
      "ste": 3691,
      "mgba": 3692,
      "ath": 3693,
      "Un": 3694,
      "car": 3695,
      "ịtị": 3696,
      "ates": 3697,
      "ari": 3698,
      "chọrọ": 3699,
      "ume": 3700,
      "ms": 3701,
      "ank": 3702,
      "rist": 3703,
      "Door": 3704,
      "ows": 3705,
      "abụọ": 3706,
      "cont": 3707,
      "This": 3708,
      "Le": 3709,
      "count": 3710,
      "Te": 3711,
      "banyere": 3712,
      "mar": 3713,
      "red": 3714,
      "ud": 3715,
      "ual": 3716,
      "gwure": 3717,
      "gwuregwu": 3718,
      "Ro": 3719,
      "rice": 3720,
      "ise": 3721,
      "cent": 3722,
      "99": 3723,
      "bon": 3724,
      "ty": 3725,
      "col": 3726,
      "23": 3727,
      "Wor": 3728,
      "gosi": 3729,
      "alite": 3730,
      "To": 3731,
      "agb": 3732,
      "land": 3733,
      "Ar": 3734,
      "kpe": 3735,
      "wee": 3736,
      "ines": 3737,
      "pre": 3738,
      "upu": 3739,
      "Free": 3740,
      "ígwè": 3741,
      "IT": 3742,
      "Pla": 3743,
      "obodo": 3744,
      "inst": 3745,
      "ics": 3746,
      "nta": 3747,
      "eng": 3748,
      "val": 3749,
      "med": 3750,
      "trans": 3751,
      "ener": 3752,
      "ext": 3753,
      "ces": 3754,
      "products": 3755,
      "led": 3756,
      "KW": 3757,
      "EA": 3758,
      "Ọrụ": 3759,
      "Spe": 3760,
      "oo": 3761,
      "versity": 3762,
      "inc": 3763,
      "fil": 3764,
      "22": 3765,
      "vid": 3766,
      "yere": 3767,
      "ER": 3768,
      "arịa": 3769,
      "Fe": 3770,
      "tt": 3771,
      "Ind": 3772,
      "lect": 3773,
      "were": 3774,
      "Pre": 3775,
      "Uni": 3776,
      "many": 3777,
      "CO": 3778,
      "karị": 3779,
      "ail": 3780,
      "row": 3781,
      "Us": 3782,
      "nyere": 3783,
      "met": 3784,
      "akpa": 3785,
      "ron": 3786,
      "zuru": 3787,
      "Sol": 3788,
      "mara": 3789,
      "gwá": 3790,
      "press": 3791,
      "Anya": 3792,
      "Inter": 3793,
      "time": 3794,
      "than": 3795,
      "view": 3796,
      "ular": 3797,
      "Po": 3798,
      "ful": 3799,
      "IS": 3800,
      "IP": 3801,
      "90": 3802,
      "Kp": 3803,
      "ping": 3804,
      "ition": 3805,
      "vis": 3806,
      "kọwa": 3807,
      "bet": 3808,
      "matụ": 3809,
      "stic": 3810,
      "ede": 3811,
      "mpe": 3812,
      "ọtụrụ": 3813,
      "system": 3814,
      "Best": 3815,
      "reat": 3816,
      "kasị": 3817,
      "//": 3818,
      "right": 3819,
      "otú": 3820,
      "techn": 3821,
      "mod": 3822,
      "pm": 3823,
      "br": 3824,
      "most": 3825,
      "Air": 3826,
      "par": 3827,
      "about": 3828,
      "set": 3829,
      "obere": 3830,
      "elect": 3831,
      "ings": 3832,
      "ekp": 3833,
      "nan": 3834,
      "achọ": 3835,
      "play": 3836,
      "Be": 3837,
      "ju": 3838,
      "28": 3839,
      "ute": 3840,
      "mbụ": 3841,
      "manufactur": 3842,
      "owder": 3843,
      "Man": 3844,
      "asa": 3845,
      "Met": 3846,
      "akụkụ": 3847,
      "ati": 3848,
      "ited": 3849,
      "AC": 3850,
      "mail": 3851,
      "ụwa": 3852,
      "over": 3853,
      "27": 3854,
      "ton": 3855,
      "ger": 3856,
      "nso": 3857,
      "produ": 3858,
      "htt": 3859,
      "cer": 3860,
      "ould": 3861,
      "All": 3862,
      "uchi": 3863,
      "ized": 3864,
      "bel": 3865,
      "2017": 3866,
      "ations": 3867,
      "ities": 3868,
      "cri": 3869,
      "edu": 3870,
      "amara": 3871,
      "design": 3872,
      "ial": 3873,
      "akara": 3874,
      "enweghị": 3875,
      "used": 3876,
      "Che": 3877,
      "add": 3878,
      "://": 3879,
      "ibu": 3880,
      "yo": 3881,
      "web": 3882,
      "Forex": 3883,
      "custom": 3884,
      "Christ": 3885,
      "lack": 3886,
      "nukwu": 3887,
      "fect": 3888,
      "lee": 3889,
      "hazi": 3890,
      "blo": 3891,
      "urch": 3892,
      "Cl": 3893,
      "board": 3894,
      "sk": 3895,
      "Auto": 3896,
      "Des": 3897,
      "Sy": 3898,
      "hè": 3899,
      "kpụ": 3900,
      "Onye": 3901,
      "okporo": 3902,
      "Ac": 3903,
      "26": 3904,
      "35": 3905,
      "45": 3906,
      "umin": 3907,
      "velop": 3908,
      "irst": 3909,
      "nri": 3910,
      "online": 3911,
      "air": 3912,
      "ft": 3913,
      "miri": 3914,
      "86": 3915,
      "erial": 3916,
      "read": 3917,
      "ced": 3918,
      "ali": 3919,
      "book": 3920,
      "ogo": 3921,
      "hel": 3922,
      "mmadụ": 3923,
      "ium": 3924,
      "Af": 3925,
      "nnọ": 3926,
      "���": 3927,
      "University": 3928,
      "king": 3929,
      "Sp": 3930,
      "ans": 3931,
      "pol": 3932,
      "ụf": 3933,
      "adịghị": 3934,
      "nyocha": 3935,
      "ọma": 3936,
      "some": 3937,
      "tur": 3938,
      "ning": 3939,
      "họrọ": 3940,
      "oru": 3941,
      "ility": 3942,
      "ulti": 3943,
      "ụmụ": 3944,
      "ọsọ": 3945,
      "kachamara": 3946,
      "Phone": 3947,
      "Wind": 3948,
      "ize": 3949,
      "saịtị": 3950,
      "chiche": 3951,
      "put": 3952,
      "Sup": 3953,
      "like": 3954,
      "agụ": 3955,
      "td": 3956,
      "raw": 3957,
      "emepụta": 3958,
      "powder": 3959,
      "ject": 3960,
      "tain": 3961,
      "cle": 3962,
      "vol": 3963,
      "29": 3964,
      "cho": 3965,
      "my": 3966,
      "price": 3967,
      "mmepụta": 3968,
      "Qu": 3969,
      "Dri": 3970,
      "cal": 3971,
      "Kpọtụrụ": 3972,
      "Mod": 3973,
      "With": 3974,
      "Lo": 3975,
      "who": 3976,
      "org": 3977,
      "Ste": 3978,
      "PC": 3979,
      "yl": 3980,
      "More": 3981,
      "36": 3982,
      "reg": 3983,
      "kpụrụ": 3984,
      "ON": 3985,
      "2016": 3986,
      "ves": 3987,
      "egwu": 3988,
      "ush": 3989,
      "eto": 3990,
      "Car": 3991,
      "there": 3992,
      "inclu": 3993,
      "70": 3994,
      "atur": 3995,
      "van": 3996,
      "Pl": 3997,
      "As": 3998,
      "Tu": 3999,
      "aba": 4000,
      "AT": 4001,
      "coin": 4002,
      "Ltd": 4003,
      "mber": 4004,
      "chan": 4005,
      "lụ": 4006,
      "ọdị": 4007,
      "sol": 4008,
      "vir": 4009,
      "table": 4010,
      "ghọ": 4011,
      "ụkwụ": 4012,
      "anye": 4013,
      "rou": 4014,
      "etiti": 4015,
      "ọkachamara": 4016,
      "cry": 4017,
      "sm": 4018,
      "Machine": 4019,
      "OS": 4020,
      "need": 4021,
      "service": 4022,
      "Dị": 4023,
      "Ọnụ": 4024,
      "Mat": 4025,
      "factory": 4026,
      "gide": 4027,
      "mp": 4028,
      "GB": 4029,
      "bit": 4030,
      "atto": 4031,
      "gara": 4032,
      "nnukwu": 4033,
      "nati": 4034,
      "iness": 4035,
      "ote": 4036,
      "EM": 4037,
      "egwuregwu": 4038,
      "egosi": 4039,
      "tri": 4040,
      "les": 4041,
      "ital": 4042,
      "top": 4043,
      "nnọọ": 4044,
      "fer": 4045,
      "bas": 4046,
      "nde": 4047,
      "just": 4048,
      "ue": 4049,
      "chie": 4050,
      "puta": 4051,
      "21": 4052,
      "els": 4053,
      "post": 4054,
      "Sw": 4055,
      "nọdụ": 4056,
      "kara": 4057,
      "75": 4058,
      "karịa": 4059,
      "tụta": 4060,
      "hou": 4061,
      "Ger": 4062,
      "IC": 4063,
      "ewu": 4064,
      "Off": 4065,
      "download": 4066,
      "OR": 4067,
      "ọgụ": 4068,
      "ụgwọ": 4069,
      "bul": 4070,
      "requ": 4071,
      "come": 4072,
      "mal": 4073,
      "10am": 4074,
      "HE": 4075,
      "ub": 4076,
      "video": 4077,
      "What": 4078,
      "Site": 4079,
      "ption": 4080,
      "hip": 4081,
      "only": 4082,
      "entị": 4083,
      "mana": 4084,
      "ices": 4085,
      "500": 4086,
      "Trans": 4087,
      "ghara": 4088,
      "iwu": 4089,
      "anị": 4090,
      "Par": 4091,
      "oper": 4092,
      "za": 4093,
      "icro": 4094,
      "mit": 4095,
      "atọ": 4096,
      "AR": 4097,
      "unye": 4098,
      "chara": 4099,
      "iss": 4100,
      "their": 4101,
      "Ka": 4102,
      "VC": 4103,
      "hy": 4104,
      "ns": 4105,
      "mfe": 4106,
      "ụgbọala": 4107,
      "Gu": 4108,
      "ọnwa": 4109,
      "ikike": 4110,
      "ely": 4111,
      "ikpe": 4112,
      "www": 4113,
      "ved": 4114,
      "ologo": 4115,
      "usiness": 4116,
      "Mo": 4117,
      "Min": 4118,
      "Windows": 4119,
      "okpuru": 4120,
      "ụfọdụ": 4121,
      "ys": 4122,
      "akwa": 4123,
      "io": 4124,
      "ezie": 4125,
      "Mon": 4126,
      "ET": 4127,
      "stand": 4128,
      "If": 4129,
      "abere": 4130,
      "Roll": 4131,
      "omọkụ": 4132,
      "mag": 4133,
      "kọrị": 4134,
      "otor": 4135,
      "after": 4136,
      "prof": 4137,
      "oko": 4138,
      "USD": 4139,
      "ts": 4140,
      "akpụ": 4141,
      "roid": 4142,
      "they": 4143,
      "kọrịta": 4144,
      "mes": 4145,
      "tion": 4146,
      "ild": 4147,
      "amp": 4148,
      "company": 4149,
      "years": 4150,
      "world": 4151,
      "tage": 4152,
      "develop": 4153,
      "Ha": 4154,
      "water": 4155,
      "Jo": 4156,
      "reet": 4157,
      "train": 4158,
      "anet": 4159,
      "ogle": 4160,
      "fl": 4161,
      "osisi": 4162,
      "ghachi": 4163,
      "support": 4164,
      "esi": 4165,
      "Comp": 4166,
      "omume": 4167,
      "etc": 4168,
      "best": 4169,
      "Download": 4170,
      "bar": 4171,
      "pen": 4172,
      "travel": 4173,
      "CS": 4174,
      "bol": 4175,
      "ories": 4176,
      "ino": 4177,
      "bara": 4178,
      "ace": 4179,
      "first": 4180,
      "Black": 4181,
      "ateg": 4182,
      "Hol": 4183,
      "quip": 4184,
      "diff": 4185,
      "33": 4186,
      "ral": 4187,
      "egbu": 4188,
      "ness": 4189,
      "8pm": 4190,
      "Igwe": 4191,
      "rid": 4192,
      "ebu": 4193,
      "been": 4194,
      "Iji": 4195,
      "ner": 4196,
      "gement": 4197,
      "suppli": 4198,
      "Ab": 4199,
      "anwụ": 4200,
      "So": 4201,
      "ES": 4202,
      "matic": 4203,
      "tact": 4204,
      "bal": 4205,
      "Elect": 4206,
      "itere": 4207,
      "enter": 4208,
      "ds": 4209,
      "--": 4210,
      "Ne": 4211,
      "ging": 4212,
      "ID": 4213,
      "UR": 4214,
      "nkw": 4215,
      "into": 4216,
      "under": 4217,
      "ule": 4218,
      "Our": 4219,
      "esịrị": 4220,
      "main": 4221,
      "65": 4222,
      "aw": 4223,
      "ọọ": 4224,
      "FS": 4225,
      "opy": 4226,
      "make": 4227,
      "System": 4228,
      "mg": 4229,
      "ving": 4230,
      "peri": 4231,
      "ruo": 4232,
      "ki": 4233,
      "88": 4234,
      "Manufactur": 4235,
      "national": 4236,
      "ịlụ": 4237,
      "earch": 4238,
      "meric": 4239,
      "xy": 4240,
      "Solar": 4241,
      "Blu": 4242,
      "thing": 4243,
      "days": 4244,
      "ohere": 4245,
      "ative": 4246,
      "dust": 4247,
      "Ike": 4248,
      "Tur": 4249,
      "kwara": 4250,
      "Mgbe": 4251,
      "rough": 4252,
      "fun": 4253,
      "nweta": 4254,
      "pto": 4255,
      "kacha": 4256,
      "Hy": 4257,
      "vious": 4258,
      "cap": 4259,
      "Driver": 4260,
      "Americ": 4261,
      "ix": 4262,
      "ọmụ": 4263,
      "Res": 4264,
      "stru": 4265,
      "EN": 4266,
      "gburugburu": 4267,
      "CH": 4268,
      "ọnọdụ": 4269,
      "comm": 4270,
      "34": 4271,
      "back": 4272,
      "lot": 4273,
      "las": 4274,
      "umber": 4275,
      "had": 4276,
      "eas": 4277,
      "uku": 4278,
      "ks": 4279,
      "Ngwaahịa": 4280,
      "uni": 4281,
      "Bu": 4282,
      "akụkọ": 4283,
      "ngwá": 4284,
      "production": 4285,
      "uwe": 4286,
      "when": 4287,
      "such": 4288,
      "rit": 4289,
      "market": 4290,
      "ody": 4291,
      "ply": 4292,
      "ature": 4293,
      "ople": 4294,
      "roll": 4295,
      "Li": 4296,
      "Speed": 4297,
      "sub": 4298,
      "month": 4299,
      "Usoro": 4300,
      "faịlụ": 4301,
      "Gị": 4302,
      "ngosi": 4303,
      "arge": 4304,
      "ales": 4305,
      "ebi": 4306,
      "ery": 4307,
      "77": 4308,
      "page": 4309,
      "How": 4310,
      "vices": 4311,
      "AD": 4312,
      "jiri": 4313,
      "essi": 4314,
      "prote": 4315,
      "Eng": 4316,
      "Post": 4317,
      "AL": 4318,
      "Ob": 4319,
      "technology": 4320,
      "njikọ": 4321,
      "fri": 4322,
      "ezu": 4323,
      "fore": 4324,
      "38": 4325,
      "GO": 4326,
      "naanị": 4327,
      "Med": 4328,
      "ily": 4329,
      "95": 4330,
      "proof": 4331,
      "Fl": 4332,
      "key": 4333,
      "MP": 4334,
      "Travel": 4335,
      "Pol": 4336,
      "Or": 4337,
      "gin": 4338,
      "say": 4339,
      "Power": 4340,
      "plication": 4341,
      "ese": 4342,
      "kachasị": 4343,
      "power": 4344,
      "gar": 4345,
      "gal": 4346,
      "special": 4347,
      "2015": 4348,
      "gy": 4349,
      "okpomọkụ": 4350,
      "Atụ": 4351,
      "ọcha": 4352,
      "ọk": 4353,
      "vent": 4354,
      "ago": 4355,
      "37": 4356,
      "PS": 4357,
      "want": 4358,
      "cut": 4359,
      "cs": 4360,
      "Led": 4361,
      "ngwaọrụ": 4362,
      "PVC": 4363,
      "ctor": 4364,
      "dịghị": 4365,
      "material": 4366,
      "ked": 4367,
      "stan": 4368,
      "48": 4369,
      "tic": 4370,
      "hoto": 4371,
      "Mmiri": 4372,
      "ring": 4373,
      "curren": 4374,
      "300": 4375,
      "nkwado": 4376,
      "eder": 4377,
      "process": 4378,
      "well": 4379,
      "rop": 4380,
      "Di": 4381,
      "Google": 4382,
      "ours": 4383,
      "version": 4384,
      "riv": 4385,
      "uminum": 4386,
      "RO": 4387,
      "Hack": 4388,
      "ester": 4389,
      "Akwụkwọ": 4390,
      "anyere": 4391,
      "banye": 4392,
      "place": 4393,
      "anọ": 4394,
      "ll": 4395,
      "oké": 4396,
      "ez": 4397,
      "ount": 4398,
      "mus": 4399,
      "bat": 4400,
      "sụ": 4401,
      "ams": 4402,
      "3D": 4403,
      "don": 4404,
      "ince": 4405,
      "oth": 4406,
      "Ji": 4407,
      "anaghị": 4408,
      "55": 4409,
      "ctions": 4410,
      "nchekwa": 4411,
      "Col": 4412,
      "KWU": 4413,
      "Gener": 4414,
      "pers": 4415,
      "Mme": 4416,
      "bile": 4417,
      "bonus": 4418,
      "email": 4419,
      "Micro": 4420,
      "through": 4421,
      "Line": 4422,
      "...]": 4423,
      "tif": 4424,
      "cell": 4425,
      "kere": 4426,
      "ted": 4427,
      "ety": 4428,
      "mone": 4429,
      "nala": 4430,
      "hed": 4431,
      "Online": 4432,
      "indust": 4433,
      "Is": 4434,
      "gi": 4435,
      "Techn": 4436,
      "mobile": 4437,
      "Lights": 4438,
      "ally": 4439,
      "good": 4440,
      "dri": 4441,
      "weta": 4442,
      "White": 4443,
      "vo": 4444,
      "150": 4445,
      "what": 4446,
      "Fran": 4447,
      "GH": 4448,
      "essional": 4449,
      "see": 4450,
      "ọgụgụ": 4451,
      "differ": 4452,
      "Bit": 4453,
      "phone": 4454,
      "ep": 4455,
      "kwasị": 4456,
      "ogologo": 4457,
      "jụjụ": 4458,
      "39": 4459,
      "Hot": 4460,
      "Water": 4461,
      "Street": 4462,
      "formation": 4463,
      "66": 4464,
      "AP": 4465,
      "May": 4466,
      "side": 4467,
      "face": 4468,
      "wel": 4469,
      "ailable": 4470,
      "Tube": 4471,
      "Atụmatụ": 4472,
      "Ebe": 4473,
      "ons": 4474,
      "Ke": 4475,
      "rịa": 4476,
      "ries": 4477,
      "Sa": 4478,
      "people": 4479,
      "ekwu": 4480,
      "mee": 4481,
      "website": 4482,
      "ghere": 4483,
      "gwà": 4484,
      "cover": 4485,
      "machine": 4486,
      "gs": 4487,
      "Previous": 4488,
      "odu": 4489,
      "emb": 4490,
      "nile": 4491,
      "azụma": 4492,
      "hand": 4493,
      "nkwụ": 4494,
      "multi": 4495,
      "str": 4496,
      "ṅụ": 4497,
      "Ga": 4498,
      "elf": 4499,
      "Press": 4500,
      "ole": 4501,
      "fu": 4502,
      "code": 4503,
      "every": 4504,
      "nwoke": 4505,
      "TC": 4506,
      "lass": 4507,
      "lin": 4508,
      "look": 4509,
      "akpọ": 4510,
      "DC": 4511,
      "àgwà": 4512,
      "made": 4513,
      "awa": 4514,
      "1x": 4515,
      "tem": 4516,
      "Eri": 4517,
      "nchị": 4518,
      "list": 4519,
      "using": 4520,
      "cation": 4521,
      "chin": 4522,
      "Dis": 4523,
      "XL": 4524,
      "ụọ": 4525,
      "Products": 4526,
      "door": 4527,
      "cas": 4528,
      "lite": 4529,
      "Day": 4530,
      "size": 4531,
      "echiche": 4532,
      "quipment": 4533,
      "Ta": 4534,
      "Church": 4535,
      "mmetụta": 4536,
      "Vi": 4537,
      "oid": 4538,
      "por": 4539,
      "ụtọ": 4540,
      "anetị": 4541,
      "44": 4542,
      "gam": 4543,
      "TO": 4544,
      "kwuru": 4545,
      "control": 4546,
      "ages": 4547,
      "electric": 4548,
      "kwesịrị": 4549,
      "ony": 4550,
      "bụghị": 4551,
      "kota": 4552,
      "sia": 4553,
      "ports": 4554,
      "acha": 4555,
      "order": 4556,
      "Bet": 4557,
      "Sm": 4558,
      "gan": 4559,
      "cr": 4560,
      "que": 4561,
      "atụmatụ": 4562,
      "know": 4563,
      "rent": 4564,
      "Nkọwa": 4565,
      "mọrụ": 4566,
      "ndi": 4567,
      "dio": 4568,
      "take": 4569,
      "Ìhè": 4570,
      "NC": 4571,
      "ded": 4572,
      "change": 4573,
      "rial": 4574,
      "ekpo": 4575,
      "utu": 4576,
      "hie": 4577,
      "ample": 4578,
      "Play": 4579,
      "Fo": 4580,
      "pres": 4581,
      "sterone": 4582,
      "gener": 4583,
      "xi": 4584,
      "Indust": 4585,
      "32": 4586,
      "96": 4587,
      "Up": 4588,
      "metal": 4589,
      "Ital": 4590,
      "nle": 4591,
      "uch": 4592,
      "iko": 4593,
      "arch": 4594,
      "gboro": 4595,
      "Web": 4596,
      "My": 4597,
      "ipe": 4598,
      "ja": 4599,
      "Isi": 4600,
      "nhọrọ": 4601,
      "Ụzọ": 4602,
      "There": 4603,
      "sur": 4604,
      "esto": 4605,
      "Copy": 4606,
      "nam": 4607,
      "Android": 4608,
      "http": 4609,
      "gas": 4610,
      "where": 4611,
      "eriri": 4612,
      "izu": 4613,
      "cra": 4614,
      "Cover": 4615,
      "https": 4616,
      "Nor": 4617,
      "Maka": 4618,
      "them": 4619,
      "dịka": 4620,
      "chool": 4621,
      "CE": 4622,
      "auto": 4623,
      "pay": 4624,
      "atch": 4625,
      "47": 4626,
      "down": 4627,
      "vari": 4628,
      "arụmọrụ": 4629,
      "Next": 4630,
      "enyere": 4631,
      "98": 4632,
      "cond": 4633,
      "01": 4634,
      "IL": 4635,
      "FX": 4636,
      "clo": 4637,
      "nị": 4638,
      "nzu": 4639,
      "ozu": 4640,
      "Read": 4641,
      "yocha": 4642,
      "experi": 4643,
      "outh": 4644,
      "oji": 4645,
      "Face": 4646,
      "jo": 4647,
      "iPhone": 4648,
      "azụmahịa": 4649,
      "oyi": 4650,
      "Eriri": 4651,
      "men": 4652,
      "Otu": 4653,
      "2020": 4654,
      "ziri": 4655,
      "kets": 4656,
      "ype": 4657,
      "Nche": 4658,
      "Manufacturer": 4659,
      "long": 4660,
      "ane": 4661,
      "als": 4662,
      "ffic": 4663,
      "how": 4664,
      "available": 4665,
      "United": 4666,
      "acka": 4667,
      "cription": 4668,
      "kpa": 4669,
      "kes": 4670,
      "mgbanwe": 4671,
      "ards": 4672,
      "gụnyere": 4673,
      "steel": 4674,
      "eli": 4675,
      "Product": 4676,
      "blog": 4677,
      "…]": 4678,
      "Cont": 4679,
      "2013": 4680,
      "different": 4681,
      "Tag": 4682,
      "ụta": 4683,
      "ump": 4684,
      "nhazi": 4685,
      "then": 4686,
      "ability": 4687,
      "nsogbu": 4688,
      "lere": 4689,
      "effect": 4690,
      "En": 4691,
      "Su": 4692,
      "Top": 4693,
      "Inst": 4694,
      "gro": 4695,
      "product": 4696,
      "foto": 4697,
      "her": 4698,
      "may": 4699,
      "Ngwá": 4700,
      "PD": 4701,
      "help": 4702,
      "crypto": 4703,
      "ịgb": 4704,
      "ene": 4705,
      "offer": 4706,
      "great": 4707,
      "va": 4708,
      "media": 4709,
      "World": 4710,
      "open": 4711,
      "Os": 4712,
      "ukwuu": 4713,
      "Mobi": 4714,
      "Fi": 4715,
      "word": 4716,
      "ekwe": 4717,
      "dra": 4718,
      "gg": 4719,
      "Model": 4720,
      "plastic": 4721,
      "MA": 4722,
      "test": 4723,
      "akpụkpọ": 4724,
      "Automatic": 4725,
      "anel": 4726,
      "REE": 4727,
      "dg": 4728,
      "ịzụ": 4729,
      "Mac": 4730,
      "his": 4731,
      ".:": 4732,
      "ational": 4733,
      "bot": 4734,
      "Mobile": 4735,
      "hot": 4736,
      "ikuku": 4737,
      "paghara": 4738,
      "find": 4739,
      "box": 4740,
      "Ụdị": 4741,
      "ones": 4742,
      "karịrị": 4743,
      "ifi": 4744,
      "Elu": 4745,
      "ollow": 4746,
      "bur": 4747,
      "pon": 4748,
      "cm": 4749,
      "ghe": 4750,
      "lim": 4751,
      "bre": 4752,
      "fra": 4753,
      "ather": 4754,
      "aper": 4755,
      "ntanetị": 4756,
      "eru": 4757,
      "life": 4758,
      "ets": 4759,
      "estosterone": 4760,
      "Copyright": 4761,
      "Part": 4762,
      "efu": 4763,
      "67": 4764,
      "room": 4765,
      "Mana": 4766,
      "buru": 4767,
      "body": 4768,
      "provid": 4769,
      "kaadị": 4770,
      "Steel": 4771,
      "home": 4772,
      "05": 4773,
      "Sk": 4774,
      "reen": 4775,
      "ọrịa": 4776,
      "should": 4777,
      "85": 4778,
      "ìhè": 4779,
      "oles": 4780,
      "Ana": 4781,
      "Ahịa": 4782,
      "Kra": 4783,
      "ization": 4784,
      "Ya": 4785,
      "Plastic": 4786,
      "ulo": 4787,
      "ically": 4788,
      "mmanụ": 4789,
      "Germany": 4790,
      "ges": 4791,
      "March": 4792,
      "MS": 4793,
      "low": 4794,
      "ident": 4795,
      "!!": 4796,
      "eke": 4797,
      "chọpụta": 4798,
      "sych": 4799,
      "cause": 4800,
      "NA": 4801,
      "ọkọ": 4802,
      "�����": 4803,
      "Jun": 4804,
      "enweta": 4805,
      "gram": 4806,
      "One": 4807,
      "dire": 4808,
      "Bitcoin": 4809,
      "lereanya": 4810,
      "FREE": 4811,
      "kọrọ": 4812,
      "ụsụ": 4813,
      "abric": 4814,
      "she": 4815,
      "two": 4816,
      "Fri": 4817,
      "wdg": 4818,
      "Du": 4819,
      "arm": 4820,
      "Ntu": 4821,
      "Olee": 4822,
      "Joh": 4823,
      "mgbasa": 4824,
      "oloko": 4825,
      "buil": 4826,
      "Motor": 4827,
      "anu": 4828,
      "ram": 4829,
      "Company": 4830,
      "tal": 4831,
      "Aust": 4832,
      "mical": 4833,
      "tr": 4834,
      "ution": 4835,
      "engine": 4836,
      "Bay": 4837,
      "gwo": 4838,
      "ulation": 4839,
      "app": 4840,
      "FSX": 4841,
      "tle": 4842,
      "nwụ": 4843,
      "anti": 4844,
      "ways": 4845,
      "Soft": 4846,
      "120": 4847,
      "omen": 4848,
      "loy": 4849,
      "Ngw": 4850,
      "Size": 4851,
      "ịrị": 4852,
      "rel": 4853,
      "sim": 4854,
      "31": 4855,
      "Fil": 4856,
      "found": 4857,
      "ekwentị": 4858,
      "akwado": 4859,
      "head": 4860,
      "TS": 4861,
      "mill": 4862,
      "inyere": 4863,
      "ross": 4864,
      "currency": 4865,
      "Nle": 4866,
      "Rus": 4867,
      "cour": 4868,
      "stanbul": 4869,
      "even": 4870,
      "pop": 4871,
      "ends": 4872,
      "46": 4873,
      "VD": 4874,
      "Ụgbọ": 4875,
      "Holm": 4876,
      "nkwa": 4877,
      "ISO": 4878,
      "information": 4879,
      "tool": 4880,
      "Gịnị": 4881,
      "Lu": 4882,
      "gr": 4883,
      "dist": 4884,
      "Metro": 4885,
      "Bel": 4886,
      "hor": 4887,
      "nzọ": 4888,
      "dọ": 4889,
      "uche": 4890,
      "win": 4891,
      "Technology": 4892,
      "Fact": 4893,
      "Red": 4894,
      "nku": 4895,
      "wind": 4896,
      "abara": 4897,
      "Ekw": 4898,
      "Vide": 4899,
      "ray": 4900,
      "mpempe": 4901,
      "management": 4902,
      "cture": 4903,
      "application": 4904,
      "range": 4905,
      "Tatto": 4906,
      "utter": 4907,
      "ween": 4908,
      "publ": 4909,
      "idi": 4910,
      "manufacturing": 4911,
      "Afric": 4912,
      "Out": 4913,
      "akwụ": 4914,
      "dro": 4915,
      "ezigbo": 4916,
      "Istanbul": 4917,
      "ball": 4918,
      "mahụ": 4919,
      "Br": 4920,
      "ED": 4921,
      "yiri": 4922,
      "Paris": 4923,
      "Egwuregwu": 4924,
      "result": 4925,
      "tinye": 4926,
      "sive": 4927,
      "Ezi": 4928,
      "Pet": 4929,
      "Rob": 4930,
      "alị": 4931,
      "would": 4932,
      "angu": 4933,
      "ịta": 4934,
      "stud": 4935,
      "kwunye": 4936,
      "akwu": 4937,
      "number": 4938,
      "sig": 4939,
      "alth": 4940,
      "ịbụ": 4941,
      "Electric": 4942,
      "Time": 4943,
      "1000": 4944,
      "400": 4945,
      "ats": 4946,
      "cks": 4947,
      "Facebook": 4948,
      "rece": 4949,
      "tex": 4950,
      "ann": 4951,
      "enyi": 4952,
      "ibe": 4953,
      "rain": 4954,
      "Aug": 4955,
      "rivate": 4956,
      "cel": 4957,
      "cam": 4958,
      "ots": 4959,
      "suppliers": 4960,
      "tupu": 4961,
      "review": 4962,
      "siri": 4963,
      "Pe": 4964,
      "type": 4965,
      "City": 4966,
      "quare": 4967,
      "02": 4968,
      "Cer": 4969,
      "ịhụ": 4970,
      "tail": 4971,
      "guz": 4972,
      "speed": 4973,
      "SS": 4974,
      "obibi": 4975,
      "UL": 4976,
      "ziaka": 4977,
      "abịa": 4978,
      "ional": 4979,
      "conne": 4980,
      "ror": 4981,
      "kike": 4982,
      "ency": 4983,
      "Ho": 4984,
      "ỤKWU": 4985,
      "ished": 4986,
      "apan": 4987,
      "lead": 4988,
      "ingle": 4989,
      "Oge": 4990,
      "tions": 4991,
      "lease": 4992,
      "Char": 4993,
      "icip": 4994,
      "point": 4995,
      "Microsoft": 4996,
      "including": 4997,
      "trading": 4998,
      "color": 4999,
      "business": 5000,
      "nchara": 5001,
      "project": 5002,
      "research": 5003,
      "gwọta": 5004,
      "49": 5005,
      "App": 5006,
      "fin": 5007,
      "Cam": 5008,
      "zer": 5009,
      "Pad": 5010,
      "anyanwụ": 5011,
      "Mag": 5012,
      "agbanwe": 5013,
      "lit": 5014,
      "tatto": 5015,
      "omenala": 5016,
      "ull": 5017,
      "ING": 5018,
      "Net": 5019,
      "ntinye": 5020,
      "vest": 5021,
      "ghi": 5022,
      "87": 5023,
      "mot": 5024,
      "fee": 5025,
      "Cor": 5026,
      "mas": 5027,
      "EUR": 5028,
      "mmasị": 5029,
      "city": 5030,
      "USB": 5031,
      "Ozi": 5032,
      "yle": 5033,
      "kpo": 5034,
      "professional": 5035,
      "ism": 5036,
      "print": 5037,
      "ajụjụ": 5038,
      "Blo": 5039,
      "But": 5040,
      "wid": 5041,
      "these": 5042,
      "activ": 5043,
      "06": 5044,
      "Sc": 5045,
      "America": 5046,
      "Japan": 5047,
      "OT": 5048,
      "mgbapụta": 5049,
      "inese": 5050,
      "Jes": 5051,
      "era": 5052,
      "ox": 5053,
      "without": 5054,
      "250": 5055,
      "Feb": 5056,
      "2014": 5057,
      "perature": 5058,
      "97": 5059,
      "ọkwa": 5060,
      "Echiche": 5061,
      "music": 5062,
      "PA": 5063,
      "nit": 5064,
      "wepụ": 5065,
      "fam": 5066,
      "sis": 5067,
      "kwe": 5068,
      "shop": 5069,
      "Description": 5070,
      "Data": 5071,
      "cli": 5072,
      "sales": 5073,
      "kwo": 5074,
      "GỤKWU": 5075,
      "Okwu": 5076,
      "ped": 5077,
      "Max": 5078,
      "mkpuchi": 5079,
      "France": 5080,
      "42": 5081,
      "Chinese": 5082,
      "series": 5083,
      "News": 5084,
      "olesale": 5085,
      "Bi": 5086,
      "Tri": 5087,
      "files": 5088,
      "Mom": 5089,
      "network": 5090,
      "South": 5091,
      "olu": 5092,
      "months": 5093,
      "mpaghara": 5094,
      "ten": 5095,
      "chain": 5096,
      "ches": 5097,
      "August": 5098,
      "customers": 5099,
      "900": 5100,
      "bs": 5101,
      "ikpeazụ": 5102,
      "Roller": 5103,
      "GỤKWUO": 5104,
      "cing": 5105,
      "sc": 5106,
      "sychic": 5107,
      "08": 5108,
      "nate": 5109,
      "ites": 5110,
      "ister": 5111,
      "Cle": 5112,
      "wit": 5113,
      "Ama": 5114,
      "ared": 5115,
      "meth": 5116,
      "esday": 5117,
      "does": 5118,
      "She": 5119,
      "kwem": 5120,
      "aut": 5121,
      "search": 5122,
      "between": 5123,
      "Ọzọ": 5124,
      "Jesus": 5125,
      "IM": 5126,
      "ugboro": 5127,
      "ung": 5128,
      "Your": 5129,
      "ntọ": 5130,
      "lights": 5131,
      "Internet": 5132,
      "Mgba": 5133,
      "Now": 5134,
      "bata": 5135,
      "oche": 5136,
      "ụntụ": 5137,
      "experience": 5138,
      "Pay": 5139,
      "​​": 5140,
      "provide": 5141,
      "cording": 5142,
      "ators": 5143,
      "ants": 5144,
      "Design": 5145,
      "full": 5146,
      "DVD": 5147,
      "ọmụma": 5148,
      "nkọwa": 5149,
      "kè": 5150,
      "eld": 5151,
      "String": 5152,
      "ars": 5153,
      "last": 5154,
      "ior": 5155,
      "posit": 5156,
      "zụzụ": 5157,
      "nkà": 5158,
      "pes": 5159,
      "ita": 5160,
      "ahụmahụ": 5161,
      "cif": 5162,
      "class": 5163,
      "name": 5164,
      "level": 5165,
      "EC": 5166,
      "Si": 5167,
      "pass": 5168,
      "malite": 5169,
      "ker": 5170,
      "ịgba": 5171,
      "bọ": 5172,
      "install": 5173,
      "07": 5174,
      "Val": 5175,
      "lish": 5176,
      "account": 5177,
      "pert": 5178,
      "mkpụrụ": 5179,
      "AM": 5180,
      "chaa": 5181,
      "uses": 5182,
      "HD": 5183,
      "date": 5184,
      "anw": 5185,
      "imewe": 5186,
      "Business": 5187,
      "creen": 5188,
      "weebụ": 5189,
      "icial": 5190,
      "gaa": 5191,
      "Blue": 5192,
      "easy": 5193,
      "bor": 5194,
      "kg": 5195,
      "Factory": 5196,
      "kwanyere": 5197,
      "mputa": 5198,
      "mkwem": 5199,
      "advan": 5200,
      "ronic": 5201,
      "57": 5202,
      "bro": 5203,
      "parts": 5204,
      "Vol": 5205,
      "hours": 5206,
      "nor": 5207,
      "ochi": 5208,
      "bụna": 5209,
      "ST": 5210,
      "inu": 5211,
      "itor": 5212,
      "Akụ": 5213,
      "SP": 5214,
      "ken": 5215,
      "Ekwentị": 5216,
      "ml": 5217,
      "Okp": 5218,
      "Sci": 5219,
      "ose": 5220,
      "Contact": 5221,
      "ili": 5222,
      "03": 5223,
      "poly": 5224,
      "OM": 5225,
      "Ikike": 5226,
      "miss": 5227,
      "zhou": 5228,
      "Service": 5229,
      "viron": 5230,
      "CC": 5231,
      "ehi": 5232,
      "icle": 5233,
      "lobal": 5234,
      "ụgbọelu": 5235,
      "house": 5236,
      "sible": 5237,
      "coil": 5238,
      "cost": 5239,
      "buy": 5240,
      "Heat": 5241,
      "Nyocha": 5242,
      "wara": 5243,
      "rict": 5244,
      "Bra": 5245,
      "den": 5246,
      "cking": 5247,
      "UN": 5248,
      "oghere": 5249,
      "stor": 5250,
      "working": 5251,
      "organ": 5252,
      "industry": 5253,
      "Custom": 5254,
      "pat": 5255,
      "EL": 5256,
      "States": 5257,
      "asụsụ": 5258,
      "atures": 5259,
      "Italy": 5260,
      "steroid": 5261,
      "ekpuchi": 5262,
      "Tool": 5263,
      "HS": 5264,
      "format": 5265,
      "operation": 5266,
      "arọ": 5267,
      "dem": 5268,
      "rug": 5269,
      "follow": 5270,
      "pịa": 5271,
      "before": 5272,
      "smart": 5273,
      "Pr": 5274,
      "mkpọ": 5275,
      "around": 5276,
      "cu": 5277,
      "wọk": 5278,
      "Oc": 5279,
      "Per": 5280,
      "ain": 5281,
      "ngal": 5282,
      "OF": 5283,
      "ụkpụrụ": 5284,
      "Video": 5285,
      "ngalaba": 5286,
      "At": 5287,
      "OEM": 5288,
      "mbu": 5289,
      "war": 5290,
      "curity": 5291,
      "English": 5292,
      "isiokwu": 5293,
      "nanị": 5294,
      "ient": 5295,
      "nchịkọta": 5296,
      "76": 5297,
      "Cur": 5298,
      "inal": 5299,
      "Prof": 5300,
      "Type": 5301,
      "cum": 5302,
      "bank": 5303,
      "ogide": 5304,
      "ona": 5305,
      "dep": 5306,
      "ahia": 5307,
      "gbochi": 5308,
      "Pu": 5309,
      "game": 5310,
      "access": 5311,
      "manufacturer": 5312,
      "Nzu": 5313,
      "hum": 5314,
      "afety": 5315,
      "Jul": 5316,
      "carbon": 5317,
      "visit": 5318,
      "maara": 5319,
      "Nji": 5320,
      "School": 5321,
      "development": 5322,
      "Industrial": 5323,
      "ering": 5324,
      "������": 5325,
      "AAS": 5326,
      "appro": 5327,
      "incre": 5328,
      "abụghị": 5329,
      "agha": 5330,
      "loc": 5331,
      "ember": 5332,
      "OD": 5333,
      "Card": 5334,
      "oose": 5335,
      "600": 5336,
      "kiri": 5337,
      "Bar": 5338,
      "lex": 5339,
      "Sta": 5340,
      "equipment": 5341,
      "dig": 5342,
      "vin": 5343,
      "cted": 5344,
      "magnet": 5345,
      "ling": 5346,
      "koodu": 5347,
      "Wo": 5348,
      "nnyocha": 5349,
      "alk": 5350,
      "tụtụ": 5351,
      "kọtara": 5352,
      "contact": 5353,
      "oun": 5354,
      "2012": 5355,
      "Int": 5356,
      "require": 5357,
      "via": 5358,
      "based": 5359,
      "dere": 5360,
      "att": 5361,
      "tification": 5362,
      "AB": 5363,
      "MT": 5364,
      "Obi": 5365,
      "Shen": 5366,
      "UK": 5367,
      "aluminum": 5368,
      "uter": 5369,
      "could": 5370,
      "itional": 5371,
      "photo": 5372,
      "Heating": 5373,
      "dabere": 5374,
      "ọnwụ": 5375,
      "ategories": 5376,
      "Port": 5377,
      "Ọgwụ": 5378,
      "Tags": 5379,
      "char": 5380,
      "ased": 5381,
      "ged": 5382,
      "hard": 5383,
      "show": 5384,
      "tee": 5385,
      "netwọk": 5386,
      "small": 5387,
      "THE": 5388,
      "rap": 5389,
      "Server": 5390,
      "agụnye": 5391,
      "Software": 5392,
      "Can": 5393,
      "Eme": 5394,
      "area": 5395,
      "tabl": 5396,
      "Ego": 5397,
      "Mgb": 5398,
      "ben": 5399,
      "click": 5400,
      "II": 5401,
      "Hyper": 5402,
      "rogen": 5403,
      "nwanyị": 5404,
      "Cap": 5405,
      "hol": 5406,
      "utions": 5407,
      "June": 5408,
      "??": 5409,
      "Ri": 5410,
      "because": 5411,
      "forman": 5412,
      "Mma": 5413,
      "ture": 5414,
      "center": 5415,
      "89": 5416,
      "IR": 5417,
      "Ot": 5418,
      "plu": 5419,
      "Review": 5420,
      "ugbo": 5421,
      "ury": 5422,
      "04": 5423,
      "cus": 5424,
      "nya": 5425,
      "Open": 5426,
      "mahad": 5427,
      "kpọmkwem": 5428,
      "mahadum": 5429,
      "ward": 5430,
      "Center": 5431,
      "chịkwa": 5432,
      "mmepe": 5433,
      "popular": 5434,
      "dom": 5435,
      "iyo": 5436,
      "pur": 5437,
      "Ning": 5438,
      "ream": 5439,
      "Pa": 5440,
      "kn": 5441,
      "vert": 5442,
      "perfect": 5443,
      "istr": 5444,
      "Sil": 5445,
      "pri": 5446,
      "1xBet": 5447,
      "Kore": 5448,
      "film": 5449,
      "International": 5450,
      "wholesale": 5451,
      "nanya": 5452,
      "ntọala": 5453,
      "wide": 5454,
      "utes": 5455,
      "rench": 5456,
      "Of": 5457,
      "bag": 5458,
      "Wel": 5459,
      "formance": 5460,
      "Cha": 5461,
      "vil": 5462,
      "ouble": 5463,
      "cast": 5464,
      "ij": 5465,
      "craft": 5466,
      "64": 5467,
      "laser": 5468,
      "ris": 5469,
      "wire": 5470,
      "ọbụna": 5471,
      "Ụmụ": 5472,
      "tober": 5473,
      "Febru": 5474,
      "National": 5475,
      "lam": 5476,
      "stat": 5477,
      "German": 5478,
      "grow": 5479,
      "ounta": 5480,
      "February": 5481,
      "LC": 5482,
      "atom": 5483,
      "fur": 5484,
      "zí": 5485,
      "zon": 5486,
      "Metal": 5487,
      "ough": 5488,
      "akaụntụ": 5489,
      "European": 5490,
      "Ahụ": 5491,
      "tim": 5492,
      "atị": 5493,
      "sian": 5494,
      "baric": 5495,
      ".”": 5496,
      "Nlereanya": 5497,
      "Uk": 5498,
      "èzí": 5499,
      "Sept": 5500,
      "Cra": 5501,
      "Sund": 5502,
      "ịga": 5503,
      "itan": 5504,
      "said": 5505,
      "sha": 5506,
      "square": 5507,
      "ada": 5508,
      "pair": 5509,
      "tube": 5510,
      "Key": 5511,
      "real": 5512,
      "kpuchi": 5513,
      "same": 5514,
      "YouTube": 5515,
      "igbe": 5516,
      "admin": 5517,
      "Spy": 5518,
      "Ningbo": 5519,
      "PP": 5520,
      "hes": 5521,
      "both": 5522,
      "services": 5523,
      "Price": 5524,
      "nkeji": 5525,
      "mmụta": 5526,
      "resist": 5527,
      "Shutter": 5528,
      "Gro": 5529,
      "whe": 5530,
      "soci": 5531,
      "Box": 5532,
      "ọmụmụ": 5533,
      "TV": 5534,
      "much": 5535,
      "ụba": 5536,
      "irror": 5537,
      "fied": 5538,
      "PDF": 5539,
      "sil": 5540,
      "oriri": 5541,
      "consi": 5542,
      "Friday": 5543,
      "rụngwa": 5544,
      "inan": 5545,
      "run": 5546,
      "etinye": 5547,
      "Am": 5548,
      "case": 5549,
      "technical": 5550,
      "direct": 5551,
      "card": 5552,
      "ọla": 5553,
      "nation": 5554,
      "kwụsị": 5555,
      "prise": 5556,
      "ually": 5557,
      "Material": 5558,
      "temperature": 5559,
      "course": 5560,
      "Cana": 5561,
      "Get": 5562,
      "ịchọ": 5563,
      "Anti": 5564,
      "October": 5565,
      "09": 5566,
      "Tha": 5567,
      "ịme": 5568,
      "nkiri": 5569,
      "cis": 5570,
      "cept": 5571,
      "quest": 5572,
      "Ru": 5573,
      "pric": 5574,
      "ril": 5575,
      "tery": 5576,
      "Word": 5577,
      "commun": 5578,
      "Control": 5579,
      "56": 5580,
      "ended": 5581,
      "jection": 5582,
      "nweghị": 5583,
      "kọmputa": 5584,
      "njikwa": 5585,
      "Da": 5586,
      "TH": 5587,
      "create": 5588,
      "Africa": 5589,
      "ier": 5590,
      "large": 5591,
      "uta": 5592,
      "Wee": 5593,
      "Bas": 5594,
      "TD": 5595,
      "gbas": 5596,
      "DA": 5597,
      "Book": 5598,
      "La": 5599,
      "each": 5600,
      "Trains": 5601,
      "import": 5602,
      "eletri": 5603,
      "58": 5604,
      "PE": 5605,
      "Ugbu": 5606,
      "__": 5607,
      "fix": 5608,
      "irl": 5609,
      "MO": 5610,
      "oku": 5611,
      "nwekwara": 5612,
      "address": 5613,
      "41": 5614,
      "Hand": 5615,
      "effic": 5616,
      "kwà": 5617,
      "Dece": 5618,
      "Hyperbaric": 5619,
      "ern": 5620,
      "hipping": 5621,
      "Tattoos": 5622,
      "Fabric": 5623,
      "cular": 5624,
      "lid": 5625,
      "akpali": 5626,
      "Lighting": 5627,
      "block": 5628,
      "kpụkpọ": 5629,
      "various": 5630,
      "results": 5631,
      "fr": 5632,
      "flu": 5633,
      "treat": 5634,
      "2000": 5635,
      "Dire": 5636,
      "Ọdị": 5637,
      "user": 5638,
      "love": 5639,
      "button": 5640,
      "food": 5641,
      "Ko": 5642,
      "heat": 5643,
      "Photo": 5644,
      "raight": 5645,
      "budata": 5646,
      "December": 5647,
      "rum": 5648,
      "Hu": 5649,
      "Ide": 5650,
      "bịa": 5651,
      "eso": 5652,
      "lands": 5653,
      "Swit": 5654,
      "Rail": 5655,
      "ley": 5656,
      "meet": 5657,
      "chemical": 5658,
      "ips": 5659,
      "works": 5660,
      "standard": 5661,
      "adoro": 5662,
      "ired": 5663,
      "Add": 5664,
      "vironment": 5665,
      "oud": 5666,
      "lọtọ": 5667,
      "mgbochi": 5668,
      "nov": 5669,
      "py": 5670,
      "max": 5671,
      "ids": 5672,
      "Aluminum": 5673,
      "Multi": 5674,
      "PO": 5675,
      "Pipe": 5676,
      "kpam": 5677,
      "weight": 5678,
      "while": 5679,
      "Turkey": 5680,
      "ackaging": 5681,
      "building": 5682,
      "Austral": 5683,
      "CNC": 5684,
      "testosterone": 5685,
      "vely": 5686,
      "Ejiri": 5687,
      "fac": 5688,
      "giv": 5689,
      "usher": 5690,
      "AASraw": 5691,
      "hapụ": 5692,
      "ghọta": 5693,
      "ildren": 5694,
      "Smart": 5695,
      "CB": 5696,
      "Nde": 5697,
      "ubi": 5698,
      "map": 5699,
      "thor": 5700,
      "Ge": 5701,
      "bere": 5702,
      "kind": 5703,
      "bitcoin": 5704,
      "War": 5705,
      "ete": 5706,
      "invest": 5707,
      "ures": 5708,
      "meter": 5709,
      "Nweta": 5710,
      "han": 5711,
      "osara": 5712,
      "hydro": 5713,
      "zhen": 5714,
      "Ụbọchị": 5715,
      "ori": 5716,
      "three": 5717,
      "team": 5718,
      "tract": 5719,
      "Quality": 5720,
      "General": 5721,
      "Cas": 5722,
      "French": 5723,
      "ouse": 5724,
      "amb": 5725,
      "Chọ": 5726,
      "known": 5727,
      "ames": 5728,
      "motor": 5729,
      "bolic": 5730,
      "tow": 5731,
      "posh": 5732,
      "chinery": 5733,
      "ịzụta": 5734,
      "Ime": 5735,
      "USA": 5736,
      "nkwụnye": 5737,
      "Ed": 5738,
      "Emb": 5739,
      "nyefe": 5740,
      "Office": 5741,
      "OK": 5742,
      "��������": 5743,
      "Expert": 5744,
      "countries": 5745,
      "Rom": 5746,
      "alụ": 5747,
      "bus": 5748,
      "sum": 5749,
      "gharịa": 5750,
      "otrop": 5751,
      "brand": 5752,
      "Glass": 5753,
      "Last": 5754,
      "eje": 5755,
      "54": 5756,
      "langu": 5757,
      "itu": 5758,
      "MH": 5759,
      "panel": 5760,
      "duction": 5761,
      "emeputa": 5762,
      "syn": 5763,
      "enyo": 5764,
      "internet": 5765,
      "Gen": 5766,
      "HGH": 5767,
      "Ter": 5768,
      "ondon": 5769,
      "urs": 5770,
      "unu": 5771,
      "pring": 5772,
      "wood": 5773,
      "Kedu": 5774,
      "When": 5775,
      "save": 5776,
      "Transport": 5777,
      "flo": 5778,
      "gasị": 5779,
      "self": 5780,
      "wall": 5781,
      "present": 5782,
      "pace": 5783,
      "public": 5784,
      "call": 5785,
      "glass": 5786,
      "non": 5787,
      "Chine": 5788,
      "About": 5789,
      "tattoo": 5790,
      "HP": 5791,
      "ason": 5792,
      "ọkọlọtọ": 5793,
      "Chineke": 5794,
      "Tem": 5795,
      "ọj": 5796,
      "TR": 5797,
      "fig": 5798,
      "Janu": 5799,
      "itinye": 5800,
      "plan": 5801,
      "transl": 5802,
      "guzogide": 5803,
      "Cent": 5804,
      "lar": 5805,
      "must": 5806,
      "unicip": 5807,
      "belata": 5808,
      ">>": 5809,
      "gent": 5810,
      "tek": 5811,
      "impro": 5812,
      "January": 5813,
      "Access": 5814,
      "ified": 5815,
      "Cry": 5816,
      "til": 5817,
      "vember": 5818,
      "acy": 5819,
      "Save": 5820,
      "September": 5821,
      "otutu": 5822,
      "Gra": 5823,
      "clu": 5824,
      "ders": 5825,
      "họ": 5826,
      "Obodo": 5827,
      "Magnet": 5828,
      "800": 5829,
      "ịkwanyere": 5830,
      "arn": 5831,
      "fast": 5832,
      "November": 5833,
      "echebe": 5834,
      "52": 5835,
      "CL": 5836,
      "Snow": 5837,
      "Vers": 5838,
      "bum": 5839,
      "aro": 5840,
      "those": 5841,
      "times": 5842,
      "First": 5843,
      "Sim": 5844,
      "cir": 5845,
      "gre": 5846,
      "Project": 5847,
      "ength": 5848,
      "Otú": 5849,
      "By": 5850,
      "Raw": 5851,
      "Mkpụrụ": 5852,
      "give": 5853,
      "chang": 5854,
      "etara": 5855,
      "device": 5856,
      "Alumin": 5857,
      "Gold": 5858,
      "Pat": 5859,
      "hormone": 5860,
      "Vis": 5861,
      "oil": 5862,
      "wever": 5863,
      "HT": 5864,
      "ribut": 5865,
      "users": 5866,
      "simiri": 5867,
      "materials": 5868,
      "Film": 5869,
      "Set": 5870,
      "okpu": 5871,
      "Biko": 5872,
      "CR": 5873,
      "bed": 5874,
      "ná": 5875,
      "rate": 5876,
      "ensị": 5877,
      "2011": 5878,
      "pain": 5879,
      "94": 5880,
      "SA": 5881,
      "ịkụ": 5882,
      "esa": 5883,
      "Advis": 5884,
      "vidiyo": 5885,
      "American": 5886,
      "Poly": 5887,
      "ugwu": 5888,
      "struction": 5889,
      "sci": 5890,
      "ences": 5891,
      "iful": 5892,
      "Men": 5893,
      "Over": 5894,
      "Green": 5895,
      "link": 5896,
      "edebe": 5897,
      "ọgwụgwọ": 5898,
      "They": 5899,
      "tures": 5900,
      "Im": 5901,
      "pcs": 5902,
      "July": 5903,
      "Act": 5904,
      "Sub": 5905,
      "ụka": 5906,
      "capac": 5907,
      "Sur": 5908,
      "VE": 5909,
      "nrụ": 5910,
      "ela": 5911,
      "beaut": 5912,
      "Flo": 5913,
      "Hor": 5914,
      "bai": 5915,
      "Cheap": 5916,
      "money": 5917,
      "onyinye": 5918,
      "itable": 5919,
      "road": 5920,
      "India": 5921,
      "ending": 5922,
      "mgbakwunye": 5923,
      "Shenzhen": 5924,
      "Fit": 5925,
      "Kr": 5926,
      "TA": 5927,
      "IF": 5928,
      "Pen": 5929,
      "San": 5930,
      "ewe": 5931,
      "Count": 5932,
      "GPS": 5933,
      "NE": 5934,
      "iOS": 5935,
      "Ọkụ": 5936,
      "Minist": 5937,
      "110": 5938,
      "ngwọta": 5939,
      "tor": 5940,
      "ense": 5941,
      "kọọ": 5942,
      "State": 5943,
      "international": 5944,
      "offers": 5945,
      "Swed": 5946,
      "ederede": 5947,
      "cryptocurrency": 5948,
      "Und": 5949,
      "nna": 5950,
      "oc": 5951,
      "ịst": 5952,
      "politan": 5953,
      "ridge": 5954,
      "Kraịst": 5955,
      "130": 5956,
      "Mal": 5957,
      "Ori": 5958,
      "Women": 5959,
      "fla": 5960,
      "ụda": 5961,
      "anish": 5962,
      "AND": 5963,
      "Ber": 5964,
      "CD": 5965,
      "waya": 5966,
      "84": 5967,
      "pie": 5968,
      "ọzụzụ": 5969,
      "atform": 5970,
      "oss": 5971,
      "computer": 5972,
      "Series": 5973,
      "):": 5974,
      "Dress": 5975,
      "live": 5976,
      "2010": 5977,
      "echekw": 5978,
      "customer": 5979,
      "mission": 5980,
      "mage": 5981,
      "Reg": 5982,
      "imum": 5983,
      "Lee": 5984,
      "issu": 5985,
      "current": 5986,
      "nkume": 5987,
      "ION": 5988,
      "training": 5989,
      "digital": 5990,
      "Igbo": 5991,
      "PR": 5992,
      "Code": 5993,
      "April": 5994,
      "Bur": 5995,
      "LO": 5996,
      "Sams": 5997,
      "Ọtụtụ": 5998,
      "vey": 5999,
      "tegr": 6000,
      "structure": 6001,
      "Mb": 6002,
      "ika": 6003,
      "lic": 6004,
      "itions": 6005,
      "ico": 6006,
      "oney": 6007,
      "nwee": 6008,
      "John": 6009,
      "CM": 6010,
      "London": 6011,
      "chat": 6012,
      "videos": 6013,
      "Mee": 6014,
      "lat": 6015,
      "Ibe": 6016,
      "Point": 6017,
      "volta": 6018,
      "ov": 6019,
      "ishing": 6020,
      "CSGO": 6021,
      "friend": 6022,
      "God": 6023,
      "ige": 6024,
      "state": 6025,
      "rip": 6026,
      "Metropolitan": 6027,
      "Tụ": 6028,
      "Wall": 6029,
      "gbasara": 6030,
      "Lin": 6031,
      "base": 6032,
      "cred": 6033,
      "week": 6034,
      "ndepụta": 6035,
      "function": 6036,
      "Management": 6037,
      "Under": 6038,
      "Wed": 6039,
      "black": 6040,
      "eze": 6041,
      "ros": 6042,
      "adọ": 6043,
      "WordPress": 6044,
      "foot": 6045,
      "Robot": 6046,
      "Are": 6047,
      "Mi": 6048,
      "Wire": 6049,
      "pic": 6050,
      "performance": 6051,
      "uputa": 6052,
      "Australia": 6053,
      "onw": 6054,
      "being": 6055,
      "kwuo": 6056,
      "Suppli": 6057,
      "iny": 6058,
      "hụụ": 6059,
      "Good": 6060,
      "Monday": 6061,
      "establ": 6062,
      "proble": 6063,
      "unwe": 6064,
      "Whats": 6065,
      "supplier": 6066,
      "Ankara": 6067,
      "Apple": 6068,
      "Market": 6069,
      "voltage": 6070,
      "Obere": 6071,
      "Year": 6072,
      "stal": 6073,
      "roof": 6074,
      "taa": 6075,
      "reesị": 6076,
      "agwa": 6077,
      "udi": 6078,
      "making": 6079,
      "draw": 6080,
      "tech": 6081,
      "Chang": 6082,
      "cies": 6083,
      "sayensị": 6084,
      "Generator": 6085,
      "onwunwe": 6086,
      "deli": 6087,
      "fit": 6088,
      "ched": 6089,
      "ekwesị": 6090,
      "PRO": 6091,
      "nakwa": 6092,
      "within": 6093,
      "akụrụngwa": 6094,
      "manufacturers": 6095,
      "ban": 6096,
      "eguzogide": 6097,
      "son": 6098,
      "designed": 6099,
      "limited": 6100,
      "Jet": 6101,
      "ark": 6102,
      "Ony": 6103,
      "Private": 6104,
      "ụma": 6105,
      "zie": 6106,
      "idd": 6107,
      "Stand": 6108,
      "mode": 6109,
      "Develop": 6110,
      "ib": 6111,
      "km": 6112,
      "ria": 6113,
      "iru": 6114,
      "comes": 6115,
      "efere": 6116,
      "meters": 6117,
      "draul": 6118,
      "Del": 6119,
      "EB": 6120,
      "Number": 6121,
      "story": 6122,
      "Trading": 6123,
      "bles": 6124,
      "Support": 6125,
      "Version": 6126,
      "Enwere": 6127,
      "Municip": 6128,
      "won": 6129,
      "Prote": 6130,
      "ịgbado": 6131,
      "anwụrụ": 6132,
      "UM": 6133,
      "ikwu": 6134,
      "amalite": 6135,
      "tings": 6136,
      "biko": 6137,
      "ntị": 6138,
      "ready": 6139,
      "xygen": 6140,
      "etate": 6141,
      "prop": 6142,
      "short": 6143,
      "Asia": 6144,
      "inụlọ": 6145,
      "emepe": 6146,
      "Bat": 6147,
      "klas": 6148,
      "screen": 6149,
      "ulator": 6150,
      "mmekọ": 6151,
      "EX": 6152,
      "Master": 6153,
      "redu": 6154,
      "students": 6155,
      "Advisor": 6156,
      "59": 6157,
      "DD": 6158,
      "NO": 6159,
      "jor": 6160,
      "inet": 6161,
      "makwụkwọ": 6162,
      "lection": 6163,
      "oul": 6164,
      "nụzụ": 6165,
      "cript": 6166,
      "68": 6167,
      "Main": 6168,
      "akporo": 6169,
      "ples": 6170,
      "interest": 6171,
      "country": 6172,
      "model": 6173,
      "SM": 6174,
      "Satur": 6175,
      "sure": 6176,
      "ney": 6177,
      "Kw": 6178,
      "FO": 6179,
      "care": 6180,
      "tinyere": 6181,
      "ret": 6182,
      "olone": 6183,
      "ential": 6184,
      "tual": 6185,
      "Gbany": 6186,
      "otton": 6187,
      "ido": 6188,
      "aku": 6189,
      "energy": 6190,
      "Ọdịdị": 6191,
      "Gbanyụọ": 6192,
      "220": 6193,
      "pal": 6194,
      "content": 6195,
      "Look": 6196,
      "roller": 6197,
      "looking": 6198,
      "Full": 6199,
      "file": 6200,
      "ruru": 6201,
      "ọkwọ": 6202,
      "Comments": 6203,
      "Long": 6204,
      "ccess": 6205,
      "fol": 6206,
      "ove": 6207,
      "pack": 6208,
      "Road": 6209,
      "Click": 6210,
      "break": 6211,
      "Ọzọkwa": 6212,
      "Ul": 6213,
      "ọṅụ": 6214,
      "church": 6215,
      "pect": 6216,
      "lysis": 6217,
      "Stud": 6218,
      "Ndi": 6219,
      "az": 6220,
      "aru": 6221,
      "respon": 6222,
      "nje": 6223,
      "during": 6224,
      "nkịtị": 6225,
      "Life": 6226,
      "Amazon": 6227,
      "72": 6228,
      "ners": 6229,
      "pti": 6230,
      "kpu": 6231,
      "draulic": 6232,
      "Saturday": 6233,
      "Ala": 6234,
      "ochie": 6235,
      "anyi": 6236,
      "ension": 6237,
      "protection": 6238,
      "North": 6239,
      "ojiji": 6240,
      "Dubai": 6241,
      "Agba": 6242,
      "Cre": 6243,
      "Tic": 6244,
      "tank": 6245,
      "ákwà": 6246,
      "biri": 6247,
      "izing": 6248,
      "Wood": 6249,
      "Sunday": 6250,
      "UV": 6251,
      "arma": 6252,
      "style": 6253,
      "ental": 6254,
      "million": 6255,
      "HF": 6256,
      "anies": 6257,
      "ghari": 6258,
      "cker": 6259,
      "spy": 6260,
      "white": 6261,
      "ozugbo": 6262,
      "Nledo": 6263,
      "Group": 6264,
      "Mus": 6265,
      "since": 6266,
      "located": 6267,
      "SE": 6268,
      "Stain": 6269,
      "him": 6270,
      "text": 6271,
      "sitere": 6272,
      "icy": 6273,
      "today": 6274,
      "according": 6275,
      "lip": 6276,
      "include": 6277,
      "cellent": 6278,
      "cat": 6279,
      "lor": 6280,
      "oma": 6281,
      "ndabere": 6282,
      "Linear": 6283,
      "Science": 6284,
      "chere": 6285,
      "icate": 6286,
      "conom": 6287,
      "Shop": 6288,
      "specif": 6289,
      "Aka": 6290,
      "got": 6291,
      "uzo": 6292,
      "ctional": 6293,
      "....": 6294,
      "ọnụahịa": 6295,
      "Nkwado": 6296,
      "Wi": 6297,
      "efe": 6298,
      "ókè": 6299,
      "obosara": 6300,
      "gwugwu": 6301,
      "moto": 6302,
      "malitere": 6303,
      "Russian": 6304,
      "lay": 6305,
      "Nj": 6306,
      "Medical": 6307,
      "joy": 6308,
      "Ba": 6309,
      "Real": 6310,
      "Board": 6311,
      "egbuke": 6312,
      "View": 6313,
      "liding": 6314,
      "Bag": 6315,
      "agbanye": 6316,
      "ezinụlọ": 6317,
      "Er": 6318,
      "Ele": 6319,
      "writ": 6320,
      "ond": 6321,
      "edem": 6322,
      "adịgide": 6323,
      "Buy": 6324,
      "Pal": 6325,
      "dos": 6326,
      "aning": 6327,
      "izer": 6328,
      "nzukọ": 6329,
      "Nw": 6330,
      "nu": 6331,
      "ters": 6332,
      "ịtụ": 6333,
      "iland": 6334,
      "Nri": 6335,
      "Ntụ": 6336,
      "Og": 6337,
      "eria": 6338,
      "92": 6339,
      "ND": 6340,
      "bath": 6341,
      "dum": 6342,
      "tour": 6343,
      "ndu": 6344,
      "ications": 6345,
      "Bear": 6346,
      "Psychic": 6347,
      "Stainless": 6348,
      "Las": 6349,
      "para": 6350,
      "tù": 6351,
      "move": 6352,
      "graph": 6353,
      "After": 6354,
      "Ara": 6355,
      "UT": 6356,
      "ịdị": 6357,
      "ement": 6358,
      "ource": 6359,
      "Name": 6360,
      "Dig": 6361,
      "aring": 6362,
      "check": 6363,
      "guar": 6364,
      "called": 6365,
      "Waterproof": 6366,
      "ambodo": 6367,
      "iyi": 6368,
      "beere": 6369,
      "unch": 6370,
      "Decor": 6371,
      "Equipment": 6372,
      "Nchekwa": 6373,
      "Mirror": 6374,
      "fully": 6375,
      "frame": 6376,
      "edemede": 6377,
      "Bud": 6378,
      "enna": 6379,
      "icon": 6380,
      "uri": 6381,
      "sie": 6382,
      "verter": 6383,
      "Share": 6384,
      "ashion": 6385,
      "Color": 6386,
      "band": 6387,
      "nnyefe": 6388,
      "inch": 6389,
      "big": 6390,
      "mmekọrịta": 6391,
      "ntak": 6392,
      "teknụzụ": 6393,
      "Lat": 6394,
      "ned": 6395,
      "proper": 6396,
      "quid": 6397,
      "fiber": 6398,
      "wordpress": 6399,
      "KA": 6400,
      "sex": 6401,
      "options": 6402,
      "nchịkwa": 6403,
      "ọjọọ": 6404,
      "P3D": 6405,
      "snow": 6406,
      "sports": 6407,
      "ulture": 6408,
      "virus": 6409,
      "43": 6410,
      "tike": 6411,
      "lete": 6412,
      "ellow": 6413,
      "istration": 6414,
      "Thailand": 6415,
      "69": 6416,
      "Grow": 6417,
      "alt": 6418,
      "osp": 6419,
      "features": 6420,
      "dabeere": 6421,
      "news": 6422,
      "Super": 6423,
      "provides": 6424,
      "Log": 6425,
      "environment": 6426,
      "ITIL": 6427,
      "frared": 6428,
      "Banyere": 6429,
      "Dr": 6430,
      "indi": 6431,
      "Show": 6432,
      "reviews": 6433,
      "Gal": 6434,
      "pas": 6435,
      "reli": 6436,
      "180": 6437,
      "FOR": 6438,
      "Nhazi": 6439,
      "cable": 6440,
      "store": 6441,
      "Servo": 6442,
      "Sho": 6443,
      "avi": 6444,
      "single": 6445,
      "jiji": 6446,
      "elekọta": 6447,
      "Dist": 6448,
      "chines": 6449,
      "ural": 6450,
      "elli": 6451,
      "reng": 6452,
      "Posted": 6453,
      "strong": 6454,
      "Samsung": 6455,
      "mepụtara": 6456,
      "ickness": 6457,
      "Flor": 6458,
      "9001": 6459,
      "AU": 6460,
      "kwadoro": 6461,
      "Straight": 6462,
      "ojii": 6463,
      "AH": 6464,
      "Pump": 6465,
      "next": 6466,
      "paper": 6467,
      "asi": 6468,
      "acid": 6469,
      "2005": 6470,
      "mercial": 6471,
      "Training": 6472,
      "Tr": 6473,
      "hold": 6474,
      "Ịgba": 6475,
      "stant": 6476,
      "raine": 6477,
      "adi": 6478,
      "nchebe": 6479,
      "Park": 6480,
      "Uwe": 6481,
      "gation": 6482,
      "ọpụ": 6483,
      "edo": 6484,
      "memb": 6485,
      "few": 6486,
      "better": 6487,
      "63": 6488,
      "Right": 6489,
      "mir": 6490,
      "vụ": 6491,
      "zed": 6492,
      "emi": 6493,
      "Coin": 6494,
      "etooth": 6495,
      "bra": 6496,
      "sample": 6497,
      "aby": 6498,
      "nọmba": 6499,
      "ọchịchị": 6500,
      "iency": 6501,
      "ref": 6502,
      "ground": 6503,
      "Họrọ": 6504,
      "Low": 6505,
      "mọdụ": 6506,
      "nel": 6507,
      "esti": 6508,
      "2008": 6509,
      "Website": 6510,
      "Hz": 6511,
      "sor": 6512,
      "ọna": 6513,
      "rụọ": 6514,
      "ians": 6515,
      "Enweghị": 6516,
      "Hel": 6517,
      "King": 6518,
      "pot": 6519,
      "naya": 6520,
      "things": 6521,
      "amba": 6522,
      "friger": 6523,
      "specialized": 6524,
      "group": 6525,
      ".>": 6526,
      "Bro": 6527,
      "Tun": 6528,
      "mà": 6529,
      "quick": 6530,
      "ists": 6531,
      "please": 6532,
      "super": 6533,
      "ax": 6534,
      "brow": 6535,
      "sell": 6536,
      "vc": 6537,
      "2009": 6538,
      "Ukraine": 6539,
      "Global": 6540,
      "ena": 6541,
      "pra": 6542,
      "sites": 6543,
      ".)": 6544,
      "5mm": 6545,
      "BS": 6546,
      "Tinye": 6547,
      "bility": 6548,
      "mmalite": 6549,
      "plate": 6550,
      "sw": 6551,
      "choose": 6552,
      "Plus": 6553,
      "applications": 6554,
      "Bank": 6555,
      "Let": 6556,
      "pipe": 6557,
      "zing": 6558,
      "zọpụta": 6559,
      "export": 6560,
      "Thurs": 6561,
      "Work": 6562,
      "transport": 6563,
      "hotel": 6564,
      "mix": 6565,
      "stop": 6566,
      "ties": 6567,
      "Spanish": 6568,
      "ndekọ": 6569,
      "zaghachi": 6570,
      "casino": 6571,
      "advanced": 6572,
      "53": 6573,
      "Sales": 6574,
      "cycle": 6575,
      "Engine": 6576,
      "Russia": 6577,
      "Please": 6578,
      "Use": 6579,
      "Way": 6580,
      "ogbe": 6581,
      "ANY": 6582,
      "university": 6583,
      "treatment": 6584,
      "Panel": 6585,
      "imm": 6586,
      "atic": 6587,
      "major": 6588,
      "lots": 6589,
      "Fast": 6590,
      "Hong": 6591,
      "purch": 6592,
      "ofu": 6593,
      "hap": 6594,
      "batrị": 6595,
      "Canada": 6596,
      "Cat": 6597,
      "common": 6598,
      "ejiji": 6599,
      "jupụtara": 6600,
      "Isiokwu": 6601,
      "nzuzo": 6602,
      "ackp": 6603,
      "Shan": 6604,
      "East": 6605,
      "egw": 6606,
      "term": 6607,
      "loss": 6608,
      "rịọ": 6609,
      "ihuenyo": 6610,
      "valvụ": 6611,
      "following": 6612,
      "tiketi": 6613,
      "Edu": 6614,
      "Hist": 6615,
      "Pịa": 6616,
      "did": 6617,
      "rite": 6618,
      "ify": 6619,
      "embed": 6620,
      "akwukwọ": 6621,
      "Welcome": 6622,
      "51": 6623,
      "IG": 6624,
      "audio": 6625,
      "Parts": 6626,
      "Nig": 6627,
      "ica": 6628,
      "ntupu": 6629,
      "Kratom": 6630,
      "Wedn": 6631,
      "kee": 6632,
      "GE": 6633,
      "ode": 6634,
      "atara": 6635,
      "tom": 6636,
      "tam": 6637,
      "important": 6638,
      "Her": 6639,
      "Here": 6640,
      "Oper": 6641,
      "Paper": 6642,
      "Safety": 6643,
      "These": 6644,
      "ghai": 6645,
      "electronic": 6646,
      "player": 6647,
      "effects": 6648,
      "Municipality": 6649,
      "Sale": 6650,
      "ọha": 6651,
      "select": 6652,
      "anụnụ": 6653,
      "mita": 6654,
      "ekele": 6655,
      "Nk": 6656,
      "rest": 6657,
      "Weight": 6658,
      "anabolic": 6659,
      "Nzuzo": 6660,
      "plugin": 6661,
      "91": 6662,
      "Flight": 6663,
      "Non": 6664,
      "inwe": 6665,
      "Njem": 6666,
      "Shi": 6667,
      "já": 6668,
      "ongwo": 6669,
      "uring": 6670,
      "example": 6671,
      "allows": 6672,
      "iled": 6673,
      "Den": 6674,
      "Kọ": 6675,
      "try": 6676,
      "ined": 6677,
      "orig": 6678,
      "okenye": 6679,
      "Order": 6680,
      "ọṅụṅụ": 6681,
      "Wednesday": 6682,
      "\".": 6683,
      "House": 6684,
      "Sun": 6685,
      "Vir": 6686,
      "aja": 6687,
      "ler": 6688,
      "má": 6689,
      "zy": 6690,
      "forward": 6691,
      "eduga": 6692,
      "Guang": 6693,
      "Rolling": 6694,
      "Map": 6695,
      "[...]": 6696,
      "fly": 6697,
      "gid": 6698,
      "green": 6699,
      "think": 6700,
      "among": 6701,
      "local": 6702,
      "success": 6703,
      "1xbet": 6704,
      "Ca": 6705,
      "fir": 6706,
      "always": 6707,
      "still": 6708,
      "toge": 6709,
      "together": 6710,
      "ịm": 6711,
      "Airline": 6712,
      "Charter": 6713,
      "78": 6714,
      "BET": 6715,
      "From": 6716,
      "Gara": 6717,
      "fere": 6718,
      "mess": 6719,
      "micro": 6720,
      "cooperation": 6721,
      "ọgwụgwụ": 6722,
      "ozuzu": 6723,
      "cuit": 6724,
      "eletrik": 6725,
      "beautiful": 6726,
      "Fan": 6727,
      "HO": 6728,
      "Ok": 6729,
      "cart": 6730,
      "osimiri": 6731,
      "wanye": 6732,
      "keep": 6733,
      "emp": 6734,
      "indic": 6735,
      "Exchange": 6736,
      "Back": 6737,
      "Rik": 6738,
      "second": 6739,
      "kwaa": 6740,
      "ntutu": 6741,
      "Thank": 6742,
      "�������": 6743,
      "rolone": 6744,
      "Thursday": 6745,
      "LTD": 6746,
      "NG": 6747,
      "ird": 6748,
      "Ang": 6749,
      "gency": 6750,
      "ọdịda": 6751,
      "method": 6752,
      "coiler": 6753,
      "Development": 6754,
      "Ogologo": 6755,
      "Single": 6756,
      "ev": 6757,
      "flights": 6758,
      "exp": 6759,
      "prices": 6760,
      "ules": 6761,
      "That": 6762,
      "eziokwu": 6763,
      "Health": 6764,
      "ngọ": 6765,
      "79": 6766,
      "Cy": 6767,
      "Live": 6768,
      "MB": 6769,
      "progra": 6770,
      "mmanya": 6771,
      "Player": 6772,
      "feel": 6773,
      "ological": 6774,
      "position": 6775,
      "74": 6776,
      "Pers": 6777,
      "ini": 6778,
      "allow": 6779,
      "agaghị": 6780,
      "personal": 6781,
      "nkwụsị": 6782,
      "games": 6783,
      "Osote": 6784,
      "Bul": 6785,
      "shi": 6786,
      "òtù": 6787,
      "article": 6788,
      "Star": 6789,
      "near": 6790,
      "cord": 6791,
      "belie": 6792,
      "window": 6793,
      "QL": 6794,
      "pet": 6795,
      "zil": 6796,
      "itute": 6797,
      "law": 6798,
      "Str": 6799,
      "complet": 6800,
      "160": 6801,
      "unique": 6802,
      "ey": 6803,
      "wal": 6804,
      "too": 6805,
      "dịgasị": 6806,
      "tern": 6807,
      "chapụ": 6808,
      "wụnye": 6809,
      "certification": 6810,
      "Tuesday": 6811,
      "akwukwo": 6812,
      "Weebụ": 6813,
      "Fun": 6814,
      "Jiri": 6815,
      "Mel": 6816,
      "Pres": 6817,
      "bị": 6818,
      "cket": 6819,
      "kit": 6820,
      "kwere": 6821,
      "ires": 6822,
      "Bluetooth": 6823,
      "tools": 6824,
      "zerland": 6825,
      "capacity": 6826,
      "Ben": 6827,
      "Nso": 6828,
      "tru": 6829,
      "contain": 6830,
      "okè": 6831,
      "Professional": 6832,
      "vince": 6833,
      "narị": 6834,
      "enjoy": 6835,
      "peeji": 6836,
      "cool": 6837,
      "Airport": 6838,
      "iddle": 6839,
      "Ajụjụ": 6840,
      "blockchain": 6841,
      "Clo": 6842,
      "gest": 6843,
      "àmà": 6844,
      "integr": 6845,
      "rail": 6846,
      "adreesị": 6847,
      "kwupụta": 6848,
      "akpaka": 6849,
      "Art": 6850,
      "payment": 6851,
      "Embed": 6852,
      "62": 6853,
      "sto": 6854,
      "asọ": 6855,
      "Machinery": 6856,
      "Covers": 6857,
      "Az": 6858,
      "Har": 6859,
      "Hum": 6860,
      "drug": 6861,
      "ider": 6862,
      "arden": 6863,
      "boo": 6864,
      "below": 6865,
      "waterproof": 6866,
      "Switzerland": 6867,
      "MM": 6868,
      "fic": 6869,
      "pere": 6870,
      "private": 6871,
      "means": 6872,
      "night": 6873,
      "2004": 6874,
      "Spain": 6875,
      "ụzụ": 6876,
      "agram": 6877,
      "Bible": 6878,
      "Digital": 6879,
      "Shanghai": 6880,
      "Cr": 6881,
      "Cour": 6882,
      "Miss": 6883,
      "Money": 6884,
      "SD": 6885,
      "Ve": 6886,
      "ira": 6887,
      "pan": 6888,
      "sho": 6889,
      "sound": 6890,
      "hem": 6891,
      "amount": 6892,
      "compon": 6893,
      "minutes": 6894,
      "Archi": 6895,
      "Garage": 6896,
      "Not": 6897,
      "ije": 6898,
      "interface": 6899,
      "came": 6900,
      "GBP": 6901,
      "Tickets": 6902,
      "Wal": 6903,
      "appe": 6904,
      "verse": 6905,
      "complete": 6906,
      "ọdịnaya": 6907,
      "excellent": 6908,
      "share": 6909,
      "created": 6910,
      "enterprise": 6911,
      "synthe": 6912,
      "WhatsApp": 6913,
      "61": 6914,
      "Aha": 6915,
      "Gur": 6916,
      "Lor": 6917,
      "Nnukwu": 6918,
      "mil": 6919,
      "rot": 6920,
      "grade": 6921,
      "famous": 6922,
      "Casino": 6923,
      "NEW": 6924,
      "Eke": 6925,
      "ọbara": 6926,
      "Application": 6927,
      "tails": 6928,
      "rength": 6929,
      "XXL": 6930,
      "robot": 6931,
      "companies": 6932,
      "display": 6933,
      "mages": 6934,
      "TCDD": 6935,
      "Tụkwasị": 6936,
      "sịa": 6937,
      "really": 6938,
      "ichepụta": 6939,
      "Hotel": 6940,
      "little": 6941,
      "consider": 6942,
      "El": 6943,
      "Lab": 6944,
      "Qing": 6945,
      "iPad": 6946,
      "school": 6947,
      "tele": 6948,
      "cutting": 6949,
      "Johns": 6950,
      "Akp": 6951,
      "Zip": 6952,
      "women": 6953,
      "metụ": 6954,
      "deposit": 6955,
      "phones": 6956,
      "anabata": 6957,
      "ategory": 6958,
      "drive": 6959,
      "Bearing": 6960,
      "Brit": 6961,
      "Rem": 6962,
      "dam": 6963,
      "mA": 6964,
      "ỤKW": 6965,
      "health": 6966,
      "kwalite": 6967,
      "enyemaka": 6968,
      "ọn": 6969,
      "sts": 6970,
      "ilities": 6971,
      "kpụrụkpụ": 6972,
      "Enter": 6973,
      "Slee": 6974,
      "ave": 6975,
      "rem": 6976,
      "radi": 6977,
      "gaon": 6978,
      "odes": 6979,
      "tickets": 6980,
      "Osisi": 6981,
      "burg": 6982,
      "sheet": 6983,
      "weebụsaịtị": 6984,
      "360": 6985,
      "CA": 6986,
      "Ebu": 6987,
      "Vess": 6988,
      "sat": 6989,
      "ert": 6990,
      "gbanwe": 6991,
      "veral": 6992,
      "vanized": 6993,
      "cuss": 6994,
      "resistance": 6995,
      "Akpụkpọ": 6996,
      "gree": 6997,
      "gold": 6998,
      "jụrụ": 6999,
      "alloy": 7000,
      "devices": 7001,
      "ida": 7002,
      "1200": 7003,
      "paint": 7004,
      "Also": 7005,
      "supply": 7006,
      "possible": 7007,
      "mpi": 7008,
      "Straightener": 7009,
      "IA": 7010,
      "JP": 7011,
      "Sex": 7012,
      "rụndụ": 7013,
      "usion": 7014,
      "program": 7015,
      "systems": 7016,
      "says": 7017,
      "Kit": 7018,
      "MY": 7019,
      "Mounta": 7020,
      "Testosterone": 7021,
      "onu": 7022,
      "ork": 7023,
      "makes": 7024,
      "security": 7025,
      "dia": 7026,
      "plant": 7027,
      "1500": 7028,
      "ives": 7029,
      "ụmụaka": 7030,
      "solar": 7031,
      "Ezigbo": 7032,
      "However": 7033,
      "Mil": 7034,
      "Sau": 7035,
      "sens": 7036,
      "203": 7037,
      "umike": 7038,
      "log": 7039,
      "Christmas": 7040,
      "clear": 7041,
      "normal": 7042,
      "improve": 7043,
      "Ass": 7044,
      "HB": 7045,
      "ikpo": 7046,
      "onụ": 7047,
      "alf": 7048,
      "meta": 7049,
      "ills": 7050,
      "gradu": 7051,
      "round": 7052,
      "hack": 7053,
      "covery": 7054,
      "output": 7055,
      "Akwa": 7056,
      "Some": 7057,
      "bia": 7058,
      "Admin": 7059,
      "partment": 7060,
      "Module": 7061,
      "ionate": 7062,
      "Sugar": 7063,
      "mepere": 7064,
      "Room": 7065,
      "Japanese": 7066,
      "Print": 7067,
      "Korea": 7068,
      "Rikoo": 7069,
      "FR": 7070,
      "Sliding": 7071,
      "fan": 7072,
      "ngwugwu": 7073,
      "una": 7074,
      "ọkara": 7075,
      "innov": 7076,
      "atra": 7077,
      "charge": 7078,
      "history": 7079,
      "Ngwaọrụ": 7080,
      "Phil": 7081,
      "Brazil": 7082,
      "ịchọta": 7083,
      "guaran": 7084,
      "Abụ": 7085,
      "Cou": 7086,
      "bers": 7087,
      "del": 7088,
      "ịkwụ": 7089,
      "injection": 7090,
      "kama": 7091,
      "gbara": 7092,
      "amụma": 7093,
      "Industry": 7094,
      "formats": 7095,
      "credit": 7096,
      "Cel": 7097,
      "Est": 7098,
      "hous": 7099,
      "edozi": 7100,
      "kpọtụrụ": 7101,
      "mmemme": 7102,
      "Categories": 7103,
      "lines": 7104,
      "magburu": 7105,
      "machin": 7106,
      "ogige": 7107,
      "10000": 7108,
      "ification": 7109,
      "gosipụta": 7110,
      "pressure": 7111,
      "Azụ": 7112,
      "EGO": 7113,
      "Vin": 7114,
      "lad": 7115,
      "mbi": 7116,
      "ngo": 7117,
      "”.": 7118,
      "continu": 7119,
      "growth": 7120,
      "\",": 7121,
      "Ant": 7122,
      "FA": 7123,
      "Ndụ": 7124,
      "Note": 7125,
      "RH": 7126,
      "cop": 7127,
      "fọrọ": 7128,
      "beghị": 7129,
      "ahaziri": 7130,
      "ịgbanwe": 7131,
      "Ak": 7132,
      "PM": 7133,
      "Rel": 7134,
      "natur": 7135,
      "iana": 7136,
      "Feed": 7137,
      "person": 7138,
      "ganihu": 7139,
      "vit": 7140,
      "eduzi": 7141,
      "Supply": 7142,
      "processing": 7143,
      "Brow": 7144,
      "SU": 7145,
      "Table": 7146,
      "corpor": 7147,
      "surface": 7148,
      "automatic": 7149,
      "Voltage": 7150,
      "cision": 7151,
      "SQL": 7152,
      "doro": 7153,
      "fabric": 7154,
      "uan": 7155,
      "become": 7156,
      "conds": 7157,
      "build": 7158,
      "aven": 7159,
      "ledge": 7160,
      "Publ": 7161,
      "Kar": 7162,
      "Other": 7163,
      "oh": 7164,
      "track": 7165,
      "100W": 7166,
      "plement": 7167,
      "echekwa": 7168,
      "industrial": 7169,
      "Packaging": 7170,
      "iwe": 7171,
      "ands": 7172,
      "platform": 7173,
      "aker": 7174,
      "anaka": 7175,
      "Afọ": 7176,
      "nkwakọ": 7177,
      "benef": 7178,
      "Education": 7179,
      "metụtara": 7180,
      "Gi": 7181,
      "Nt": 7182,
      "Tod": 7183,
      "spring": 7184,
      "another": 7185,
      "chite": 7186,
      "ising": 7187,
      "trade": 7188,
      "manụ": 7189,
      "guzo": 7190,
      "Most": 7191,
      "witter": 7192,
      "photos": 7193,
      "HA": 7194,
      "Mpe": 7195,
      "enwere": 7196,
      "androlone": 7197,
      "ghụ": 7198,
      "ahọrọ": 7199,
      "irè": 7200,
      "comments": 7201,
      "pact": 7202,
      "types": 7203,
      "Used": 7204,
      "solution": 7205,
      "language": 7206,
      "Gurgaon": 7207,
      "FE": 7208,
      "Nd": 7209,
      "cross": 7210,
      "mium": 7211,
      "ases": 7212,
      "yana": 7213,
      "exact": 7214,
      "exchange": 7215,
      "berg": 7216,
      "gosiri": 7217,
      "Italian": 7218,
      "url": 7219,
      "istics": 7220,
      "friendly": 7221,
      "Standard": 7222,
      "700": 7223,
      "Vo": 7224,
      "vor": 7225,
      "██": 7226,
      "total": 7227,
      "olf": 7228,
      "ewere": 7229,
      "docum": 7230,
      "field": 7231,
      "value": 7232,
      "nyochaa": 7233,
      "simple": 7234,
      "ghụghọ": 7235,
      "Email": 7236,
      "Job": 7237,
      "nchọ": 7238,
      "chụ": 7239,
      "children": 7240,
      "verage": 7241,
      "mụta": 7242,
      "Union": 7243,
      "%.": 7244,
      "82": 7245,
      "Cell": 7246,
      "List": 7247,
      "Ret": 7248,
      "four": 7249,
      "xury": 7250,
      "ámá": 7251,
      "eter": 7252,
      "ination": 7253,
      "Special": 7254,
      "Guide": 7255,
      "otropin": 7256,
      "Weebụsaịtị": 7257,
      "Cotton": 7258,
      "jet": 7259,
      "ájá": 7260,
      "recomm": 7261,
      "ulated": 7262,
      "Comm": 7263,
      "Vessoft": 7264,
      "Akpa": 7265,
      "PL": 7266,
      "double": 7267,
      "kil": 7268,
      "psychic": 7269,
      "zz": 7270,
      "debe": 7271,
      "Roy": 7272,
      "oyiyi": 7273,
      "Je": 7274,
      "ML": 7275,
      "Rice": 7276,
      "Rome": 7277,
      "Sha": 7278,
      "camp": 7279,
      "far": 7280,
      "erved": 7281,
      "nar": 7282,
      "arịị": 7283,
      "Official": 7284,
      "Buil": 7285,
      "Food": 7286,
      "Network": 7287,
      "wheel": 7288,
      "Rad": 7289,
      "ditional": 7290,
      "ious": 7291,
      "prom": 7292,
      "Station": 7293,
      "nchedo": 7294,
      "Step": 7295,
      "developed": 7296,
      "welcome": 7297,
      "established": 7298,
      "Decorative": 7299,
      "itar": 7300,
      "chlor": 7301,
      "adamba": 7302,
      "several": 7303,
      "opla": 7304,
      "weeks": 7305,
      "Account": 7306,
      "Kaadị": 7307,
      "Block": 7308,
      "Budd": 7309,
      "Bon": 7310,
      "Mess": 7311,
      "PU": 7312,
      "jin": 7313,
      "num": 7314,
      "ozo": 7315,
      "pump": 7316,
      "wuru": 7317,
      "stone": 7318,
      "construction": 7319,
      "rub": 7320,
      "sịrị": 7321,
      "ekpe": 7322,
      "currencies": 7323,
      "Sheet": 7324,
      "93": 7325,
      "WE": 7326,
      "asy": 7327,
      "iling": 7328,
      "tips": 7329,
      "amasị": 7330,
      "leading": 7331,
      "requirements": 7332,
      "iting": 7333,
      "adjust": 7334,
      "jiang": 7335,
      "needs": 7336,
      "73": 7337,
      "Av": 7338,
      "Nwere": 7339,
      "aj": 7340,
      "ham": 7341,
      "125": 7342,
      "erughị": 7343,
      "echekwabara": 7344,
      "Johnson": 7345,
      "DO": 7346,
      "hour": 7347,
      "rs": 7348,
      "elash": 7349,
      "njedebe": 7350,
      "desk": 7351,
      "turn": 7352,
      "rivacy": 7353,
      "question": 7354,
      "Nbudata": 7355,
      "Pass": 7356,
      "Sam": 7357,
      "lan": 7358,
      "nwunye": 7359,
      "abalị": 7360,
      "Security": 7361,
      "akpaaka": 7362,
      "Gre": 7363,
      "RF": 7364,
      "larịị": 7365,
      "sale": 7366,
      "ọhụụ": 7367,
      "ọkpụrụkpụ": 7368,
      "going": 7369,
      "option": 7370,
      "appli": 7371,
      "ntụrụndụ": 7372,
      "mark": 7373,
      "ackage": 7374,
      "human": 7375,
      "Today": 7376,
      "Ag": 7377,
      "Ohere": 7378,
      "ises": 7379,
      "Stor": 7380,
      "discuss": 7381,
      "atible": 7382,
      "driver": 7383,
      "71": 7384,
      "Test": 7385,
      "fire": 7386,
      "mming": 7387,
      "emeghe": 7388,
      "ivity": 7389,
      "floor": 7390,
      "members": 7391,
      "egbochi": 7392,
      "mu": 7393,
      "ntu": 7394,
      "safe": 7395,
      "imi": 7396,
      "agbalị": 7397,
      "Mpempe": 7398,
      "CT": 7399,
      "Hun": 7400,
      "categories": 7401,
      "rome": 7402,
      "includes": 7403,
      "Institute": 7404,
      "irls": 7405,
      "Laser": 7406,
      "GS": 7407,
      "Nye": 7408,
      "ecut": 7409,
      "ịrụ": 7410,
      "nap": 7411,
      "rele": 7412,
      "ogra": 7413,
      "Systems": 7414,
      "efficiency": 7415,
      "DH": 7416,
      "Flu": 7417,
      "Since": 7418,
      "nchọpụta": 7419,
      "֤ȯ": 7420,
      "ịwụ": 7421,
      "ịhịa": 7422,
      "thyl": 7423,
      "higher": 7424,
      "ezumike": 7425,
      "mkpọchi": 7426,
      "NY": 7427,
      "ịnya": 7428,
      "lecular": 7429,
      "reme": 7430,
      "above": 7431,
      "mgbidi": 7432,
      "ndụmọdụ": 7433,
      "nance": 7434,
      "built": 7435,
      ");": 7436,
      "Fu": 7437,
      "Gate": 7438,
      "Hard": 7439,
      "NT": 7440,
      "Para": 7441,
      "ugu": 7442,
      "nju": 7443,
      "clos": 7444,
      "projects": 7445,
      "ville": 7446,
      "LI": 7447,
      "cab": 7448,
      "ịnweta": 7449,
      "ụl": 7450,
      "ano": 7451,
      "adaba": 7452,
      "kọnd": 7453,
      "ift": 7454,
      "CAS": 7455,
      "Cross": 7456,
      "Pack": 7457,
      "TM": 7458,
      "hat": 7459,
      "leg": 7460,
      "rude": 7461,
      "lighting": 7462,
      "Instagram": 7463,
      "Nlekọta": 7464,
      "3000": 7465,
      "Por": 7466,
      "uo": 7467,
      "ghach": 7468,
      "qual": 7469,
      "phy": 7470,
      "nkesa": 7471,
      "parent": 7472,
      "swit": 7473,
      "ọhịa": 7474,
      "urịta": 7475,
      "Production": 7476,
      "bute": 7477,
      "ava": 7478,
      "ncheta": 7479,
      "Mini": 7480,
      "atrader": 7481,
      "DN": 7482,
      "Iju": 7483,
      "Ngwọta": 7484,
      "Self": 7485,
      "suitable": 7486,
      "something": 7487,
      "Nwa": 7488,
      "Rub": 7489,
      "ezo": 7490,
      "Cool": 7491,
      "Ndepụta": 7492,
      "Hi": 7493,
      "achịkwa": 7494,
      "nlereanya": 7495,
      "ani": 7496,
      "stain": 7497,
      "started": 7498,
      "against": 7499,
      "Chemical": 7500,
      "Acetate": 7501,
      "protect": 7502,
      "others": 7503,
      "Fiber": 7504,
      "Blog": 7505,
      "voltaji": 7506,
      ".\"": 7507,
      "gon": 7508,
      "ịsa": 7509,
      "itive": 7510,
      "tains": 7511,
      "ither": 7512,
      "nwaanyị": 7513,
      "History": 7514,
      "esonụ": 7515,
      "multiple": 7516,
      "ggest": 7517,
      "apụ": 7518,
      "uba": 7519,
      "alaxy": 7520,
      "Metatrader": 7521,
      "ference": 7522,
      "automat": 7523,
      "printing": 7524,
      "83": 7525,
      "Pri": 7526,
      "away": 7527,
      "doll": 7528,
      "release": 7529,
      "sekọnd": 7530,
      "unit": 7531,
      "Inc": 7532,
      "Make": 7533,
      "intro": 7534,
      "step": 7535,
      "sco": 7536,
      "atrain": 7537,
      "ronics": 7538,
      "cryst": 7539,
      "PER": 7540,
      "global": 7541,
      "ikere": 7542,
      "gụkọta": 7543,
      "IP65": 7544,
      "welding": 7545,
      "receive": 7546,
      "Lim": 7547,
      "Nku": 7548,
      "Page": 7549,
      "Coil": 7550,
      "ront": 7551,
      "ski": 7552,
      "nzọụkwụ": 7553,
      "saveatrain": 7554,
      "original": 7555,
      "HH": 7556,
      "KE": 7557,
      "drop": 7558,
      "active": 7559,
      "Flood": 7560,
      "Fra": 7561,
      "GMP": 7562,
      "Games": 7563,
      "Lear": 7564,
      "uhie": 7565,
      "reach": 7566,
      "hicha": 7567,
      "Feeder": 7568,
      "ISO9001": 7569,
      "widely": 7570,
      "atory": 7571,
      "olding": 7572,
      "coming": 7573,
      "dian": 7574,
      "apy": 7575,
      "mmezi": 7576,
      "ọnụego": 7577,
      "Conne": 7578,
      "Tech": 7579,
      "Cloud": 7580,
      "Brand": 7581,
      "CBD": 7582,
      "SO": 7583,
      "chol": 7584,
      "lexi": 7585,
      "ulu": 7586,
      "Refriger": 7587,
      "family": 7588,
      "SMS": 7589,
      "Tian": 7590,
      "apụta": 7591,
      "240": 7592,
      "karịsịa": 7593,
      ",”": 7594,
      "LD": 7595,
      "Night": 7596,
      "bing": 7597,
      "song": 7598,
      "promot": 7599,
      "dobe": 7600,
      "compet": 7601,
      "njikere": 7602,
      "downloads": 7603,
      "ọkà": 7604,
      "connect": 7605,
      "Bour": 7606,
      "DE": 7607,
      "Oghere": 7608,
      "Tips": 7609,
      "image": 7610,
      "Ọdụ": 7611,
      "along": 7612,
      "lege": 7613,
      "taking": 7614,
      "iki": 7615,
      "Gh": 7616,
      "Sports": 7617,
      "euro": 7618,
      "androgen": 7619,
      "ford": 7620,
      "amin": 7621,
      "Head": 7622,
      "Rikoooo": 7623,
      "End": 7624,
      "FL": 7625,
      "Great": 7626,
      "York": 7627,
      "atab": 7628,
      "labor": 7629,
      "nway": 7630,
      "chen": 7631,
      "cycl": 7632,
      "medical": 7633,
      "multimedia": 7634,
      "Nkọwapụta": 7635,
      "stu": 7636,
      "report": 7637,
      "cook": 7638,
      "obilet": 7639,
      "sociation": 7640,
      "aviobilet": 7641,
      "DR": 7642,
      "Ly": 7643,
      "ively": 7644,
      "sand": 7645,
      "machines": 7646,
      "hib": 7647,
      "Ext": 7648,
      "why": 7649,
      "crusher": 7650,
      "Agụ": 7651,
      "Large": 7652,
      "Mill": 7653,
      "cure": 7654,
      "ịkpụ": 7655,
      "nwetara": 7656,
      "related": 7657,
      "Arab": 7658,
      "230": 7659,
      "AW": 7660,
      "CF": 7661,
      "Found": 7662,
      "Gbas": 7663,
      "emekarị": 7664,
      "okoro": 7665,
      "portun": 7666,
      "ntụziaka": 7667,
      "addition": 7668,
      "Plan": 7669,
      "Belg": 7670,
      "Sweden": 7671,
      "81": 7672,
      "Double": 7673,
      "Op": 7674,
      "Sing": 7675,
      "Tour": 7676,
      "cities": 7677,
      "Ụgwọ": 7678,
      "begin": 7679,
      "comfor": 7680,
      "feed": 7681,
      "charact": 7682,
      "battery": 7683,
      "Whiteboard": 7684,
      "Tattoo": 7685,
      "Akụkọ": 7686,
      "Central": 7687,
      "football": 7688,
      "Rubber": 7689,
      "Malite": 7690,
      "Tele": 7691,
      "umu": 7692,
      "ific": 7693,
      "ensure": 7694,
      "Specif": 7695,
      "Manufacturers": 7696,
      "Skype": 7697,
      "Kraist": 7698,
      "ịrịba": 7699,
      "mbanye": 7700,
      "nary": 7701,
      "ought": 7702,
      "conven": 7703,
      "dao": 7704,
      "nchọgharị": 7705,
      "copy": 7706,
      "nka": 7707,
      "wer": 7708,
      "strength": 7709,
      "icine": 7710,
      "Class": 7711,
      "virtual": 7712,
      "components": 7713,
      "IZ": 7714,
      "dated": 7715,
      "ịdabere": 7716,
      "ching": 7717,
      "mass": 7718,
      "pee": 7719,
      "alls": 7720,
      "Solutions": 7721,
      "inancial": 7722,
      "HI": 7723,
      "fund": 7724,
      "har": 7725,
      "Ọkwọ": 7726,
      "tified": 7727,
      "exam": 7728,
      "percent": 7729,
      "ensions": 7730,
      "ntaktị": 7731,
      "BM": 7732,
      "Care": 7733,
      "Nhọrọ": 7734,
      "fut": 7735,
      "js": 7736,
      "Ọchị": 7737,
      "dex": 7738,
      "emetụta": 7739,
      "Basel": 7740,
      "Date": 7741,
      "Ken": 7742,
      "inweta": 7743,
      "amber": 7744,
      "Ir": 7745,
      "Whi": 7746,
      "dy": 7747,
      "forex": 7748,
      "ides": 7749,
      "transposh": 7750,
      "tificate": 7751,
      "Taa": 7752,
      "JPY": 7753,
      "BO": 7754,
      "Cal": 7755,
      "Win": 7756,
      "ịma": 7757,
      "140": 7758,
      "hell": 7759,
      "Gbasara": 7760,
      "Ọhụrụ": 7761,
      "asing": 7762,
      "fair": 7763,
      "2007": 7764,
      "sterdam": 7765,
      "interior": 7766,
      "dise": 7767,
      "agụụ": 7768,
      "testing": 7769,
      "windo": 7770,
      "vinrude": 7771,
      "ejegharị": 7772,
      "Pan": 7773,
      "ugwo": 7774,
      "ọbịa": 7775,
      "coins": 7776,
      "social": 7777,
      "instit": 7778,
      "Cut": 7779,
      "Gr": 7780,
      "Middle": 7781,
      "Search": 7782,
      "ources": 7783,
      "crete": 7784,
      "ived": 7785,
      "ALL": 7786,
      "district": 7787,
      "Transportation": 7788,
      "stainless": 7789,
      "350": 7790,
      "Every": 7791,
      "Galaxy": 7792,
      "length": 7793,
      "Ọnọdụ": 7794,
      "abi": 7795,
      "mmụọ": 7796,
      "elee": 7797,
      "mbadamba": 7798,
      "produce": 7799,
      "depend": 7800,
      "Direct": 7801,
      "Fire": 7802,
      "SK": 7803,
      "kpọrọ": 7804,
      "ads": 7805,
      "byg": 7806,
      "rule": 7807,
      "agụmakwụkwọ": 7808,
      "embly": 7809,
      "oriọna": 7810,
      "Qingdao": 7811,
      "**": 7812,
      "Just": 7813,
      "Oil": 7814,
      "cash": 7815,
      "ctable": 7816,
      "izi": 7817,
      "”,": 7818,
      "thickness": 7819,
      "ention": 7820,
      "amị": 7821,
      "vern": 7822,
      "nific": 7823,
      "lets": 7824,
      "Mr": 7825,
      "Pod": 7826,
      "TE": 7827,
      "Ten": 7828,
      "wi": 7829,
      "ranty": 7830,
      "versities": 7831,
      "Transposh": 7832,
      "easily": 7833,
      "protein": 7834,
      "Manager": 7835,
      "ịmepụta": 7836,
      "Aluminom": 7837,
      "ever": 7838,
      "taur": 7839,
      "separ": 7840,
      "dose": 7841,
      "Services": 7842,
      "required": 7843,
      "Korean": 7844,
      "largest": 7845,
      "Nigeria": 7846,
      "BA": 7847,
      "Evinrude": 7848,
      "gla": 7849,
      "uzu": 7850,
      "ìgwè": 7851,
      "dee": 7852,
      "aff": 7853,
      "Device": 7854,
      "Author": 7855,
      "players": 7856,
      "Research": 7857,
      "Foto": 7858,
      "Onyinye": 7859,
      "Personal": 7860,
      "Bourgas": 7861,
      "Lamp": 7862,
      "Lelee": 7863,
      "Mos": 7864,
      "achie": 7865,
      "wing": 7866,
      "watch": 7867,
      "alline": 7868,
      "Province": 7869,
      "168": 7870,
      "office": 7871,
      "csgo": 7872,
      "cup": 7873,
      "dr": 7874,
      "mi": 7875,
      "ịza": 7876,
      "atụle": 7877,
      "spir": 7878,
      "Team": 7879,
      "modern": 7880,
      "aircraft": 7881,
      "flow": 7882,
      "estern": 7883,
      "Genotropin": 7884,
      "natural": 7885,
      "1X": 7886,
      "Easy": 7887,
      "Lit": 7888,
      "WA": 7889,
      "iba": 7890,
      "stream": 7891,
      "icles": 7892,
      "mepụta": 7893,
      "andong": 7894,
      "mmekọahụ": 7895,
      "blu": 7896,
      "ngw": 7897,
      "tọrọ": 7898,
      "xx": 7899,
      "adabere": 7900,
      "consum": 7901,
      "ikikere": 7902,
      "Nether": 7903,
      "Ntuziaka": 7904,
      "Bal": 7905,
      "Ener": 7906,
      "Fix": 7907,
      "Nọ": 7908,
      "PT": 7909,
      "Uhie": 7910,
      "ogwe": 7911,
      "var": 7912,
      "thank": 7913,
      "kọntaktị": 7914,
      "compound": 7915,
      "njiri": 7916,
      "nkwe": 7917,
      "Cast": 7918,
      "Nka": 7919,
      "Opt": 7920,
      "Pop": 7921,
      "bill": 7922,
      "econom": 7923,
      "sal": 7924,
      "ịchọrọ": 7925,
      "megide": 7926,
      "ashi": 7927,
      "ahịhịa": 7928,
      "opportun": 7929,
      "due": 7930,
      "Austria": 7931,
      "increase": 7932,
      "fog": 7933,
      "vac": 7934,
      "already": 7935,
      "Advan": 7936,
      "ACK": 7937,
      "education": 7938,
      "Christian": 7939,
      "Molecular": 7940,
      "nlekọta": 7941,
      "Storage": 7942,
      "Link": 7943,
      "Ogwe": 7944,
      "kers": 7945,
      "pages": 7946,
      "sent": 7947,
      "assi": 7948,
      "estic": 7949,
      "Gaa": 7950,
      "mbukota": 7951,
      "given": 7952,
      "Accessories": 7953,
      "Archives": 7954,
      "Jan": 7955,
      "pọ": 7956,
      "ịntanetị": 7957,
      "andụl": 7958,
      "pecial": 7959,
      "ems": 7960,
      "Interior": 7961,
      "engineering": 7962,
      "Certification": 7963,
      "Clear": 7964,
      "Mbupu": 7965,
      "450": 7966,
      "Ear": 7967,
      "Ibu": 7968,
      "Iwu": 7969,
      "nha": 7970,
      "safety": 7971,
      "ange": 7972,
      "mel": 7973,
      "desti": 7974,
      "bling": 7975,
      "Why": 7976,
      "belt": 7977,
      "ibudata": 7978,
      "ENT": 7979,
      "delivery": 7980,
      "Category": 7981,
      "Langu": 7982,
      "Tor": 7983,
      "shipping": 7984,
      "tum": 7985,
      "ues": 7986,
      "gaz": 7987,
      "analysis": 7988,
      "daily": 7989,
      "bọl": 7990,
      "Mmadụ": 7991,
      "Music": 7992,
      "pract": 7993,
      "1st": 7994,
      "FT": 7995,
      "Nkwa": 7996,
      "rect": 7997,
      "lock": 7998,
      "cog": 7999,
      "osph": 8000,
      "clean": 8001,
      "!!!": 8002,
      "Eji": 8003,
      "especial": 8004,
      "operating": 8005,
      "Electronic": 8006,
      "Amsterdam": 8007,
      "rosion": 8008,
      "Wireless": 8009,
      "Netherlands": 8010,
      "Fin": 8011,
      "Tren": 8012,
      "sius": 8013,
      "zọs": 8014,
      "chịkọta": 8015,
      "Jizọs": 8016,
      "general": 8017,
      "Railway": 8018,
      "Energy": 8019,
      "Baby": 8020,
      "Twitter": 8021,
      "action": 8022,
      "aghụghọ": 8023,
      "nga": 8024,
      "heart": 8025,
      "seconds": 8026,
      "Start": 8027,
      "zụta": 8028,
      "Express": 8029,
      "ọdịdị": 8030,
      "Mayor": 8031,
      "distribut": 8032,
      "Clean": 8033,
      "Ven": 8034,
      "equip": 8035,
      "ịd": 8036,
      "inos": 8037,
      "enụ": 8038,
      "amond": 8039,
      "gaghị": 8040,
      "iday": 8041,
      "agafe": 8042,
      "Armat": 8043,
      "register": 8044,
      "Daalụ": 8045,
      "ospital": 8046,
      "eb": 8047,
      "vs": 8048,
      "oter": 8049,
      "puku": 8050,
      "party": 8051,
      "bolone": 8052,
      "especially": 8053,
      "Prom": 8054,
      "Ugwu": 8055,
      "fat": 8056,
      "kandụl": 8057,
      "tar": 8058,
      "once": 8059,
      "deal": 8060,
      "tile": 8061,
      "gịga": 8062,
      "Ther": 8063,
      "official": 8064,
      "akpaghị": 8065,
      "connection": 8066,
      "0mm": 8067,
      "380": 8068,
      "Hon": 8069,
      "Powder": 8070,
      "VAC": 8071,
      "either": 8072,
      "half": 8073,
      "ogwu": 8074,
      "atta": 8075,
      "street": 8076,
      "mechan": 8077,
      "okiri": 8078,
      "kpụkpụ": 8079,
      "Ngwongwo": 8080,
      "Okpomọkụ": 8081,
      "town": 8082,
      "District": 8083,
      "crystalline": 8084,
      "bygden": 8085,
      "tit": 8086,
      "ọka": 8087,
      "eti": 8088,
      "ache": 8089,
      "inated": 8090,
      "nleta": 8091,
      "Bot": 8092,
      "Bang": 8093,
      "Hat": 8094,
      "mation": 8095,
      "vidio": 8096,
      "nanth": 8097,
      "region": 8098,
      "MT4": 8099,
      "circuit": 8100,
      "Mkpa": 8101,
      "tre": 8102,
      "vy": 8103,
      "gbè": 8104,
      "gbụ": 8105,
      "ola": 8106,
      "extra": 8107,
      "ahụike": 8108,
      "Shandong": 8109,
      "announ": 8110,
      "Tools": 8111,
      "humid": 8112,
      "GR": 8113,
      "Py": 8114,
      "Rider": 8115,
      "Select": 8116,
      "pati": 8117,
      "nihu": 8118,
      "plane": 8119,
      "certain": 8120,
      "individ": 8121,
      "Celsius": 8122,
      "IHE": 8123,
      "Shipping": 8124,
      "ming": 8125,
      "might": 8126,
      "nsọ": 8127,
      "never": 8128,
      "cancer": 8129,
      "crew": 8130,
      "machining": 8131,
      "Sat": 8132,
      "though": 8133,
      "wear": 8134,
      "usually": 8135,
      "teach": 8136,
      "contains": 8137,
      "nia": 8138,
      "Check": 8139,
      "standing": 8140,
      "Hydraulic": 8141,
      "Protection": 8142,
      "President": 8143,
      "Lord": 8144,
      "rubber": 8145,
      "Belgium": 8146,
      "Down": 8147,
      "cul": 8148,
      "nations": 8149,
      "degree": 8150,
      "tụnyere": 8151,
      "irth": 8152,
      "location": 8153,
      "comb": 8154,
      "fault": 8155,
      "lub": 8156,
      "often": 8157,
      "Comput": 8158,
      "Christams": 8159,
      "problem": 8160,
      "Mountains": 8161,
      "0st": 8162,
      "GA": 8163,
      "Om": 8164,
      "cil": 8165,
      "fre": 8166,
      "hon": 8167,
      "android": 8168,
      "Gh0st": 8169,
      "Ọchịchị": 8170,
      "nanthate": 8171,
      "Uru": 8172,
      "ship": 8173,
      "force": 8174,
      "profaịlụ": 8175,
      "nyo": 8176,
      "izute": 8177,
      "formed": 8178,
      "methyl": 8179,
      "Njikọ": 8180,
      "latest": 8181,
      "Big": 8182,
      "Slo": 8183,
      "Toro": 8184,
      "Vac": 8185,
      "Zhe": 8186,
      "eweta": 8187,
      "litere": 8188,
      "tw": 8189,
      "yelash": 8190,
      "ania": 8191,
      "chukwu": 8192,
      "feature": 8193,
      "304": 8194,
      "places": 8195,
      "transfer": 8196,
      "atured": 8197,
      "Azure": 8198,
      "MYHH": 8199,
      "Fac": 8200,
      "cked": 8201,
      "frequ": 8202,
      "lm": 8203,
      "rd": 8204,
      "space": 8205,
      "learn": 8206,
      "words": 8207,
      "past": 8208,
      "plic": 8209,
      "mbupu": 8210,
      "Drive": 8211,
      "Social": 8212,
      "points": 8213,
      "Suppliers": 8214,
      "Marketing": 8215,
      "Ball": 8216,
      "DS": 8217,
      "Near": 8218,
      "ky": 8219,
      "meri": 8220,
      "ening": 8221,
      "kwun": 8222,
      "google": 8223,
      "bug": 8224,
      "stead": 8225,
      "central": 8226,
      "directly": 8227,
      "BỤ": 8228,
      "Mer": 8229,
      "Mart": 8230,
      "Ome": 8231,
      "Rot": 8232,
      "jour": 8233,
      "ụgharị": 8234,
      "iso": 8235,
      "Bohem": 8236,
      "vision": 8237,
      "EST": 8238,
      "Media": 8239,
      "polyester": 8240,
      "Berlin": 8241,
      "Armati": 8242,
      "okirikiri": 8243,
      "Gree": 8244,
      "Hub": 8245,
      "Law": 8246,
      "Sto": 8247,
      "[…]": 8248,
      "cla": 8249,
      "Ọzụzụ": 8250,
      "ọd": 8251,
      "Then": 8252,
      "apore": 8253,
      "mmable": 8254,
      "akpata": 8255,
      "Isra": 8256,
      "Battery": 8257,
      "Fur": 8258,
      "Nandrolone": 8259,
      "job": 8260,
      "held": 8261,
      "ask": 8262,
      "uss": 8263,
      "otes": 8264,
      "opt": 8265,
      "liquid": 8266,
      "produced": 8267,
      "ushing": 8268,
      "width": 8269,
      "Akụkụ": 8270,
      "Aluminium": 8271,
      "BE": 8272,
      "Bre": 8273,
      "HC": 8274,
      "Sal": 8275,
      "pc": 8276,
      "pha": 8277,
      "christ": 8278,
      "owu": 8279,
      "phys": 8280,
      "Love": 8281,
      "diameter": 8282,
      "njirimara": 8283,
      "individual": 8284,
      "Ham": 8285,
      "Pie": 8286,
      "lower": 8287,
      "aria": 8288,
      "stay": 8289,
      "icular": 8290,
      "phr": 8291,
      "2006": 8292,
      "again": 8293,
      "filter": 8294,
      "tattoos": 8295,
      "inance": 8296,
      "agbanyeghị": 8297,
      "Nsogbu": 8298,
      "Grey": 8299,
      "AV": 8300,
      "BI": 8301,
      "Ugboro": 8302,
      "bid": 8303,
      "dry": 8304,
      "mwe": 8305,
      "heel": 8306,
      "loye": 8307,
      "lythe": 8308,
      "vigation": 8309,
      "mberede": 8310,
      "Ntugharị": 8311,
      "Director": 8312,
      "scient": 8313,
      "Singapore": 8314,
      "asambodo": 8315,
      "hibit": 8316,
      "accept": 8317,
      "heng": 8318,
      "OFF": 8319,
      "translation": 8320,
      "Commun": 8321,
      "nkwekọrịta": 8322,
      "Pur": 8323,
      "bes": 8324,
      "itary": 8325,
      "thy": 8326,
      "beribe": 8327,
      "solutions": 8328,
      "functional": 8329,
      "niture": 8330,
      "kinds": 8331,
      "CPA": 8332,
      "Mot": 8333,
      "cit": 8334,
      "ised": 8335,
      "logo": 8336,
      "oph": 8337,
      "until": 8338,
      "ntụgharị": 8339,
      "ntụpọ": 8340,
      "icker": 8341,
      "pressor": 8342,
      "Clash": 8343,
      "ODM": 8344,
      "Magnetic": 8345,
      "udies": 8346,
      "Human": 8347,
      "Rider203": 8348,
      "Gh0stRider203": 8349,
      "Call": 8350,
      "Njiri": 8351,
      "Nchọpụta": 8352,
      "West": 8353,
      "eyi": 8354,
      "anim": 8355,
      "kemgbe": 8356,
      "station": 8357,
      "12V": 8358,
      "achara": 8359,
      "365": 8360,
      "Terms": 8361,
      "chloride": 8362,
      "zmir": 8363,
      "jide": 8364,
      "having": 8365,
      "Children": 8366,
      "sets": 8367,
      "Ee": 8368,
      "Es": 8369,
      "Yellow": 8370,
      "oxygen": 8371,
      "source": 8372,
      "input": 8373,
      "veh": 8374,
      "Track": 8375,
      "shot": 8376,
      "pool": 8377,
      "activities": 8378,
      "inyom": 8379,
      "Coun": 8380,
      "VER": 8381,
      "fish": 8382,
      "ịsị": 8383,
      "ndo": 8384,
      "tenance": 8385,
      "nọgide": 8386,
      "clus": 8387,
      "ANG": 8388,
      "Install": 8389,
      "ịhụnanya": 8390,
      "elligent": 8391,
      "stock": 8392,
      "Sauna": 8393,
      "atabase": 8394,
      "vernment": 8395,
      "Blythe": 8396,
      "Ekpuchi": 8397,
      "FC": 8398,
      "Gam": 8399,
      "Gbal": 8400,
      "PET": 8401,
      "gor": 8402,
      "enke": 8403,
      "mkpebi": 8404,
      "arịta": 8405,
      "Spir": 8406,
      "choice": 8407,
      "mpịa": 8408,
      "trip": 8409,
      "OKPO": 8410,
      "Crystal": 8411,
      "Israel": 8412,
      "AK": 8413,
      "Bill": 8414,
      "Doll": 8415,
      "Old": 8416,
      "Oxygen": 8417,
      "SR": 8418,
      "UP": 8419,
      "packaging": 8420,
      "star": 8421,
      "touch": 8422,
      "ilar": 8423,
      "emer": 8424,
      "necess": 8425,
      "host": 8426,
      "Department": 8427,
      "Plant": 8428,
      "Hotels": 8429,
      "generator": 8430,
      "Outdoor": 8431,
      "Fitness": 8432,
      "events": 8433,
      "mị": 8434,
      "ọganihu": 8435,
      "Ụf": 8436,
      "contin": 8437,
      "request": 8438,
      "mainly": 8439,
      "capital": 8440,
      "Holmbygden": 8441,
      "clients": 8442,
      "bathroom": 8443,
      "Akara": 8444,
      "CIS": 8445,
      "Emer": 8446,
      "QC": 8447,
      "ngụkọta": 8448,
      "rends": 8449,
      "tax": 8450,
      "nyl": 8451,
      "Working": 8452,
      "pression": 8453,
      "ourses": 8454,
      "bonuses": 8455,
      "guzobere": 8456,
      "lamode": 8457,
      "hatrends": 8458,
      "Zhejiang": 8459,
      "Rental": 8460,
      "front": 8461,
      "gọ": 8462,
      "tocol": 8463,
      "istry": 8464,
      "192": 8465,
      "kuki": 8466,
      "signific": 8467,
      "activity": 8468,
      "Current": 8469,
      "Crypto": 8470,
      "transportation": 8471,
      "Public": 8472,
      "ruleti": 8473,
      "glaasi": 8474,
      "115": 8475,
      "Sand": 8476,
      "uma": 8477,
      "ụbụrụ": 8478,
      "roba": 8479,
      "rich": 8480,
      "0086": 8481,
      "doors": 8482,
      "nkenke": 8483,
      "prepar": 8484,
      "ụfụ": 8485,
      "Small": 8486,
      "EURUSD": 8487,
      "gbụgba": 8488,
      "Gbalịa": 8489,
      "316": 8490,
      "5000": 8491,
      "Cli": 8492,
      "Dem": 8493,
      "Screen": 8494,
      "azu": 8495,
      "aster": 8496,
      "cand": 8497,
      "initi": 8498,
      "least": 8499,
      "rill": 8500,
      "config": 8501,
      "traditional": 8502,
      "pharma": 8503,
      "njọ": 8504,
      "guitar": 8505,
      "betting": 8506,
      "shopping": 8507,
      "lexible": 8508,
      "Njirimara": 8509,
      "BL": 8510,
      "Dra": 8511,
      "Ikpe": 8512,
      "Pvc": 8513,
      "Sum": 8514,
      "iPod": 8515,
      "nkụ": 8516,
      "etị": 8517,
      "123": 8518,
      "Cook": 8519,
      "corrosion": 8520,
      "amaghị": 8521,
      "RoHS": 8522,
      "Steam": 8523,
      "Corpor": 8524,
      "done": 8525,
      "staff": 8526,
      "ison": 8527,
      "gwara": 8528,
      "dec": 8529,
      "pose": 8530,
      "prevent": 8531,
      "ITE": 8532,
      "rights": 8533,
      "According": 8534,
      "Kacha": 8535,
      "Need": 8536,
      "DI": 8537,
      "cards": 8538,
      "ube": 8539,
      "natara": 8540,
      "ining": 8541,
      "info": 8542,
      "reas": 8543,
      "amine": 8544,
      "Maxi": 8545,
      "particip": 8546,
      "period": 8547,
      "Chọọchị": 8548,
      "nwayọọ": 8549,
      "Hen": 8550,
      "almost": 8551,
      "tox": 8552,
      "oputa": 8553,
      "coc": 8554,
      "izes": 8555,
      "See": 8556,
      "friends": 8557,
      "College": 8558,
      "odude": 8559,
      "everything": 8560,
      "knowledge": 8561,
      "magnetic": 8562,
      "roofing": 8563,
      "exported": 8564,
      "Rap": 8565,
      "Ulo": 8566,
      "sing": 8567,
      "tric": 8568,
      "ọgbụgba": 8569,
      "ami": 8570,
      "commercial": 8571,
      "mgbatị": 8572,
      "Unlimited": 8573,
      "instal": 8574,
      "nsụgharị": 8575,
      "galvanized": 8576,
      "Rights": 8577,
      "Misslamode": 8578,
      "Gba": 8579,
      "Garden": 8580,
      "Natur": 8581,
      "bad": 8582,
      "scri": 8583,
      "tes": 8584,
      "vic": 8585,
      "ejikọta": 8586,
      "Comment": 8587,
      "whole": 8588,
      "Policy": 8589,
      "cryptocurrencies": 8590,
      "nkuzi": 8591,
      "%,": 8592,
      "BTS": 8593,
      "Ngal": 8594,
      "RS": 8595,
      "Tot": 8596,
      "gl": 8597,
      "sam": 8598,
      "ahu": 8599,
      "50W": 8600,
      "Trade": 8601,
      "monitor": 8602,
      "ITS": 8603,
      "Features": 8604,
      "CHF": 8605,
      "nrụọrụ": 8606,
      "dosage": 8607,
      "Ngalaba": 8608,
      "Sist": 8609,
      "agịga": 8610,
      "ebute": 8611,
      "send": 8612,
      "alog": 8613,
      "thous": 8614,
      "ndọrọ": 8615,
      "ọdịnihu": 8616,
      "purchase": 8617,
      "Don": 8618,
      "Length": 8619,
      "Watch": 8620,
      "agwụ": 8621,
      "aghọ": 8622,
      "bike": 8623,
      "bay": 8624,
      "iate": 8625,
      "slee": 8626,
      "sopla": 8627,
      "itch": 8628,
      "utical": 8629,
      "areas": 8630,
      "yourself": 8631,
      "Mgbanwe": 8632,
      "problems": 8633,
      "NDỊ": 8634,
      "estival": 8635,
      "soplaya": 8636,
      "($": 8637,
      "CGMP": 8638,
      "akọwa": 8639,
      "iberibe": 8640,
      "jackp": 8641,
      "ably": 8642,
      "util": 8643,
      "ememe": 8644,
      "Decoiler": 8645,
      "Audio": 8646,
      "added": 8647,
      "provided": 8648,
      "Camera": 8649,
      "AKW": 8650,
      "BR": 8651,
      "Pra": 8652,
      "Ukwu": 8653,
      "nte": 8654,
      "obu": 8655,
      "mejupụtara": 8656,
      "ghasa": 8657,
      "defin": 8658,
      "Stu": 8659,
      "mbara": 8660,
      "getting": 8661,
      "modified": 8662,
      "additional": 8663,
      "questions": 8664,
      "Malay": 8665,
      "Dav": 8666,
      "vas": 8667,
      "ouch": 8668,
      "adult": 8669,
      "lif": 8670,
      "lik": 8671,
      "convert": 8672,
      "ultural": 8673,
      "collect": 8674,
      "skin": 8675,
      "powerful": 8676,
      "storage": 8677,
      "Njikwa": 8678,
      "communication": 8679,
      "campus": 8680,
      "ghachite": 8681,
      ",,": 8682,
      "A3": 8683,
      "HZ": 8684,
      "Hang": 8685,
      "Happ": 8686,
      "achi": 8687,
      "nice": 8688,
      "rating": 8689,
      "ọdọ": 8690,
      "replace": 8691,
      "etu": 8692,
      "amic": 8693,
      "une": 8694,
      "Chamber": 8695,
      "24V": 8696,
      "Association": 8697,
      "Mmetụta": 8698,
      "grees": 8699,
      "ohuru": 8700,
      "Cop": 8701,
      "Iburu": 8702,
      "JS": 8703,
      "Java": 8704,
      "Lic": 8705,
      "Mad": 8706,
      "Ty": 8707,
      "fine": 8708,
      "kat": 8709,
      "alter": 8710,
      "album": 8711,
      "urugwu": 8712,
      "nyịnya": 8713,
      "electro": 8714,
      "Carbon": 8715,
      "Organ": 8716,
      "founded": 8717,
      "ỤKWỌ": 8718,
      "Ebube": 8719,
      "ajị": 8720,
      "Kasị": 8721,
      "Sample": 8722,
      "Square": 8723,
      "five": 8724,
      "oy": 8725,
      "Ọmụ": 8726,
      "tai": 8727,
      "details": 8728,
      "001": 8729,
      "Infrared": 8730,
      "Defog": 8731,
      "mining": 8732,
      "karama": 8733,
      "supports": 8734,
      "efficient": 8735,
      "Portable": 8736,
      "Computer": 8737,
      "Base": 8738,
      "Gas": 8739,
      "KG": 8740,
      "Nchịkọta": 8741,
      "Ray": 8742,
      "T5": 8743,
      "cc": 8744,
      "echi": 8745,
      "ógbè": 8746,
      "anna": 8747,
      "arri": 8748,
      "itors": 8749,
      "kpatara": 8750,
      "bags": 8751,
      "trac": 8752,
      "isii": 8753,
      "shower": 8754,
      "Vienna": 8755,
      "accessories": 8756,
      "languages": 8757,
      "bumn": 8758,
      "WiFi": 8759,
      "Ọdụdọ": 8760,
      "Western": 8761,
      "wine": 8762,
      "inside": 8763,
      "pụga": 8764,
      "odi": 8765,
      "ellite": 8766,
      "avy": 8767,
      "Quick": 8768,
      "thereum": 8769,
      "Take": 8770,
      "patent": 8771,
      "pairs": 8772,
      "maximum": 8773,
      "Engineering": 8774,
      "graduate": 8775,
      "Nkwakọ": 8776,
      "Agha": 8777,
      "Bor": 8778,
      "Fashion": 8779,
      "Iron": 8780,
      "Ju": 8781,
      "ME": 8782,
      "Pos": 8783,
      "Rou": 8784,
      "fị": 8785,
      "nne": 8786,
      "wọ": 8787,
      "oral": 8788,
      "seal": 8789,
      "Alloy": 8790,
      "juju": 8791,
      "AUD": 8792,
      "installed": 8793,
      "GD": 8794,
      "Jer": 8795,
      "dete": 8796,
      "mom": 8797,
      "nza": 8798,
      "enone": 8799,
      "label": 8800,
      "mata": 8801,
      "ideal": 8802,
      "coun": 8803,
      "gets": 8804,
      "mesh": 8805,
      "classic": 8806,
      "ugboelu": 8807,
      "kwunyere": 8808,
      "Cir": 8809,
      "Id": 8810,
      "Nzọ": 8811,
      "achị": 8812,
      "hang": 8813,
      "sistem": 8814,
      "quart": 8815,
      "osise": 8816,
      "angle": 8817,
      "Cond": 8818,
      "kuku": 8819,
      "customized": 8820,
      "rolling": 8821,
      "variety": 8822,
      "condition": 8823,
      "Paul": 8824,
      "Survey": 8825,
      "Omenala": 8826,
      "Cali": 8827,
      "Follow": 8828,
      "YO": 8829,
      "uk": 8830,
      "uum": 8831,
      "kwá": 8832,
      "aso": 8833,
      "degrees": 8834,
      "elekwasị": 8835,
      "thern": 8836,
      "menu": 8837,
      "Language": 8838,
      "Ụfọdụ": 8839,
      "AGB": 8840,
      "Spring": 8841,
      "culation": 8842,
      "Ịkwụ": 8843,
      "infrared": 8844,
      "left": 8845,
      "melite": 8846,
      "rụrụ": 8847,
      "omoko": 8848,
      "jikọtara": 8849,
      "dika": 8850,
      "viol": 8851,
      "mole": 8852,
      "mini": 8853,
      "gwoju": 8854,
      "Tụkwasịnụ": 8855,
      "Buddhatrends": 8856,
      "Limited": 8857,
      "future": 8858,
      "mpịakọta": 8859,
      "vation": 8860,
      "invol": 8861,
      "sta": 8862,
      "icone": 8863,
      "items": 8864,
      "conduct": 8865,
      "rugs": 8866,
      "agadi": 8867,
      "Trader": 8868,
      "thermal": 8869,
      "dakọtara": 8870,
      "Leather": 8871,
      "Transl": 8872,
      "doesn": 8873,
      "installation": 8874,
      "Valent": 8875,
      "Address": 8876,
      "EBE": 8877,
      "Melting": 8878,
      "Crusher": 8879,
      "Ekele": 8880,
      "Brown": 8881,
      "Ali": 8882,
      "Grid": 8883,
      "stra": 8884,
      "legal": 8885,
      "omi": 8886,
      "utere": 8887,
      "highly": 8888,
      "Heated": 8889,
      "settings": 8890,
      "profit": 8891,
      "relations": 8892,
      "Supplier": 8893,
      "written": 8894,
      "ọpụpụ": 8895,
      "introdu": 8896,
      "character": 8897,
      "Natural": 8898,
      "Sistem": 8899,
      "Happy": 8900,
      "Dog": 8901,
      "Find": 8902,
      "Jac": 8903,
      "agbọ": 8904,
      "tell": 8905,
      "ito": 8906,
      "kpara": 8907,
      "etik": 8908,
      "weet": 8909,
      "adọrọ": 8910,
      "ceutical": 8911,
      "Store": 8912,
      "discount": 8913,
      "models": 8914,
      "included": 8915,
      "mitted": 8916,
      "study": 8917,
      "sign": 8918,
      "SMD": 8919,
      "RFID": 8920,
      "hibition": 8921,
      "Total": 8922,
      "Cze": 8923,
      "Dong": 8924,
      "Egwu": 8925,
      "Fam": 8926,
      "HCL": 8927,
      "lamp": 8928,
      "pị": 8929,
      "ilot": 8930,
      "manufact": 8931,
      "scale": 8932,
      "Sleeve": 8933,
      "convenient": 8934,
      "RT": 8935,
      "bis": 8936,
      "dates": 8937,
      "deter": 8938,
      "mor": 8939,
      "pink": 8940,
      "smo": 8941,
      "ịba": 8942,
      "ọpụta": 8943,
      "heating": 8944,
      "ologies": 8945,
      "nkịta": 8946,
      "colate": 8947,
      "instru": 8948,
      "tons": 8949,
      "Asụsụ": 8950,
      "hydraulic": 8951,
      "levels": 8952,
      "Mgbasa": 8953,
      "Building": 8954,
      ",\"": 8955,
      "Body": 8956,
      "CI": 8957,
      "Mex": 8958,
      "NUM": 8959,
      "bow": 8960,
      "meas": 8961,
      "takes": 8962,
      "recent": 8963,
      "thread": 8964,
      "illa": 8965,
      "omo": 8966,
      "rane": 8967,
      "Prepar": 8968,
      "archite": 8969,
      "issue": 8970,
      "Students": 8971,
      "exactspy": 8972,
      "Czech": 8973,
      "CN": 8974,
      "Mkp": 8975,
      "UA": 8976,
      "bil": 8977,
      "flight": 8978,
      "jack": 8979,
      "nhicha": 8980,
      "v4": 8981,
      "inder": 8982,
      "atu": 8983,
      "master": 8984,
      "role": 8985,
      "former": 8986,
      "nwụrụ": 8987,
      "Naanị": 8988,
      "effective": 8989,
      "trust": 8990,
      "eletriki": 8991,
      "FM": 8992,
      "Kon": 8993,
      "Oke": 8994,
      "uto": 8995,
      "òkè": 8996,
      "ghata": 8997,
      "ceed": 8998,
      "Injection": 8999,
      "favor": 9000,
      "Comple": 9001,
      "merce": 9002,
      "mkpakọrịta": 9003,
      "carry": 9004,
      "ORT": 9005,
      "Minister": 9006,
      "150W": 9007,
      "ijeri": 9008,
      "issues": 9009,
      "Advanced": 9010,
      "Nzọụkwụ": 9011,
      "KV": 9012,
      "UG": 9013,
      "onto": 9014,
      "sole": 9015,
      "nally": 9016,
      "movi": 9017,
      "clar": 9018,
      "ahapụ": 9019,
      "amazing": 9020,
      "wireless": 9021,
      "____": 9022,
      "ịtụnanya": 9023,
      "Royale": 9024,
      "ntuziaka": 9025,
      "Ra": 9026,
      "Tan": 9027,
      "pi": 9028,
      "ịnyịnya": 9029,
      "ured": 9030,
      "kwasa": 9031,
      "mean": 9032,
      "optim": 9033,
      "Style": 9034,
      "trades": 9035,
      "elele": 9036,
      "elekere": 9037,
      "collection": 9038,
      "Location": 9039,
      "Flash": 9040,
      "welded": 9041,
      "quickly": 9042,
      "appear": 9043,
      "Emergency": 9044,
      "significant": 9045,
      "Cash": 9046,
      "Tim": 9047,
      "Wid": 9048,
      "dog": 9049,
      "fill": 9050,
      "nad": 9051,
      "esh": 9052,
      "lear": 9053,
      "tages": 9054,
      "recor": 9055,
      "offee": 9056,
      "across": 9057,
      "akuku": 9058,
      "gender": 9059,
      "INE": 9060,
      "Turk": 9061,
      "Posts": 9062,
      "similar": 9063,
      "plug": 9064,
      "Swedish": 9065,
      "mbipụta": 9066,
      "Core": 9067,
      "JI": 9068,
      "Mah": 9069,
      "Mary": 9070,
      "ufe": 9071,
      "cele": 9072,
      "iron": 9073,
      "aca": 9074,
      "trains": 9075,
      "outdoor": 9076,
      "idea": 9077,
      "plus": 9078,
      "standards": 9079,
      "Foot": 9080,
      "Analy": 9081,
      "oxid": 9082,
      "Bursa": 9083,
      "Course": 9084,
      "988": 9085,
      "Akwu": 9086,
      "DM": 9087,
      "Pink": 9088,
      "Yes": 9089,
      "gran": 9090,
      "pul": 9091,
      "rt": 9092,
      "soro": 9093,
      "elic": 9094,
      "adịbeghị": 9095,
      "abụba": 9096,
      "particular": 9097,
      "egosipụta": 9098,
      "flat": 9099,
      "handle": 9100,
      "Game": 9101,
      "casinos": 9102,
      "Ngwuputa": 9103,
      "specific": 9104,
      "Hip": 9105,
      "OP": 9106,
      "ege": 9107,
      "event": 9108,
      "glu": 9109,
      "g29": 9110,
      "ịghasa": 9111,
      "stro": 9112,
      "igodo": 9113,
      "Its": 9114,
      "chọta": 9115,
      "posts": 9116,
      "Abali": 9117,
      "functions": 9118,
      "direction": 9119,
      "Pee": 9120,
      "Okporo": 9121,
      "Nwunye": 9122,
      "210": 9123,
      "AA": 9124,
      "Atọ": 9125,
      "Fa": 9126,
      "ICO": 9127,
      "Kwụ": 9128,
      "ịgụ": 9129,
      "izon": 9130,
      "author": 9131,
      "Indic": 9132,
      "Using": 9133,
      "park": 9134,
      "asaa": 9135,
      "basic": 9136,
      "ART": 9137,
      "OMG": 9138,
      "Aqu": 9139,
      "ek": 9140,
      "tics": 9141,
      "enwu": 9142,
      "mmadu": 9143,
      "anata": 9144,
      "Constant": 9145,
      "Only": 9146,
      "Asambodo": 9147,
      "API": 9148,
      "conditions": 9149,
      "received": 9150,
      "Nzukọ": 9151,
      "ountain": 9152,
      "Nkịtị": 9153,
      "Vintage": 9154,
      "ecutive": 9155,
      "Esi": 9156,
      "Lot": 9157,
      "Like": 9158,
      "Mu": 9159,
      "ikp": 9160,
      "mind": 9161,
      "sl": 9162,
      "zes": 9163,
      "kable": 9164,
      "remo": 9165,
      "ously": 9166,
      "forming": 9167,
      "Roof": 9168,
      "blood": 9169,
      "ọọment": 9170,
      "Display": 9171,
      "Zipper": 9172,
      "Bonus": 9173,
      "James": 9174,
      "WM": 9175,
      "package": 9176,
      "ọgba": 9177,
      "ordi": 9178,
      "enough": 9179,
      "cheap": 9180,
      "Chat": 9181,
      "Commercial": 9182,
      "wụwa": 9183,
      "Quest": 9184,
      "Month": 9185,
      "close": 9186,
      "ọkọnọ": 9187,
      "static": 9188,
      "gives": 9189,
      "Tunes": 9190,
      "Defogger": 9191,
      "celebr": 9192,
      "EU": 9193,
      "Eze": 9194,
      "IU": 9195,
      "Patch": 9196,
      "Privacy": 9197,
      "Sch": 9198,
      "gate": 9199,
      "later": 9200,
      "ras": 9201,
      "ịmalite": 9202,
      "ụtụ": 9203,
      "iles": 9204,
      "mmeri": 9205,
      "mgbali": 9206,
      "soon": 9207,
      "faiba": 9208,
      "nivers": 9209,
      "oldenone": 9210,
      "spot": 9211,
      "strateg": 9212,
      "Certified": 9213,
      "Scot": 9214,
      "reliable": 9215,
      "Frame": 9216,
      "jackpot": 9217,
      "ration": 9218,
      "sun": 9219,
      "ọtọ": 9220,
      "ered": 9221,
      "emale": 9222,
      "mmelite": 9223,
      "Republic": 9224,
      "INA": 9225,
      "frastructure": 9226,
      "windows": 9227,
      "timate": 9228,
      "kpamkpam": 9229,
      "ikanam": 9230,
      "agbọghọ": 9231,
      "Akwukwo": 9232,
      "Bow": 9233,
      "Ek": 9234,
      "Gburu": 9235,
      "JT": 9236,
      "LỌ": 9237,
      "Mpaghara": 9238,
      "Wash": 9239,
      "nes": 9240,
      "tran": 9241,
      "eros": 9242,
      "ances": 9243,
      "madi": 9244,
      "ando": 9245,
      "uli": 9246,
      "update": 9247,
      "young": 9248,
      "rick": 9249,
      "forms": 9250,
      "arium": 9251,
      "Featured": 9252,
      "smartphone": 9253,
      "indicator": 9254,
      "Enterprise": 9255,
      "automatically": 9256,
      "blue": 9257,
      "4000": 9258,
      "Ez": 9259,
      "Eche": 9260,
      "Mba": 9261,
      "Sens": 9262,
      "iTunes": 9263,
      "uz": 9264,
      "ora": 9265,
      "represent": 9266,
      "amụba": 9267,
      "quite": 9268,
      "mkpu": 9269,
      "inks": 9270,
      "ASS": 9271,
      "Camb": 9272,
      "ABS": 9273,
      "ịkpụzi": 9274,
      "Apr": 9275,
      "Adobe": 9276,
      "Far": 9277,
      "Gy": 9278,
      "Raven": 9279,
      "Town": 9280,
      "nch": 9281,
      "third": 9282,
      "ila": 9283,
      "apply": 9284,
      "shall": 9285,
      "anụmanụ": 9286,
      "England": 9287,
      "keyboard": 9288,
      "motive": 9289,
      "Photos": 9290,
      "browser": 9291,
      "houses": 9292,
      "Enanthate": 9293,
      "Gear": 9294,
      "Jack": 9295,
      "Many": 9296,
      "Sig": 9297,
      "Ur": 9298,
      "nghọta": 9299,
      "write": 9300,
      "took": 9301,
      "Innov": 9302,
      "ruit": 9303,
      "Prop": 9304,
      "Process": 9305,
      "saw": 9306,
      "miner": 9307,
      "haziri": 9308,
      "Jikọọ": 9309,
      "inux": 9310,
      "Nyochaa": 9311,
      "meeting": 9312,
      "Ntụgharị": 9313,
      "necessary": 9314,
      "Califor": 9315,
      "750": 9316,
      "7pm": 9317,
      "Bath": 9318,
      "Cro": 9319,
      "Ogi": 9320,
      "Wa": 9321,
      "Where": 9322,
      "kor": 9323,
      "onkwo": 9324,
      "atin": 9325,
      "stam": 9326,
      "mezu": 9327,
      "rụpụta": 9328,
      "Construction": 9329,
      "Short": 9330,
      "PCS": 9331,
      "maintenance": 9332,
      "unich": 9333,
      "opening": 9334,
      "Output": 9335,
      "demand": 9336,
      "Voice": 9337,
      "niversary": 9338,
      "Dut": 9339,
      "Hair": 9340,
      "Linux": 9341,
      "PH": 9342,
      "Pric": 9343,
      "eth": 9344,
      "fall": 9345,
      "icated": 9346,
      "machinery": 9347,
      "zụga": 9348,
      "ideas": 9349,
      "ejiri": 9350,
      "useum": 9351,
      "speak": 9352,
      "Pharma": 9353,
      "Level": 9354,
      "Ntughari": 9355,
      "organic": 9356,
      "running": 9357,
      "Ravenox": 9358,
      "California": 9359,
      "LLC": 9360,
      "Mmalite": 9361,
      "Munich": 9362,
      "Wu": 9363,
      "pip": 9364,
      "uf": 9365,
      "ịna": 9366,
      "names": 9367,
      "aliri": 9368,
      "taken": 9369,
      "umen": 9370,
      "luxury": 9371,
      "arụpụta": 9372,
      "Heater": 9373,
      "tọọpụ": 9374,
      "Apg29": 9375,
      "Beaut": 9376,
      "Desk": 9377,
      "recept": 9378,
      "resistant": 9379,
      "NYE": 9380,
      "Gburugburu": 9381,
      "Ce": 9382,
      "Ntọ": 9383,
      "Snap": 9384,
      "Tho": 9385,
      "Ver": 9386,
      "bly": 9387,
      "bụkwa": 9388,
      "usi": 9389,
      "kụla": 9390,
      "hood": 9391,
      "999": 9392,
      "typ": 9393,
      "Gaelic": 9394,
      "Ozizi": 9395,
      "increased": 9396,
      "Ani": 9397,
      "Case": 9398,
      "Kem": 9399,
      "fim": 9400,
      "kok": 9401,
      "mid": 9402,
      "zone": 9403,
      "inner": 9404,
      "sized": 9405,
      "compos": 9406,
      "nchegbu": 9407,
      "volume": 9408,
      "covered": 9409,
      "client": 9410,
      "requirement": 9411,
      "Ideas": 9412,
      "Ministry": 9413,
      "pieces": 9414,
      "Shoes": 9415,
      "asọmpi": 9416,
      "Turkish": 9417,
      "6000": 9418,
      "BB": 9419,
      "Dry": 9420,
      "Wil": 9421,
      "ekiri": 9422,
      "hit": 9423,
      "ọgbọ": 9424,
      "nkedo": 9425,
      "adv": 9426,
      "nwale": 9427,
      "loves": 9428,
      "section": 9429,
      "resin": 9430,
      "tịnụ": 9431,
      "struct": 9432,
      "Liquid": 9433,
      "Friend": 9434,
      "further": 9435,
      "Craft": 9436,
      "Idea": 9437,
      "Roman": 9438,
      "Temperature": 9439,
      "Created": 9440,
      "Wooden": 9441,
      "synthesis": 9442,
      "guarantee": 9443,
      "Blockchain": 9444,
      "While": 9445,
      "FDA": 9446,
      "Ox": 9447,
      "Script": 9448,
      "culture": 9449,
      "jà": 9450,
      "rus": 9451,
      "zere": 9452,
      "stage": 9453,
      "reci": 9454,
      "abet": 9455,
      "coating": 9456,
      "match": 9457,
      "obtain": 9458,
      "Config": 9459,
      "cloud": 9460,
      "carri": 9461,
      "277": 9462,
      "reading": 9463,
      "PCB": 9464,
      "solid": 9465,
      "OMC": 9466,
      "Week": 9467,
      "changes": 9468,
      "packing": 9469,
      "dependent": 9470,
      "sistemụ": 9471,
      "Ogige": 9472,
      "CAD": 9473,
      "Jew": 9474,
      "Run": 9475,
      "fashion": 9476,
      "ọwa": 9477,
      "decor": 9478,
      "absor": 9479,
      "zipu": 9480,
      "concer": 9481,
      "suit": 9482,
      "partner": 9483,
      "valu": 9484,
      "ushless": 9485,
      "Monitor": 9486,
      "nkwenye": 9487,
      "nkwurịta": 9488,
      "marketing": 9489,
      "Flat": 9490,
      "Videos": 9491,
      "lasting": 9492,
      "steroids": 9493,
      "Crack": 9494,
      "Refrigerant": 9495,
      "Popular": 9496,
      "counter": 9497,
      "Deli": 9498,
      "Gbara": 9499,
      "Know": 9500,
      "Tex": 9501,
      "hong": 9502,
      "juputa": 9503,
      "enyocha": 9504,
      "simp": 9505,
      "gem": 9506,
      "nda": 9507,
      "odium": 9508,
      "Recovery": 9509,
      "prin": 9510,
      "200W": 9511,
      "nkwonkwo": 9512,
      "ọmụmaatụ": 9513,
      "River": 9514,
      "Visit": 9515,
      "enables": 9516,
      "gbanwee": 9517,
      "androgenic": 9518,
      "mwekota": 9519,
      "David": 9520,
      "License": 9521,
      "learning": 9522,
      "Kwa": 9523,
      "Zụrụ": 9524,
      "ajụ": 9525,
      "cold": 9526,
      "zụrụ": 9527,
      "}}": 9528,
      "height": 9529,
      "enced": 9530,
      "edi": 9531,
      "edit": 9532,
      "gafee": 9533,
      "selection": 9534,
      "constant": 9535,
      "Ink": 9536,
      "vibr": 9537,
      "shows": 9538,
      "Tek": 9539,
      "bring": 9540,
      "họọrọ": 9541,
      "reduce": 9542,
      "Hunter": 9543,
      "Mexico": 9544,
      "5V": 9545,
      "Bụ": 9546,
      "Econom": 9547,
      "Ikuku": 9548,
      "LM": 9549,
      "situ": 9550,
      "{{": 9551,
      "elds": 9552,
      "entire": 9553,
      "wezụga": 9554,
      "uts": 9555,
      "covers": 9556,
      "pred": 9557,
      "Force": 9558,
      "Solution": 9559,
      "achọpụta": 9560,
      "ONE": 9561,
      "kwasịrị": 9562,
      "talk": 9563,
      "Thanks": 9564,
      "claim": 9565,
      "phrine": 9566,
      "Alex": 9567,
      "Fer": 9568,
      "Iche": 9569,
      "TER": 9570,
      "yet": 9571,
      "ately": 9572,
      "edia": 9573,
      "ejikarị": 9574,
      "Anyanwụ": 9575,
      "Meth": 9576,
      "celer": 9577,
      "rugated": 9578,
      "risk": 9579,
      "science": 9580,
      "echekwala": 9581,
      "deliver": 9582,
      "ptide": 9583,
      "employe": 9584,
      "Bangkok": 9585,
      "samples": 9586,
      "VID": 9587,
      "average": 9588,
      "codes": 9589,
      "images": 9590,
      "eness": 9591,
      "isco": 9592,
      "lap": 9593,
      "ateboard": 9594,
      "emechi": 9595,
      "ọnụọgụ": 9596,
      "aving": 9597,
      "whit": 9598,
      "jụụ": 9599,
      "Premium": 9600,
      "foreign": 9601,
      "Saint": 9602,
      "PayPal": 9603,
      "bọtịnụ": 9604,
      "Cutting": 9605,
      "Trenbolone": 9606,
      "MGB": 9607,
      "PV": 9608,
      "Pita": 9609,
      "core": 9610,
      "financial": 9611,
      "igbochi": 9612,
      "mate": 9613,
      "ọkpụkpụ": 9614,
      "elist": 9615,
      "hium": 9616,
      "amboo": 9617,
      "Inye": 9618,
      "enger": 9619,
      "nkwalite": 9620,
      "Polish": 9621,
      "fuel": 9622,
      "Days": 9623,
      "Capac": 9624,
      "Hua": 9625,
      "closed": 9626,
      "destination": 9627,
      "Gb": 9628,
      "Ig": 9629,
      "Sport": 9630,
      "dating": 9631,
      "àjà": 9632,
      "ọm": 9633,
      "accom": 9634,
      "limit": 9635,
      "saving": 9636,
      "eleghị": 9637,
      "guide": 9638,
      "ensity": 9639,
      "mgbagwoju": 9640,
      "hazie": 9641,
      "someone": 9642,
      "garanya": 9643,
      "rooms": 9644,
      "warranty": 9645,
      "Rapid": 9646,
      "manufacture": 9647,
      "simply": 9648,
      "Ika": 9649,
      "Tom": 9650,
      "Well": 9651,
      "aṅụ": 9652,
      "sere": 9653,
      "stri": 9654,
      "recog": 9655,
      "combi": 9656,
      "bud": 9657,
      "grams": 9658,
      "ọdịyo": 9659,
      "ezé": 9660,
      "muscle": 9661,
      "hotels": 9662,
      "alkboard": 9663,
      "domestic": 9664,
      "Views": 9665,
      "Giant": 9666,
      "bumnuche": 9667,
      "Text": 9668,
      "Yo": 9669,
      "aa": 9670,
      "cise": 9671,
      "named": 9672,
      "arin": 9673,
      "etime": 9674,
      "hair": 9675,
      "bian": 9676,
      "antic": 9677,
      "ifufe": 9678,
      "Gosi": 9679,
      "educ": 9680,
      "ụfụfụ": 9681,
      "Hydro": 9682,
      "universities": 9683,
      "SPY": 9684,
      "investors": 9685,
      "programs": 9686,
      "gazine": 9687,
      "Images": 9688,
      "agwọ": 9689,
      "ewepụ": 9690,
      "gers": 9691,
      "ịhọrọ": 9692,
      "Ọkachamara": 9693,
      "erous": 9694,
      "oring": 9695,
      "fort": 9696,
      "kọpa": 9697,
      "arịrịọ": 9698,
      "iff": 9699,
      "Jiang": 9700,
      "Nchedo": 9701,
      "Trip": 9702,
      "gidere": 9703,
      "Nkume": 9704,
      "Han": 9705,
      "Mara": 9706,
      "Spl": 9707,
      "YS": 9708,
      "dong": 9709,
      "mary": 9710,
      "mirror": 9711,
      "ride": 9712,
      "thers": 9713,
      "gage": 9714,
      "opti": 9715,
      "accur": 9716,
      "expla": 9717,
      "Cho": 9718,
      "however": 9719,
      "sage": 9720,
      "correct": 9721,
      "avoid": 9722,
      "focus": 9723,
      "cade": 9724,
      "arius": 9725,
      "ntable": 9726,
      "valve": 9727,
      "ATE": 9728,
      "ọkịta": 9729,
      "providing": 9730,
      "Ahụike": 9731,
      "picture": 9732,
      "Assembly": 9733,
      "Aga": 9734,
      "Bịa": 9735,
      "Bridge": 9736,
      "Igbe": 9737,
      "Ja": 9738,
      "Ntinye": 9739,
      "iro": 9740,
      "vable": 9741,
      "ụra": 9742,
      "esiri": 9743,
      "race": 9744,
      "omimi": 9745,
      "mgbanaka": 9746,
      "concept": 9747,
      "Inch": 9748,
      "spins": 9749,
      "Indones": 9750,
      "COB": 9751,
      "native": 9752,
      "Belt": 9753,
      "Ukrain": 9754,
      "220V": 9755,
      "Florida": 9756,
      "Fair": 9757,
      "Rated": 9758,
      "Slot": 9759,
      "TUV": 9760,
      "hesive": 9761,
      "ils": 9762,
      "comment": 9763,
      "exc": 9764,
      "wait": 9765,
      "traffic": 9766,
      "outside": 9767,
      "manual": 9768,
      "compatible": 9769,
      "cret": 9770,
      "instant": 9771,
      "awade": 9772,
      "villa": 9773,
      "Materials": 9774,
      "Koca": 9775,
      "Pattern": 9776,
      "GBPUSD": 9777,
      "documents": 9778,
      "registered": 9779,
      "Ikanam": 9780,
      "3G": 9781,
      "3d": 9782,
      "Cit": 9783,
      "Pị": 9784,
      "Xbox": 9785,
      "sold": 9786,
      "ọkpụkpọ": 9787,
      "ọgaranya": 9788,
      "orders": 9789,
      "stable": 9790,
      "oman": 9791,
      "peptide": 9792,
      "terms": 9793,
      "seen": 9794,
      "moon": 9795,
      "Deep": 9796,
      "gosipụtara": 9797,
      "modul": 9798,
      "airline": 9799,
      "ifier": 9800,
      "benefits": 9801,
      "ography": 9802,
      "ndokwa": 9803,
      "nature": 9804,
      "ofer": 9805,
      "became": 9806,
      "ultra": 9807,
      "abu": 9808,
      "secure": 9809,
      "upon": 9810,
      "Mail": 9811,
      "dochie": 9812,
      "mkpo": 9813,
      "loading": 9814,
      "iving": 9815,
      "asịsa": 9816,
      "spray": 9817,
      "partners": 9818,
      "Viet": 9819,
      "longer": 9820,
      "African": 9821,
      "People": 9822,
      "enable": 9823,
      "remote": 9824,
      "Ntọala": 9825,
      "Eco": 9826,
      "Enye": 9827,
      "Hospital": 9828,
      "Nwee": 9829,
      "Rip": 9830,
      "Sign": 9831,
      "hom": 9832,
      "❤*": 9833,
      "jikọọ": 9834,
      "50mm": 9835,
      "restaur": 9836,
      "Ann": 9837,
      "arụnyere": 9838,
      "80W": 9839,
      "aux": 9840,
      "prefer": 9841,
      "regular": 9842,
      "Certificate": 9843,
      "firm": 9844,
      "British": 9845,
      "Retra": 9846,
      "HU": 9847,
      "Jiz": 9848,
      "Mere": 9849,
      "Sou": 9850,
      "Will": 9851,
      "ịka": 9852,
      "orial": 9853,
      "abanye": 9854,
      "exist": 9855,
      "istic": 9856,
      "128": 9857,
      "ikip": 9858,
      "Compressor": 9859,
      "coupon": 9860,
      "Adap": 9861,
      "mbọ": 9862,
      "crystal": 9863,
      "MP3": 9864,
      "tracts": 9865,
      "pictures": 9866,
      "Kingdom": 9867,
      "satis": 9868,
      "FAQ": 9869,
      "Retractable": 9870,
      "2D": 9871,
      "320": 9872,
      "330": 9873,
      "Cold": 9874,
      "Fort": 9875,
      "File": 9876,
      "Ngosipụta": 9877,
      "SL": 9878,
      "bright": 9879,
      "equ": 9880,
      "nm": 9881,
      "nic": 9882,
      "went": 9883,
      "inhibit": 9884,
      "weghachite": 9885,
      "adop": 9886,
      "ulf": 9887,
      "Ins": 9888,
      "mately": 9889,
      "inding": 9890,
      "Load": 9891,
      "Neck": 9892,
      "ịzụlite": 9893,
      "Payment": 9894,
      "charter": 9895,
      "holiday": 9896,
      "Linen": 9897,
      "true": 9898,
      "ikipedia": 9899,
      "410": 9900,
      "Fre": 9901,
      "Ster": 9902,
      "Side": 9903,
      "Tank": 9904,
      "Vic": 9905,
      "mold": 9906,
      "uc": 9907,
      "wise": 9908,
      "eser": 9909,
      "retail": 9910,
      "usa": 9911,
      "abata": 9912,
      "ternal": 9913,
      "lies": 9914,
      "kwụnye": 9915,
      "alafil": 9916,
      "cia": 9917,
      "njide": 9918,
      "Lead": 9919,
      "precision": 9920,
      "Aircraft": 9921,
      "ọdịnala": 9922,
      "voice": 9923,
      "Visa": 9924,
      "Waya": 9925,
      "happen": 9926,
      "achieve": 9927,
      "AGBA": 9928,
      "Ukrainian": 9929,
      "DJ": 9930,
      "Diana": 9931,
      "Ton": 9932,
      "Two": 9933,
      "XX": 9934,
      "eing": 9935,
      "ude": 9936,
      "Ịgụ": 9937,
      "ette": 9938,
      "ahụhụ": 9939,
      "ileta": 9940,
      "impact": 9941,
      "Commission": 9942,
      "ulty": 9943,
      "lette": 9944,
      "Platform": 9945,
      "needed": 9946,
      "Scots": 9947,
      "demic": 9948,
      "Intro": 9949,
      "community": 9950,
      "currently": 9951,
      "completely": 9952,
      "switch": 9953,
      "Foundation": 9954,
      "Specification": 9955,
      "Stock": 9956,
      "Cand": 9957,
      "Feder": 9958,
      "Mem": 9959,
      "azọpụta": 9960,
      "mwepụ": 9961,
      "nbudata": 9962,
      "yarn": 9963,
      "Ịntanetị": 9964,
      "Ọhụụ": 9965,
      "ỤLỌ": 9966,
      "gafere": 9967,
      "ndịda": 9968,
      "lia": 9969,
      "akpando": 9970,
      "sauna": 9971,
      "php": 9972,
      "pher": 9973,
      "earth": 9974,
      "Window": 9975,
      "profile": 9976,
      "Have": 9977,
      "published": 9978,
      "hardware": 9979,
      "guarante": 9980,
      "Abụọ": 9981,
      "cookies": 9982,
      "merie": 9983,
      "Agb": 9984,
      "Dating": 9985,
      "TL": 9986,
      "Tel": 9987,
      "VM": 9988,
      "Zọpụta": 9989,
      "df": 9990,
      "dara": 9991,
      "dress": 9992,
      "sus": 9993,
      "aries": 9994,
      "member": 9995,
      "asatọ": 9996,
      "usal": 9997,
      "hips": 9998,
      "pected": 9999,
      "ndenye": 10000,
      "feeder": 10001,
      "okomoko": 10002,
      "worth": 10003,
      "prises": 10004,
      "versions": 10005,
      "agbasa": 10006,
      "brary": 10007,
      "regard": 10008,
      "viruses": 10009,
      "Electronics": 10010,
      "Mmekọ": 10011,
      "Ultimate": 10012,
      "!)": 10013,
      "3M": 10014,
      "Dro": 10015,
      "OL": 10016,
      "RỤ": 10017,
      "ccer": 10018,
      "ibi": 10019,
      "nc": 10020,
      "henyl": 10021,
      "reason": 10022,
      "record": 10023,
      "bey": 10024,
      "allery": 10025,
      "mkpụ": 10026,
      "implement": 10027,
      "server": 10028,
      "Seat": 10029,
      "woven": 10030,
      "markets": 10031,
      "ebipụta": 10032,
      "sụgharị": 10033,
      "cases": 10034,
      "gged": 10035,
      "celona": 10036,
      "Portugu": 10037,
      "potential": 10038,
      "considered": 10039,
      "Milan": 10040,
      "Password": 10041,
      "applied": 10042,
      "Girls": 10043,
      "User": 10044,
      "bran": 10045,
      "foll": 10046,
      "mount": 10047,
      "Ọrịa": 10048,
      "stim": 10049,
      "nkezi": 10050,
      "prog": 10051,
      "unched": 10052,
      "acetate": 10053,
      "shore": 10054,
      "tumadi": 10055,
      "instrum": 10056,
      "extreme": 10057,
      "Beach": 10058,
      "Dịka": 10059,
      "buli": 10060,
      "Holms": 10061,
      "advantage": 10062,
      "SharePoint": 10063,
      "1XBET": 10064,
      "Omume": 10065,
      "Bed": 10066,
      "Cart": 10067,
      "Kids": 10068,
      "Loss": 10069,
      "Slots": 10070,
      "Were": 10071,
      "Ụkwụ": 10072,
      "ato": 10073,
      "straight": 10074,
      "kpaliri": 10075,
      "etinyere": 10076,
      "lide": 10077,
      "mmer": 10078,
      "suggest": 10079,
      "Deposit": 10080,
      "2003": 10081,
      "actually": 10082,
      "transgender": 10083,
      "IST": 10084,
      "books": 10085,
      "Movi": 10086,
      "anọgide": 10087,
      "idential": 10088,
      "Thai": 10089,
      "piece": 10090,
      "Virtual": 10091,
      "bịara": 10092,
      "Britain": 10093,
      "Printing": 10094,
      "document": 10095,
      "dollar": 10096,
      "Arụ": 10097,
      "BU": 10098,
      "Egw": 10099,
      "Mgbochi": 10100,
      "Tupu": 10101,
      "Yout": 10102,
      "courses": 10103,
      "nkwupụta": 10104,
      "wat": 10105,
      "zania": 10106,
      "ụtụtụ": 10107,
      "ero": 10108,
      "mem": 10109,
      "andom": 10110,
      "omuma": 10111,
      "die": 10112,
      "Info": 10113,
      "Chalkboard": 10114,
      "respect": 10115,
      "cape": 10116,
      "FS2004": 10117,
      "subject": 10118,
      "akwụsị": 10119,
      "Bruss": 10120,
      "investment": 10121,
      "okpukpu": 10122,
      "Guangzhou": 10123,
      "Karnar": 10124,
      "echichi": 10125,
      "Delivery": 10126,
      "Bamboo": 10127,
      "Fore": 10128,
      "GM": 10129,
      "IAL": 10130,
      "Sof": 10131,
      "Tru": 10132,
      "XXXL": 10133,
      "gic": 10134,
      "Ọkara": 10135,
      "thus": 10136,
      "mgbaru": 10137,
      "Information": 10138,
      "resh": 10139,
      "Sea": 10140,
      "Speaker": 10141,
      "ATION": 10142,
      "manager": 10143,
      "ebube": 10144,
      "rollers": 10145,
      "Dimmable": 10146,
      "Mmekọrịta": 10147,
      "cells": 10148,
      "offering": 10149,
      "Robots": 10150,
      "Paypal": 10151,
      "ehichapụ": 10152,
      "Customer": 10153,
      "propionate": 10154,
      "egwú": 10155,
      "Azụma": 10156,
      "Torrent": 10157,
      "A4": 10158,
      "AY": 10159,
      "Boldenone": 10160,
      "Cab": 10161,
      "Ihu": 10162,
      "OA": 10163,
      "SI": 10164,
      "flex": 10165,
      "pir": 10166,
      "sess": 10167,
      "eries": 10168,
      "dịkarịa": 10169,
      "elves": 10170,
      "histor": 10171,
      "launch": 10172,
      "cos": 10173,
      "shan": 10174,
      "minimum": 10175,
      "Meh": 10176,
      "designs": 10177,
      "opened": 10178,
      "Party": 10179,
      "Peter": 10180,
      "Valid": 10181,
      "attention": 10182,
      "recommend": 10183,
      "comfortable": 10184,
      "spirit": 10185,
      "ntekwasa": 10186,
      "Brussels": 10187,
      "Ib": 10188,
      "JB": 10189,
      "Nchịkwa": 10190,
      "Onwe": 10191,
      "Try": 10192,
      "enh": 10193,
      "associ": 10194,
      "ently": 10195,
      "sibility": 10196,
      "amino": 10197,
      "ided": 10198,
      "quant": 10199,
      "mbol": 10200,
      "COUN": 10201,
      "diffic": 10202,
      "throughout": 10203,
      "Technical": 10204,
      "nlekota": 10205,
      "IME": 10206,
      "tables": 10207,
      "Paint": 10208,
      "Coinbase": 10209,
      "irthday": 10210,
      "Council": 10211,
      "Cisco": 10212,
      "Ku": 10213,
      "Kara": 10214,
      "Ni": 10215,
      "Nkwupụta": 10216,
      "Scal": 10217,
      "UI": 10218,
      "cin": 10219,
      "girls": 10220,
      "kal": 10221,
      "katọ": 10222,
      "item": 10223,
      "acqu": 10224,
      "aches": 10225,
      "10V": 10226,
      "century": 10227,
      "Ability": 10228,
      "ramine": 10229,
      "annual": 10230,
      "????": 10231,
      "Ahụghị": 10232,
      "shape": 10233,
      "Showing": 10234,
      "europe": 10235,
      "frequency": 10236,
      "Martin": 10237,
      "eserese": 10238,
      "Gar": 10239,
      "Tail": 10240,
      "WW": 10241,
      "aim": 10242,
      "eBook": 10243,
      "girl": 10244,
      "uel": 10245,
      "kpakpando": 10246,
      "ndú": 10247,
      "emokwu": 10248,
[...]
