{
  "version": "1.0",
  "truncation": null,
  "padding": null,
  "added_tokens": [
    {
      "id": 0,
      "content": "<pad>",
      "single_word": false,
      "lstrip": false,
      "rstrip": false,
      "normalized": false,
      "special": true
    },
    {
      "id": 1,
      "content": "<sos>",
      "single_word": false,
      "lstrip": false,
      "rstrip": false,
      "normalized": false,
      "special": true
    },
    {
      "id": 2,
      "content": "<eos>",
      "single_word": false,
      "lstrip": false,
      "rstrip": false,
      "normalized": false,
      "special": true
    },
    {
      "id": 3,
      "content": "<unk>",
      "single_word": false,
      "lstrip": false,
      "rstrip": false,
      "normalized": false,
      "special": true
    }
  ],
  "normalizer": null,
  "pre_tokenizer": {
    "type": "Whitespace"
  },
  "post_processor": null,
  "decoder": null,
  "model": {
    "type": "BPE",
    "dropout": null,
    "unk_token": null,
    "continuing_subword_prefix": null,
    "end_of_word_suffix": null,
    "fuse_unk": false,
    "byte_fallback": false,
    "ignore_merges": false,
    "vocab": {
      "<pad>": 0,
      "<sos>": 1,
      "<eos>": 2,
      "<unk>": 3,
      "!": 4,
      "\"": 5,
      "#": 6,
      "$": 7,
      "%": 8,
      "&": 9,
      "'": 10,
      "(": 11,
      ")": 12,
      "*": 13,
      "+": 14,
      ",": 15,
      "-": 16,
      ".": 17,
      "/": 18,
      "0": 19,
      "1": 20,
      "2": 21,
      "3": 22,
      "4": 23,
      "5": 24,
      "6": 25,
      "7": 26,
      "8": 27,
      "9": 28,
      ":": 29,
      ";": 30,
      "<": 31,
      "=": 32,
      ">": 33,
      "?": 34,
      "@": 35,
      "A": 36,
      "B": 37,
      "C": 38,
      "D": 39,
      "E": 40,
      "F": 41,
      "G": 42,
      "H": 43,
      "I": 44,
      "J": 45,
      "K": 46,
      "L": 47,
      "M": 48,
      "N": 49,
      "O": 50,
      "P": 51,
      "Q": 52,
      "R": 53,
      "S": 54,
      "T": 55,
      "U": 56,
      "V": 57,
      "W": 58,
      "X": 59,
      "Y": 60,
      "Z": 61,
      "[": 62,
      "\\": 63,
      "]": 64,
      "^": 65,
      "_": 66,
      "`": 67,
      "a": 68,
      "b": 69,
      "c": 70,
      "d": 71,
      "e": 72,
      "f": 73,
      "g": 74,
      "h": 75,
      "i": 76,
      "j": 77,
      "k": 78,
      "l": 79,
      "m": 80,
      "n": 81,
      "o": 82,
      "p": 83,
      "q": 84,
      "r": 85,
      "s": 86,
      "t": 87,
      "u": 88,
      "v": 89,
      "w": 90,
      "x": 91,
      "y": 92,
      "z": 93,
      "{": 94,
      "|": 95,
      "}": 96,
      "~": 97,
      "": 98,
      "": 99,
      "": 100,
      "": 101,
      "": 102,
      "": 103,
      "": 104,
      "": 105,
      "": 106,
      "": 107,
      "": 108,
      "": 109,
      "": 110,
      "": 111,
      "": 112,
      "": 113,
      "": 114,
      "": 115,
      "": 116,
      "": 117,
      "": 118,
      "": 119,
      "": 120,
      "¡": 121,
      "¢": 122,
      "£": 123,
      "¤": 124,
      "¥": 125,
      "¦": 126,
      "§": 127,
      "¨": 128,
      "©": 129,
      "ª": 130,
      "«": 131,
      "¬": 132,
      "­": 133,
      "®": 134,
      "¯": 135,
      "°": 136,
      "±": 137,
      "²": 138,
      "³": 139,
      "´": 140,
      "µ": 141,
      "¶": 142,
      "·": 143,
      "¸": 144,
      "¹": 145,
      "º": 146,
      "»": 147,
      "¼": 148,
      "½": 149,
      "¾": 150,
      "¿": 151,
      "À": 152,
      "Á": 153,
      "Â": 154,
      "Ã": 155,
      "Ä": 156,
      "Å": 157,
      "Æ": 158,
      "Ç": 159,
      "È": 160,
      "É": 161,
      "Ê": 162,
      "Ë": 163,
      "Ì": 164,
      "Í": 165,
      "Î": 166,
      "Ï": 167,
      "Ð": 168,
      "Ñ": 169,
      "Ò": 170,
      "Ó": 171,
      "Ô": 172,
      "Õ": 173,
      "Ö": 174,
      "×": 175,
      "Ø": 176,
      "Ù": 177,
      "Ú": 178,
      "Û": 179,
      "Ü": 180,
      "Ý": 181,
      "Þ": 182,
      "ß": 183,
      "à": 184,
      "á": 185,
      "â": 186,
      "ã": 187,
      "ä": 188,
      "å": 189,
      "æ": 190,
      "ç": 191,
      "è": 192,
      "é": 193,
      "ê": 194,
      "ë": 195,
      "ì": 196,
      "í": 197,
      "î": 198,
      "ï": 199,
      "ð": 200,
      "ñ": 201,
      "ò": 202,
      "ó": 203,
      "ô": 204,
      "õ": 205,
      "ö": 206,
      "÷": 207,
      "ø": 208,
      "ù": 209,
      "ú": 210,
      "û": 211,
      "ü": 212,
      "ý": 213,
      "þ": 214,
      "ÿ": 215,
      "Ā": 216,
      "ā": 217,
      "Ă": 218,
      "ă": 219,
      "ą": 220,
      "Ć": 221,
      "ć": 222,
      "ĉ": 223,
      "Ċ": 224,
      "ċ": 225,
      "Č": 226,
      "č": 227,
      "ď": 228,
      "Đ": 229,
      "đ": 230,
      "Ē": 231,
      "ē": 232,
      "Ĕ": 233,
      "ĕ": 234,
      "ė": 235,
      "ę": 236,
      "Ě": 237,
      "ě": 238,
      "ĝ": 239,
      "Ğ": 240,
      "ğ": 241,
      "ġ": 242,
      "Ģ": 243,
      "ģ": 244,
      "Ĥ": 245,
      "ĥ": 246,
      "Ħ": 247,
      "ħ": 248,
      "ĩ": 249,
      "Ī": 250,
      "ī": 251,
      "ĭ": 252,
      "Į": 253,
      "į": 254,
      "İ": 255,
      "ı": 256,
      "Ĳ": 257,
      "ĳ": 258,
      "Ĵ": 259,
      "ĵ": 260,
      "Ķ": 261,
      "ķ": 262,
      "ĸ": 263,
      "Ĺ": 264,
      "ĺ": 265,
      "Ļ": 266,
      "ļ": 267,
      "Ľ": 268,
      "ľ": 269,
      "Ŀ": 270,
      "ŀ": 271,
      "Ł": 272,
      "ł": 273,
      "Ń": 274,
      "ń": 275,
      "ņ": 276,
      "ň": 277,
      "ŉ": 278,
      "Ŋ": 279,
      "ŋ": 280,
      "Ō": 281,
      "ō": 282,
      "Ŏ": 283,
      "ŏ": 284,
      "Ő": 285,
      "ő": 286,
      "Œ": 287,
      "œ": 288,
      "Ŕ": 289,
      "ŕ": 290,
      "ŗ": 291,
      "ř": 292,
      "Ś": 293,
      "ś": 294,
      "ŝ": 295,
      "Ş": 296,
      "ş": 297,
      "Š": 298,
      "š": 299,
      "ţ": 300,
      "Ť": 301,
      "ť": 302,
      "Ŧ": 303,
      "ŧ": 304,
      "Ũ": 305,
      "ũ": 306,
      "Ū": 307,
      "ū": 308,
      "Ŭ": 309,
      "ŭ": 310,
      "Ů": 311,
      "ů": 312,
      "Ű": 313,
      "ű": 314,
      "Ų": 315,
      "ų": 316,
      "Ŵ": 317,
      "ŵ": 318,
      "Ŷ": 319,
      "ŷ": 320,
      "Ÿ": 321,
      "Ź": 322,
      "ź": 323,
      "Ż": 324,
      "ż": 325,
      "Ž": 326,
      "ž": 327,
      "ſ": 328,
      "Ɓ": 329,
      "Ƃ": 330,
      "Ə": 331,
      "Ɛ": 332,
      "Ƒ": 333,
      "ƒ": 334,
      "Ɩ": 335,
      "ƙ": 336,
      "ơ": 337,
      "Ƣ": 338,
      "ƣ": 339,
      "Ƥ": 340,
      "ƥ": 341,
      "Ʃ": 342,
      "ƪ": 343,
      "ƫ": 344,
      "Ƭ": 345,
      "ƭ": 346,
      "Ʈ": 347,
      "Ư": 348,
      "ư": 349,
      "Ʊ": 350,
      "Ʋ": 351,
      "Ƴ": 352,
      "ƴ": 353,
      "Ƶ": 354,
      "ƶ": 355,
      "Ʒ": 356,
      "Ƹ": 357,
      "ƹ": 358,
      "ƺ": 359,
      "ƻ": 360,
      "Ƽ": 361,
      "ƽ": 362,
      "ƾ": 363,
      "ƿ": 364,
      "ǀ": 365,
      "ǁ": 366,
      "ǂ": 367,
      "ǎ": 368,
      "Ǐ": 369,
      "ǐ": 370,
      "ǒ": 371,
      "Ǔ": 372,
      "ǔ": 373,
      "Ǖ": 374,
      "ǖ": 375,
      "Ǘ": 376,
      "ǘ": 377,
      "Ǚ": 378,
      "ǚ": 379,
      "Ǜ": 380,
      "ǜ": 381,
      "ǝ": 382,
      "ǡ": 383,
      "ǣ": 384,
      "Ǥ": 385,
      "ǥ": 386,
      "ǧ": 387,
      "Ǩ": 388,
      "ǩ": 389,
      "Ǫ": 390,
      "Ǯ": 391,
      "ǯ": 392,
      "ǰ": 393,
      "Ǳ": 394,
      "ǲ": 395,
      "ǳ": 396,
      "Ǵ": 397,
      "ǵ": 398,
      "Ƕ": 399,
      "Ƿ": 400,
      "Ǹ": 401,
      "ǹ": 402,
      "Ǻ": 403,
      "ǻ": 404,
      "Ǽ": 405,
      "ǽ": 406,
      "Ǿ": 407,
      "ǿ": 408,
      "Ȃ": 409,
      "Ȋ": 410,
      "Ȕ": 411,
      "ȕ": 412,
      "Ȗ": 413,
      "ȗ": 414,
      "ș": 415,
      "Ț": 416,
      "ț": 417,
      "ȡ": 418,
      "Ȣ": 419,
      "ȣ": 420,
      "Ȥ": 421,
      "ȥ": 422,
      "Ȧ": 423,
      "Ȩ": 424,
      "ȩ": 425,
      "Ȫ": 426,
      "ȫ": 427,
      "ȭ": 428,
      "Ȯ": 429,
      "ȯ": 430,
      "Ȱ": 431,
      "ȱ": 432,
      "Ȳ": 433,
      "ȳ": 434,
      "ȴ": 435,
      "ȵ": 436,
      "ȶ": 437,
      "ȷ": 438,
      "ȸ": 439,
      "ȹ": 440,
      "Ⱥ": 441,
      "Ȼ": 442,
      "ȼ": 443,
      "Ƚ": 444,
      "Ⱦ": 445,
      "ȿ": 446,
      "Ɂ": 447,
      "ɂ": 448,
      "Ʉ": 449,
      "Ɉ": 450,
      "ɉ": 451,
      "Ɋ": 452,
      "Ɏ": 453,
      "ɐ": 454,
      "ɑ": 455,
      "ɔ": 456,
      "ɖ": 457,
      "ɗ": 458,
      "ə": 459,
      "ɛ": 460,
      "ɡ": 461,
      "ɢ": 462,
      "ɣ": 463,
      "ɤ": 464,
      "ɥ": 465,
      "ɨ": 466,
      "ɩ": 467,
      "ɪ": 468,
      "ɫ": 469,
      "ɬ": 470,
      "ɭ": 471,
      "ɮ": 472,
      "ɰ": 473,
      "ɱ": 474,
      "ɲ": 475,
      "ɳ": 476,
      "ɴ": 477,
      "ɵ": 478,
      "ɶ": 479,
      "ɷ": 480,
      "ɸ": 481,
      "ɹ": 482,
      "ɺ": 483,
      "ɻ": 484,
      "ɼ": 485,
      "ɽ": 486,
      "ɾ": 487,
      "ɿ": 488,
      "ʁ": 489,
      "ʃ": 490,
      "ʉ": 491,
      "ʊ": 492,
      "ʋ": 493,
      "ʌ": 494,
      "ʏ": 495,
      "ʒ": 496,
      "ʡ": 497,
      "ʢ": 498,
      "ʣ": 499,
      "ʤ": 500,
      "ʥ": 501,
      "ʦ": 502,
      "ʧ": 503,
      "ʩ": 504,
      "ʪ": 505,
      "ʬ": 506,
      "ʮ": 507,
      "ʯ": 508,
      "ʰ": 509,
      "ʱ": 510,
      "ʲ": 511,
      "ʳ": 512,
      "ʴ": 513,
      "ʵ": 514,
      "ʶ": 515,
      "ʷ": 516,
      "ʸ": 517,
      "ʹ": 518,
      "ʺ": 519,
      "ʻ": 520,
      "ʼ": 521,
      "ʽ": 522,
      "ʾ": 523,
      "ʿ": 524,
      "ˆ": 525,
      "ˈ": 526,
      "ˎ": 527,
      "ˑ": 528,
      "˘": 529,
      "˚": 530,
      "˜": 531,
      "˞": 532,
      "ˡ": 533,
      "ˢ": 534,
      "ˣ": 535,
      "ˤ": 536,
      "˥": 537,
      "˦": 538,
      "˧": 539,
      "˫": 540,
      "˭": 541,
      "ˮ": 542,
      "˯": 543,
      "˰": 544,
      "˱": 545,
      "˲": 546,
      "˳": 547,
      "˴": 548,
      "˵": 549,
      "˶": 550,
      "˷": 551,
      "˸": 552,
      "˹": 553,
      "˺": 554,
      "˻": 555,
      "˼": 556,
      "˽": 557,
      "˾": 558,
      "˿": 559,
      "̀": 560,
      "́": 561,
      "̂": 562,
      "̃": 563,
      "̄": 564,
      "̆": 565,
      "̇": 566,
      "̈": 567,
      "̉": 568,
      "̋": 569,
      "̌": 570,
      "̍": 571,
      "̎": 572,
      "̏": 573,
      "̐": 574,
      "̑": 575,
      "̓": 576,
      "̖": 577,
      "̗": 578,
      "̝": 579,
      "̡": 580,
      "̣": 581,
      "̤": 582,
      "̥": 583,
      "̧": 584,
      "̨": 585,
      "̩": 586,
      "̪": 587,
      "̫": 588,
      "̬": 589,
      "̯": 590,
      "̰": 591,
      "̱": 592,
      "̲": 593,
      "̳": 594,
      "̴": 595,
      "̵": 596,
      "̶": 597,
      "̷": 598,
      "̸": 599,
      "̹": 600,
      "̺": 601,
      "̻": 602,
      "̼": 603,
      "̽": 604,
      "̾": 605,
      "̿": 606,
      "́": 607,
      "͂": 608,
      "̓": 609,
      "͊": 610,
      "͋": 611,
      "͍": 612,
      "͎": 613,
      "͕": 614,
      "͡": 615,
      "ͣ": 616,
      "ͤ": 617,
      "ͥ": 618,
      "ͨ": 619,
      "ͬ": 620,
      "ͭ": 621,
      "ͯ": 622,
      "Ͱ": 623,
      "ͱ": 624,
      "Ͳ": 625,
      "ͳ": 626,
      "ʹ": 627,
      "͵": 628,
      "Ͷ": 629,
      "ͷ": 630,
      "͸": 631,
      "͹": 632,
      "ͺ": 633,
      "ͻ": 634,
      "ͼ": 635,
      "ͽ": 636,
      ";": 637,
      "Ϳ": 638,
      "΄": 639,
      "Ό": 640,
      "Ώ": 641,
      "Α": 642,
      "Β": 643,
      "Γ": 644,
      "Δ": 645,
      "Ε": 646,
      "Ζ": 647,
      "Η": 648,
      "Ι": 649,
      "Λ": 650,
      "Ν": 651,
      "Ξ": 652,
      "Ρ": 653,
      "΢": 654,
      "Σ": 655,
      "Τ": 656,
      "Υ": 657,
      "Φ": 658,
      "Χ": 659,
      "Ψ": 660,
      "Ω": 661,
      "Ϊ": 662,
      "Ϋ": 663,
      "ά": 664,
      "έ": 665,
      "ή": 666,
      "ί": 667,
      "ΰ": 668,
      "α": 669,
      "β": 670,
      "γ": 671,
      "δ": 672,
      "ε": 673,
      "ζ": 674,
      "η": 675,
      "θ": 676,
      "ι": 677,
      "κ": 678,
      "λ": 679,
      "μ": 680,
      "ν": 681,
      "ξ": 682,
      "ο": 683,
      "π": 684,
      "ρ": 685,
      "ς": 686,
      "σ": 687,
      "υ": 688,
      "φ": 689,
      "χ": 690,
      "ψ": 691,
      "ω": 692,
      "ύ": 693,
      "ώ": 694,
      "ϡ": 695,
      "Ϣ": 696,
      "ϣ": 697,
      "Ϥ": 698,
      "ϥ": 699,
      "ϧ": 700,
      "ϩ": 701,
      "ϫ": 702,
      "ϭ": 703,
      "Ϯ": 704,
      "ϯ": 705,
      "ϰ": 706,
      "ϱ": 707,
      "ϲ": 708,
      "ϳ": 709,
      "ϴ": 710,
      "ϵ": 711,
      "϶": 712,
      "Ϸ": 713,
      "ϸ": 714,
      "Ϲ": 715,
      "Ϻ": 716,
      "ϻ": 717,
      "ϼ": 718,
      "Ͻ": 719,
      "Ͼ": 720,
      "Ͽ": 721,
      "Ђ": 722,
      "Ѓ": 723,
      "Ѕ": 724,
      "І": 725,
      "Љ": 726,
      "А": 727,
      "Б": 728,
      "В": 729,
      "Г": 730,
      "Д": 731,
      "Ж": 732,
      "З": 733,
      "И": 734,
      "Й": 735,
      "К": 736,
      "М": 737,
      "О": 738,
      "П": 739,
      "Р": 740,
      "С": 741,
      "Т": 742,
      "У": 743,
      "Ф": 744,
      "Х": 745,
      "Ц": 746,
      "Ч": 747,
      "Щ": 748,
      "Ь": 749,
      "Э": 750,
      "Ю": 751,
      "а": 752,
      "б": 753,
      "в": 754,
      "г": 755,
      "д": 756,
      "е": 757,
      "ж": 758,
      "з": 759,
      "и": 760,
      "й": 761,
      "к": 762,
      "л": 763,
      "м": 764,
      "н": 765,
      "о": 766,
      "п": 767,
      "р": 768,
      "с": 769,
      "т": 770,
      "у": 771,
      "ф": 772,
      "х": 773,
      "ц": 774,
      "ч": 775,
      "ш": 776,
      "щ": 777,
      "ъ": 778,
      "ы": 779,
      "ь": 780,
      "э": 781,
      "ю": 782,
      "я": 783,
      "ё": 784,
      "ѓ": 785,
      "є": 786,
      "ѕ": 787,
      "і": 788,
      "ї": 789,
      "ј": 790,
      "њ": 791,
      "ќ": 792,
      "ѡ": 793,
      "Ѥ": 794,
      "ѥ": 795,
      "ѧ": 796,
      "Ѫ": 797,
      "ѭ": 798,
      "Ѯ": 799,
      "ѯ": 800,
      "Ѱ": 801,
      "ѱ": 802,
      "Ѳ": 803,
      "ѳ": 804,
      "Ѵ": 805,
      "ѵ": 806,
      "Ѷ": 807,
      "Ѹ": 808,
      "ѹ": 809,
      "Ѻ": 810,
      "ѻ": 811,
      "Ѽ": 812,
      "ѽ": 813,
      "Ѿ": 814,
      "ѿ": 815,
      "ҁ": 816,
      "Ґ": 817,
      "ґ": 818,
      "Қ": 819,
      "қ": 820,
      "ҝ": 821,
      "ҡ": 822,
      "ң": 823,
      "Ҥ": 824,
      "ҥ": 825,
      "Ҧ": 826,
      "ҧ": 827,
      "ҩ": 828,
      "Ҫ": 829,
      "ҫ": 830,
      "ү": 831,
      "Ұ": 832,
      "ұ": 833,
      "Ҳ": 834,
      "ҳ": 835,
      "Ҵ": 836,
      "ҵ": 837,
      "Ҷ": 838,
      "ҷ": 839,
      "Ҹ": 840,
      "ҹ": 841,
      "Һ": 842,
      "һ": 843,
      "Ҽ": 844,
      "ҽ": 845,
      "Ҿ": 846,
      "ҿ": 847,
      "ә": 848,
      "Ӝ": 849,
      "ӡ": 850,
      "Ӣ": 851,
      "ӣ": 852,
      "Ӥ": 853,
      "ӥ": 854,
      "Ӧ": 855,
      "Ӫ": 856,
      "ӭ": 857,
      "ӯ": 858,
      "Ӱ": 859,
      "ӱ": 860,
      "Ӳ": 861,
      "ӳ": 862,
      "Ӵ": 863,
      "ӵ": 864,
      "Ӷ": 865,
      "ӷ": 866,
      "Ӹ": 867,
      "ӹ": 868,
      "Ӻ": 869,
      "ӻ": 870,
      "Ӽ": 871,
      "ӽ": 872,
      "Ӿ": 873,
      "ӿ": 874,
      "ԃ": 875,
      "Ԕ": 876,
      "ԡ": 877,
      "ԣ": 878,
      "Ԥ": 879,
      "ԥ": 880,
      "ԩ": 881,
      "Ԫ": 882,
      "ԫ": 883,
      "ԭ": 884,
      "԰": 885,
      "Ա": 886,
      "Բ": 887,
      "Դ": 888,
      "Ե": 889,
      "Զ": 890,
      "Է": 891,
      "Ը": 892,
      "Թ": 893,
      "Ժ": 894,
      "Ի": 895,
      "Լ": 896,
      "Խ": 897,
      "Ծ": 898,
      "Կ": 899,
      "Հ": 900,
      "Ձ": 901,
      "Ղ": 902,
      "Յ": 903,
      "Շ": 904,
      "Ո": 905,
      "Վ": 906,
      "Ւ": 907,
      "ա": 908,
      "բ": 909,
      "գ": 910,
      "դ": 911,
      "ե": 912,
      "զ": 913,
      "թ": 914,
      "ժ": 915,
      "ի": 916,
      "լ": 917,
      "ծ": 918,
      "կ": 919,
      "հ": 920,
      "ձ": 921,
      "ղ": 922,
      "ճ": 923,
      "մ": 924,
      "յ": 925,
      "ն": 926,
      "շ": 927,
      "ո": 928,
      "չ": 929,
      "ջ": 930,
      "ռ": 931,
      "ս": 932,
      "վ": 933,
      "տ": 934,
      "ր": 935,
      "ւ": 936,
      "փ": 937,
      "ք": 938,
      "֌": 939,
      "֎": 940,
      "֡": 941,
      "֣": 942,
      "֤": 943,
      "֥": 944,
      "֦": 945,
      "֧": 946,
      "֪": 947,
      "֫": 948,
      "֮": 949,
      "֯": 950,
      "ְ": 951,
      "ֱ": 952,
      "ֲ": 953,
      "ֳ": 954,
      "ִ": 955,
      "ֵ": 956,
      "ֶ": 957,
      "ַ": 958,
      "ָ": 959,
      "ֹ": 960,
      "ֺ": 961,
      "ֻ": 962,
      "ּ": 963,
      "ֽ": 964,
      "ֿ": 965,
      "ׁ": 966,
      "׊": 967,
      "א": 968,
      "ב": 969,
      "ג": 970,
      "ד": 971,
      "ה": 972,
      "ו": 973,
      "ז": 974,
      "ח": 975,
      "ט": 976,
      "י": 977,
      "כ": 978,
      "ל": 979,
      "ם": 980,
      "מ": 981,
      "ן": 982,
      "נ": 983,
      "ס": 984,
      "ע": 985,
      "ף": 986,
      "פ": 987,
      "ץ": 988,
      "צ": 989,
      "ק": 990,
      "ר": 991,
      "ש": 992,
      "ת": 993,
      "׫": 994,
      "׮": 995,
      "ׯ": 996,
      "װ": 997,
      "ױ": 998,
      "ײ": 999,
      "׳": 1000,
      "״": 1001,
      "׵": 1002,
      "׶": 1003,
      "׷": 1004,
      "׸": 1005,
      "׹": 1006,
      "׺": 1007,
      "׻": 1008,
      "׼": 1009,
      "׽": 1010,
      "׾": 1011,
      "׿": 1012,
      "؁": 1013,
      "؂": 1014,
      "،": 1015,
      "ؐ": 1016,
      "ؒ": 1017,
      "ؕ": 1018,
      "؟": 1019,
      "ء": 1020,
      "آ": 1021,
      "أ": 1022,
      "ؤ": 1023,
      "إ": 1024,
      "ا": 1025,
      "ب": 1026,
      "ة": 1027,
      "ت": 1028,
      "ج": 1029,
      "ح": 1030,
      "د": 1031,
      "ذ": 1032,
      "ر": 1033,
      "ز": 1034,
      "س": 1035,
      "ش": 1036,
      "ص": 1037,
      "ض": 1038,
      "ط": 1039,
      "ظ": 1040,
      "ع": 1041,
      "غ": 1042,
      "ػ": 1043,
      "ؼ": 1044,
      "ؽ": 1045,
      "ؾ": 1046,
      "ؿ": 1047,
      "ـ": 1048,
      "ف": 1049,
      "ق": 1050,
      "ك": 1051,
      "ل": 1052,
      "م": 1053,
      "ن": 1054,
      "ه": 1055,
      "و": 1056,
      "ي": 1057,
      "ْ": 1058,
      "١": 1059,
      "٣": 1060,
      "٤": 1061,
      "٥": 1062,
      "ٮ": 1063,
      "ٰ": 1064,
      "ٱ": 1065,
      "ٲ": 1066,
      "ٳ": 1067,
      "ٴ": 1068,
      "ٶ": 1069,
      "ٷ": 1070,
      "ٸ": 1071,
      "ٹ": 1072,
      "ٺ": 1073,
      "ٻ": 1074,
      "ټ": 1075,
      "ٽ": 1076,
      "پ": 1077,
      "ځ": 1078,
      "ڂ": 1079,
      "ڄ": 1080,
      "چ": 1081,
      "ڌ": 1082,
      "ڡ": 1083,
      "ڣ": 1084,
      "ڤ": 1085,
      "ڥ": 1086,
      "ڧ": 1087,
      "ک": 1088,
      "ڭ": 1089,
      "گ": 1090,
      "ڰ": 1091,
      "ڱ": 1092,
      "ڲ": 1093,
      "ڳ": 1094,
      "ڴ": 1095,
      "ڵ": 1096,
      "ڶ": 1097,
      "ڷ": 1098,
      "ڸ": 1099,
      "ڹ": 1100,
      "ں": 1101,
      "ڻ": 1102,
      "ڼ": 1103,
      "ڽ": 1104,
      "ھ": 1105,
      "ڿ": 1106,
      "ۃ": 1107,
      "ۊ": 1108,
      "ی": 1109,
      "ێ": 1110,
      "ې": 1111,
      "ۑ": 1112,
      "ۘ": 1113,
      "ۚ": 1114,
      "ۛ": 1115,
      "ۡ": 1116,
      "ۣ": 1117,
      "ۤ": 1118,
      "ۥ": 1119,
      "ۧ": 1120,
      "ۨ": 1121,
      "۱": 1122,
      "۲": 1123,
      "۳": 1124,
      "۴": 1125,
      "۵": 1126,
      "۶": 1127,
      "۷": 1128,
      "۸": 1129,
      "۹": 1130,
      "ۺ": 1131,
      "ۻ": 1132,
      "ۼ": 1133,
      "۽": 1134,
      "۾": 1135,
      "ۿ": 1136,
      "܁": 1137,
      "܂": 1138,
      "ܗ": 1139,
      "ܡ": 1140,
      "ܣ": 1141,
      "ܤ": 1142,
      "ܥ": 1143,
      "ܰ": 1144,
      "ܱ": 1145,
      "ܲ": 1146,
      "ܳ": 1147,
      "ܴ": 1148,
      "ܵ": 1149,
      "ܶ": 1150,
      "ܷ": 1151,
      "ܸ": 1152,
      "ܹ": 1153,
      "ܺ": 1154,
      "ܻ": 1155,
      "ܼ": 1156,
      "ܽ": 1157,
      "ܾ": 1158,
      "ܿ": 1159,
      "݌": 1160,
      "ݡ": 1161,
      "ݣ": 1162,
      "ݤ": 1163,
      "ݥ": 1164,
      "ݮ": 1165,
      "ݰ": 1166,
      "ݱ": 1167,
      "ݲ": 1168,
      "ݳ": 1169,
      "ݴ": 1170,
      "ݵ": 1171,
      "ݶ": 1172,
      "ݷ": 1173,
      "ݸ": 1174,
      "ݹ": 1175,
      "ݺ": 1176,
      "ݻ": 1177,
      "ݼ": 1178,
      "ݽ": 1179,
      "ݾ": 1180,
      "ݿ": 1181,
      "ށ": 1182,
      "ނ": 1183,
      "ޗ": 1184,
      "ޡ": 1185,
      "ޣ": 1186,
      "ޤ": 1187,
      "ޥ": 1188,
      "ް": 1189,
      "ޱ": 1190,
      "޳": 1191,
      "޴": 1192,
      "޶": 1193,
      "޷": 1194,
      "޸": 1195,
      "޹": 1196,
      "޺": 1197,
      "޻": 1198,
      "޼": 1199,
      "޽": 1200,
      "޾": 1201,
      "޿": 1202,
      "߁": 1203,
      "ߡ": 1204,
      "ߣ": 1205,
      "ߤ": 1206,
      "ߥ": 1207,
      "߰": 1208,
      "߱": 1209,
      "߲": 1210,
      "߳": 1211,
      "ߴ": 1212,
      "ߵ": 1213,
      "߶": 1214,
      "߷": 1215,
      "߸": 1216,
      "߹": 1217,
      "ߺ": 1218,
      "߻": 1219,
      "߼": 1220,
      "߽": 1221,
      "߾": 1222,
      "߿": 1223,
      "ࡢ": 1224,
      "ࡣ": 1225,
      "ࡦ": 1226,
      "ࡱ": 1227,
      "ࡼ": 1228,
      "ं": 1229,
      "ः": 1230,
      "आ": 1231,
      "क": 1232,
      "ग": 1233,
      "ङ": 1234,
      "ठ": 1235,
      "त": 1236,
      "द": 1237,
      "न": 1238,
      "प": 1239,
      "ब": 1240,
      "म": 1241,
      "र": 1242,
      "ल": 1243,
      "श": 1244,
      "ह": 1245,
      "ा": 1246,
      "ि": 1247,
      "ी": 1248,
      "े": 1249,
      "ो": 1250,
      "्": 1251,
      "ॹ": 1252,
      "ॺ": 1253,
      "ং": 1254,
      "ব": 1255,
      "ল": 1256,
      "া": 1257,
      "ਕ": 1258,
      "ਗ": 1259,
      "ਜ": 1260,
      "ਟ": 1261,
      "ਠ": 1262,
      "ਤ": 1263,
      "ਪ": 1264,
      "ਫ": 1265,
      "ਬ": 1266,
      "ਰ": 1267,
      "ਵ": 1268,
      "ਾ": 1269,
      "ੀ": 1270,
      "ੋ": 1271,
      "ੰ": 1272,
      "ગ": 1273,
      "જ": 1274,
      "ટ": 1275,
      "ત": 1276,
      "પ": 1277,
      "ફ": 1278,
      "બ": 1279,
      "ર": 1280,
      "લ": 1281,
      "શ": 1282,
      "સ": 1283,
      "ા": 1284,
      "ી": 1285,
      "ુ": 1286,
      "ો": 1287,
      "્": 1288,
      "ஐ": 1289,
      "ண": 1290,
      "த": 1291,
      "ந": 1292,
      "ம": 1293,
      "ய": 1294,
      "ழ": 1295,
      "ா": 1296,
      "ி": 1297,
      "்": 1298,
      "గ": 1299,
      "త": 1300,
      "ల": 1301,
      "ు": 1302,
      "ె": 1303,
      "౸": 1304,
      "౿": 1305,
      "ಂ": 1306,
      "ಕ": 1307,
      "ಚ": 1308,
      "ಡ": 1309,
      "ನ": 1310,
      "ಿ": 1311,
      "ು": 1312,
      "್": 1313,
      "ം": 1314,
      "ച": 1315,
      "ത": 1316,
      "മ": 1317,
      "യ": 1318,
      "ല": 1319,
      "ള": 1320,
      "ഺ": 1321,
      "ാ": 1322,
      "ി": 1323,
      "൨": 1324,
      "ං": 1325,
      "ආ": 1326,
      "ඉ": 1327,
      "ණ": 1328,
      "ත": 1329,
      "ද": 1330,
      "න": 1331,
      "ම": 1332,
      "ය": 1333,
      "ර": 1334,
      "ල": 1335,
      "ව": 1336,
      "ස": 1337,
      "හ": 1338,
      "්": 1339,
      "ා": 1340,
      "ි": 1341,
      "ෲ": 1342,
      "෽": 1343,
      "ก": 1344,
      "ข": 1345,
      "ง": 1346,
      "ช": 1347,
      "ฒ": 1348,
      "ด": 1349,
      "ต": 1350,
      "ถ": 1351,
      "ท": 1352,
      "ธ": 1353,
      "น": 1354,
      "บ": 1355,
      "ฝ": 1356,
      "ภ": 1357,
      "ม": 1358,
      "ย": 1359,
      "ร": 1360,
      "ฦ": 1361,
      "ว": 1362,
      "ศ": 1363,
      "ษ": 1364,
      "ส": 1365,
      "ห": 1366,
      "อ": 1367,
      "ั": 1368,
      "า": 1369,
      "ิ": 1370,
      "ี": 1371,
      "ึ": 1372,
      "ู": 1373,
      "฿": 1374,
      "เ": 1375,
      "แ": 1376,
      "ใ": 1377,
      "ไ": 1378,
      "่": 1379,
      "้": 1380,
      "์": 1381,
      "ພ": 1382,
      "ລ": 1383,
      "ວ": 1384,
      "ສ": 1385,
      "າ": 1386,
      "ູ": 1387,
      "༭": 1388,
      "࿴": 1389,
      "စ": 1390,
      "န": 1391,
      "မ": 1392,
      "ာ": 1393,
      "်": 1394,
      "ြ": 1395,
      "ა": 1396,
      "დ": 1397,
      "თ": 1398,
      "ი": 1399,
      "კ": 1400,
      "ლ": 1401,
      "რ": 1402,
      "უ": 1403,
      "ქ": 1404,
      "ღ": 1405,
      "ሄ": 1406,
      "ህ": 1407,
      "መ": 1408,
      "ማ": 1409,
      "ሩ": 1410,
      "ር": 1411,
      "ስ": 1412,
      "ሺ": 1413,
      "ሽ": 1414,
      "ቀ": 1415,
      "ቃ": 1416,
      "ቅ": 1417,
      "በ": 1418,
      "ብ": 1419,
      "ቦ": 1420,
      "ታ": 1421,
      "ት": 1422,
      "ቶ": 1423,
      "ን": 1424,
      "ኛ": 1425,
      "አ": 1426,
      "ኢ": 1427,
      "ክ": 1428,
      "ደ": 1429,
      "ድ": 1430,
      "ገ": 1431,
      "ግ": 1432,
      "ጥ": 1433,
      "ፍ": 1434,
      "ፎ": 1435,
      "Ꭲ": 1436,
      "ខ": 1437,
      "ត": 1438,
      "ថ": 1439,
      "ភ": 1440,
      "ម": 1441,
      "រ": 1442,
      "ល": 1443,
      "ស": 1444,
      "ា": 1445,
      "ែ": 1446,
      "ៃ": 1447,
      "្": 1448,
      "០": 1449,
      "៣": 1450,
      "៦": 1451,
      "ᡢ": 1452,
      "ᡣ": 1453,
      "᡼": 1454,
      "ᣬ": 1455,
      "᣺": 1456,
      "᣻": 1457,
      "ᤫ": 1458,
      "᤮": 1459,
      "ᤷ": 1460,
      "᤿": 1461,
      "ᥙ": 1462,
      "ᥤ": 1463,
      "ᥫ": 1464,
      "ᥬ": 1465,
      "ᨁ": 1466,
      "ᨅ": 1467,
      "ᨔ": 1468,
      "ᨕ": 1469,
      "ᨗ": 1470,
      "ᨘ": 1471,
      "ᰡ": 1472,
      "ᱛ": 1473,
      "ᱟ": 1474,
      "ᱤ": 1475,
      "ᱥ": 1476,
      "ᱱ": 1477,
      "ᱲ": 1478,
      "ᱹ": 1479,
      "Ტ": 1480,
      "ᵃ": 1481,
      "ᵐ": 1482,
      "ᵒ": 1483,
      "ᵗ": 1484,
      "ᵳ": 1485,
      "ᵾ": 1486,
      "ᶙ": 1487,
      "ᶤ": 1488,
      "ᶨ": 1489,
      "ᷢ": 1490,
      "Ḁ": 1491,
      "ḁ": 1492,
      "ḃ": 1493,
      "ḅ": 1494,
      "ḇ": 1495,
      "ḉ": 1496,
      "ḋ": 1497,
      "ḍ": 1498,
      "ḏ": 1499,
      "ḑ": 1500,
      "ḓ": 1501,
      "ḕ": 1502,
      "ḗ": 1503,
      "ḙ": 1504,
      "ḛ": 1505,
      "ḝ": 1506,
      "ḟ": 1507,
      "ḡ": 1508,
      "ḣ": 1509,
      "Ḥ": 1510,
      "ḥ": 1511,
      "Ḧ": 1512,
      "ḧ": 1513,
      "ḩ": 1514,
      "ḫ": 1515,
      "ḭ": 1516,
      "ḯ": 1517,
      "ḱ": 1518,
      "ḳ": 1519,
      "ḵ": 1520,
      "Ḷ": 1521,
      "ḷ": 1522,
      "ḹ": 1523,
      "ḻ": 1524,
      "ḽ": 1525,
      "Ḿ": 1526,
      "ḿ": 1527,
      "ṁ": 1528,
      "ṃ": 1529,
      "Ṅ": 1530,
      "ṅ": 1531,
      "ṇ": 1532,
      "ṉ": 1533,
      "ṋ": 1534,
      "ṍ": 1535,
      "ṏ": 1536,
      "ṑ": 1537,
      "ṓ": 1538,
      "ṕ": 1539,
      "ṗ": 1540,
      "ṙ": 1541,
      "ṛ": 1542,
      "ṝ": 1543,
      "ṟ": 1544,
      "ṡ": 1545,
      "Ṣ": 1546,
      "ṣ": 1547,
      "Ṥ": 1548,
      "ṥ": 1549,
      "ṧ": 1550,
      "ṩ": 1551,
      "ṫ": 1552,
      "Ṭ": 1553,
      "ṭ": 1554,
      "ṯ": 1555,
      "ṱ": 1556,
      "Ṳ": 1557,
      "ṳ": 1558,
      "Ṵ": 1559,
      "ṵ": 1560,
      "Ṷ": 1561,
      "ṷ": 1562,
      "Ṹ": 1563,
      "ṹ": 1564,
      "Ṻ": 1565,
      "ṻ": 1566,
      "ṽ": 1567,
      "ṿ": 1568,
      "ẁ": 1569,
      "ẃ": 1570,
      "ẅ": 1571,
      "ẇ": 1572,
      "ẉ": 1573,
      "ẋ": 1574,
      "ẍ": 1575,
      "ẏ": 1576,
      "ẑ": 1577,
      "Ẓ": 1578,
      "ẓ": 1579,
      "ẕ": 1580,
      "ẖ": 1581,
      "ẗ": 1582,
      "ẘ": 1583,
      "ẙ": 1584,
      "ẚ": 1585,
      "ẜ": 1586,
      "ẝ": 1587,
      "ẟ": 1588,
      "Ạ": 1589,
      "ạ": 1590,
      "Ả": 1591,
      "ả": 1592,
      "Ấ": 1593,
      "ấ": 1594,
      "Ầ": 1595,
      "ầ": 1596,
      "Ẩ": 1597,
      "ẩ": 1598,
      "Ẫ": 1599,
      "ẫ": 1600,
      "Ậ": 1601,
      "ậ": 1602,
      "Ắ": 1603,
      "ắ": 1604,
      "Ằ": 1605,
      "ằ": 1606,
      "Ẳ": 1607,
      "ẳ": 1608,
      "Ẵ": 1609,
      "ẵ": 1610,
      "Ặ": 1611,
      "ặ": 1612,
      "Ẹ": 1613,
      "ẹ": 1614,
      "ẻ": 1615,
      "ẽ": 1616,
      "ế": 1617,
      "ề": 1618,
      "ể": 1619,
      "ễ": 1620,
      "ệ": 1621,
      "Ỉ": 1622,
      "ỉ": 1623,
      "Ị": 1624,
      "ị": 1625,
      "Ọ": 1626,
      "ọ": 1627,
      "Ỏ": 1628,
      "ỏ": 1629,
      "Ố": 1630,
      "ố": 1631,
      "Ồ": 1632,
      "ồ": 1633,
      "Ổ": 1634,
      "ổ": 1635,
      "Ỗ": 1636,
      "ỗ": 1637,
      "Ộ": 1638,
      "ộ": 1639,
      "Ớ": 1640,
      "ớ": 1641,
      "Ờ": 1642,
      "ờ": 1643,
      "Ở": 1644,
      "ở": 1645,
      "Ỡ": 1646,
      "ỡ": 1647,
      "Ợ": 1648,
      "ợ": 1649,
      "Ụ": 1650,
      "ụ": 1651,
      "Ủ": 1652,
      "ủ": 1653,
      "Ứ": 1654,
      "ứ": 1655,
      "Ừ": 1656,
      "ừ": 1657,
      "Ử": 1658,
      "ử": 1659,
      "Ữ": 1660,
      "ữ": 1661,
      "Ự": 1662,
      "ự": 1663,
      "Ỳ": 1664,
      "ỳ": 1665,
      "Ỵ": 1666,
      "ỵ": 1667,
      "Ỷ": 1668,
      "ỷ": 1669,
      "ỹ": 1670,
      "ỻ": 1671,
      "ỽ": 1672,
      "ỿ": 1673,
      "ἀ": 1674,
      "ἁ": 1675,
      "ἂ": 1676,
      "ἃ": 1677,
      "ἄ": 1678,
      "ἅ": 1679,
      "ἆ": 1680,
      "ἇ": 1681,
      "Ἀ": 1682,
      "Ἁ": 1683,
      "Ἂ": 1684,
      "Ἃ": 1685,
      "Ἄ": 1686,
      "Ἅ": 1687,
      "Ἆ": 1688,
      "Ἇ": 1689,
      "ὐ": 1690,
      "ὑ": 1691,
      "ὒ": 1692,
      "ὓ": 1693,
      "ὔ": 1694,
      "ὕ": 1695,
      "ὖ": 1696,
      "ὗ": 1697,
      "Ὠ": 1698,
      "ὰ": 1699,
      "ά": 1700,
      "ό": 1701,
      "ὺ": 1702,
      "ύ": 1703,
      "ᾀ": 1704,
      "ᾁ": 1705,
      "ᾂ": 1706,
      "ᾃ": 1707,
      "ᾄ": 1708,
      "ᾅ": 1709,
      "ᾆ": 1710,
      "ᾇ": 1711,
      "ᾈ": 1712,
      "ᾉ": 1713,
      "ᾊ": 1714,
      "ᾋ": 1715,
      "ᾌ": 1716,
      "ᾍ": 1717,
      "ᾎ": 1718,
      "ᾏ": 1719,
      "ᾰ": 1720,
      "ᾱ": 1721,
      "ᾲ": 1722,
      "ᾳ": 1723,
      "ᾴ": 1724,
      "᾵": 1725,
      "ᾶ": 1726,
      "ᾷ": 1727,
      "Ᾰ": 1728,
      "Ᾱ": 1729,
      "Ὰ": 1730,
      "Ά": 1731,
      "ᾼ": 1732,
      "Ὶ": 1733,
      "Ί": 1734,
      "῝": 1735,
      "῞": 1736,
      "῟": 1737,
      "ῠ": 1738,
      "ῡ": 1739,
      "ῢ": 1740,
      "ΰ": 1741,
      "ῤ": 1742,
      "ῥ": 1743,
      "ῦ": 1744,
      "ῧ": 1745,
      "Ῠ": 1746,
      "Ῡ": 1747,
      "Ὺ": 1748,
      "​": 1749,
      "‌": 1750,
      "‍": 1751,
      "‎": 1752,
      "‏": 1753,
      "‐": 1754,
      "‑": 1755,
      "‒": 1756,
      "–": 1757,
      "—": 1758,
      "―": 1759,
      "‘": 1760,
      "’": 1761,
      "‚": 1762,
      "‛": 1763,
      "“": 1764,
      "”": 1765,
      "„": 1766,
      "‟": 1767,
      "†": 1768,
      "‡": 1769,
      "•": 1770,
      "․": 1771,
      "…": 1772,
      "‧": 1773,
      "‬": 1774,
      "‰": 1775,
      "′": 1776,
      "″": 1777,
      "‹": 1778,
      "›": 1779,
      "※": 1780,
      "‿": 1781,
      "⁀": 1782,
      "⁄": 1783,
      "⁠": 1784,
      "⁺": 1785,
      "₂": 1786,
      "₃": 1787,
      "₄": 1788,
      "ₐ": 1789,
      "ₒ": 1790,
      "ₕ": 1791,
      "ₙ": 1792,
      "₦": 1793,
      "₪": 1794,
      "€": 1795,
      "₱": 1796,
      "₷": 1797,
      "₹": 1798,
      "₺": 1799,
      "⃣": 1800,
      "℃": 1801,
      "℉": 1802,
      "№": 1803,
      "™": 1804,
      "⅓": 1805,
      "Ⅰ": 1806,
      "Ⅱ": 1807,
      "Ⅲ": 1808,
      "Ⅳ": 1809,
      "Ⅿ": 1810,
      "ⅼ": 1811,
      "←": 1812,
      "↑": 1813,
      "→": 1814,
      "↓": 1815,
      "↩": 1816,
      "⇐": 1817,
      "⇒": 1818,
      "⇧": 1819,
      "⇨": 1820,
      "⇩": 1821,
      "∎": 1822,
      "−": 1823,
      "∙": 1824,
      "√": 1825,
      "∞": 1826,
      "∥": 1827,
      "∫": 1828,
      "≈": 1829,
      "≡": 1830,
      "≤": 1831,
      "≥": 1832,
      "⊥": 1833,
      "⋆": 1834,
      "⌘": 1835,
      "⌛": 1836,
      "⏩": 1837,
      "①": 1838,
      "②": 1839,
      "③": 1840,
      "④": 1841,
      "⑤": 1842,
      "⑥": 1843,
      "⑴": 1844,
      "⑵": 1845,
      "⑶": 1846,
      "⑷": 1847,
      "⓵": 1848,
      "⓷": 1849,
      "⓸": 1850,
      "⓹": 1851,
      "⓽": 1852,
      "─": 1853,
      "│": 1854,
      "┃": 1855,
      "═": 1856,
      "║": 1857,
      "╔": 1858,
      "╗": 1859,
      "╙": 1860,
      "╚": 1861,
      "╜": 1862,
      "╝": 1863,
      "▀": 1864,
      "▄": 1865,
      "█": 1866,
      "▌": 1867,
      "▐": 1868,
      "░": 1869,
      "▒": 1870,
      "▓": 1871,
      "■": 1872,
      "□": 1873,
      "▪": 1874,
      "▲": 1875,
      "△": 1876,
      "▶": 1877,
      "▷": 1878,
      "▸": 1879,
      "►": 1880,
      "▼": 1881,
      "▽": 1882,
      "▾": 1883,
      "◀": 1884,
      "◄": 1885,
      "◆": 1886,
      "◇": 1887,
      "◊": 1888,
      "○": 1889,
      "◎": 1890,
      "●": 1891,
      "◪": 1892,
      "◯": 1893,
      "☀": 1894,
      "☁": 1895,
      "★": 1896,
      "☆": 1897,
      "☑": 1898,
      "☞": 1899,
      "☤": 1900,
      "♠": 1901,
      "♡": 1902,
      "♣": 1903,
      "♥": 1904,
      "♦": 1905,
      "♪": 1906,
      "⚙": 1907,
      "⚠": 1908,
      "⚫": 1909,
      "✅": 1910,
      "✉": 1911,
      "✓": 1912,
      "✔": 1913,
      "✖": 1914,
      "✗": 1915,
      "✨": 1916,
      "✯": 1917,
      "✳": 1918,
      "✿": 1919,
      "❀": 1920,
      "❏": 1921,
      "❑": 1922,
      "❖": 1923,
      "❝": 1924,
      "❞": 1925,
      "❤": 1926,
      "❯": 1927,
      "➡": 1928,
      "➤": 1929,
      "➥": 1930,
      "➹": 1931,
      "⟵": 1932,
      "⟶": 1933,
      "⠀": 1934,
      "⡢": 1935,
      "⡣": 1936,
      "⡦": 1937,
      "⡼": 1938,
      "⣬": 1939,
      "⣺": 1940,
      "⤓": 1941,
      "⤤": 1942,
      "⤦": 1943,
      "⤳": 1944,
      "⥢": 1945,
      "⥶": 1946,
      "⥻": 1947,
      "⨯": 1948,
      "⭐": 1949,
      "Ⱑ": 1950,
      "Ⱓ": 1951,
      "Ⱝ": 1952,
      "Ᵽ": 1953,
      "ⱼ": 1954,
      "Ⲣ": 1955,
      "⳥": 1956,
      "⳰": 1957,
      "⳵": 1958,
      "ⴴ": 1959,
      "ⵡ": 1960,
      "⵵": 1961,
      "⵽": 1962,
      "⶧": 1963,
      "ⶳ": 1964,
      "ⷢ": 1965,
      "ⷨ": 1966,
      "⸄": 1967,
      "⸅": 1968,
      "⹤": 1969,
      "⹮": 1970,
      "⹰": 1971,
      "⹻": 1972,
      "⺭": 1973,
      "⺻": 1974,
      "⼯": 1975,
      "⼰": 1976,
      "⼸": 1977,
      "⽭": 1978,
      "⽵": 1979,
      "⾮": 1980,
      "、": 1981,
      "。": 1982,
      "〇": 1983,
      "〉": 1984,
      "《": 1985,
      "》": 1986,
      "「": 1987,
      "」": 1988,
      "』": 1989,
      "【": 1990,
      "】": 1991,
      "〒": 1992,
      "〜": 1993,
      "あ": 1994,
      "い": 1995,
      "う": 1996,
      "え": 1997,
      "お": 1998,
      "か": 1999,
      "が": 2000,
      "ぎ": 2001,
      "く": 2002,
      "さ": 2003,
      "じ": 2004,
      "ち": 2005,
      "つ": 2006,
      "づ": 2007,
      "て": 2008,
      "で": 2009,
      "と": 2010,
      "に": 2011,
      "ね": 2012,
      "の": 2013,
      "は": 2014,
      "む": 2015,
      "め": 2016,
      "ゃ": 2017,
      "ゅ": 2018,
      "ょ": 2019,
      "ら": 2020,
      "る": 2021,
      "れ": 2022,
      "を": 2023,
      "ん": 2024,
      "ァ": 2025,
      "ア": 2026,
      "ィ": 2027,
      "イ": 2028,
      "ゥ": 2029,
      "ウ": 2030,
      "ェ": 2031,
      "エ": 2032,
      "ォ": 2033,
      "オ": 2034,
      "カ": 2035,
      "キ": 2036,
      "コ": 2037,
      "ゴ": 2038,
      "シ": 2039,
      "ス": 2040,
      "ズ": 2041,
      "セ": 2042,
      "タ": 2043,
      "チ": 2044,
      "ッ": 2045,
      "テ": 2046,
      "デ": 2047,
      "ト": 2048,
      "バ": 2049,
      "パ": 2050,
      "フ": 2051,
      "ブ": 2052,
      "ベ": 2053,
      "ボ": 2054,
      "マ": 2055,
      "メ": 2056,
      "ョ": 2057,
      "リ": 2058,
      "ル": 2059,
      "レ": 2060,
      "ロ": 2061,
      "ン": 2062,
      "・": 2063,
      "ー": 2064,
      "ㄩ": 2065,
      "㎜": 2066,
      "㎡": 2067,
      "㡣": 2068,
      "㣬": 2069,
      "㣱": 2070,
      "㣺": 2071,
      "㤤": 2072,
      "㥫": 2073,
      "㥵": 2074,
      "㥻": 2075,
      "㰮": 2076,
      "㲼": 2077,
      "㲿": 2078,
      "㳡": 2079,
      "㳲": 2080,
      "㴳": 2081,
      "㵤": 2082,
      "㵺": 2083,
      "㵽": 2084,
      "㶫": 2085,
      "㷢": 2086,
      "㷺": 2087,
      "㷿": 2088,
      "㸶": 2089,
      "㹥": 2090,
      "㹫": 2091,
      "㼭": 2092,
      "㼾": 2093,
      "㽭": 2094,
      "㽻": 2095,
      "㾭": 2096,
      "䡡": 2097,
      "䡢": 2098,
      "䡦": 2099,
      "䡪": 2100,
      "䡰": 2101,
      "䡼": 2102,
      "䣴": 2103,
      "䣺": 2104,
      "䤤": 2105,
      "䤵": 2106,
      "䤷": 2107,
      "䤹": 2108,
      "䤿": 2109,
      "䥤": 2110,
      "䱳": 2111,
      "䲰": 2112,
      "䳫": 2113,
      "䴬": 2114,
      "一": 2115,
      "三": 2116,
      "上": 2117,
      "下": 2118,
      "不": 2119,
      "丨": 2120,
      "个": 2121,
      "中": 2122,
      "丮": 2123,
      "丵": 2124,
      "主": 2125,
      "乫": 2126,
      "于": 2127,
      "亚": 2128,
      "亦": 2129,
      "享": 2130,
      "人": 2131,
      "代": 2132,
      "以": 2133,
      "仯": 2134,
      "件": 2135,
      "伊": 2136,
      "会": 2137,
      "伴": 2138,
      "体": 2139,
      "作": 2140,
      "佱": 2141,
      "例": 2142,
      "俄": 2143,
      "信": 2144,
      "修": 2145,
      "八": 2146,
      "公": 2147,
      "净": 2148,
      "分": 2149,
      "切": 2150,
      "列": 2151,
      "利": 2152,
      "刷": 2153,
      "刺": 2154,
      "力": 2155,
      "功": 2156,
      "加": 2157,
      "务": 2158,
      "包": 2159,
      "午": 2160,
      "卓": 2161,
      "单": 2162,
      "卡": 2163,
      "厄": 2164,
      "压": 2165,
      "厚": 2166,
      "厛": 2167,
      "原": 2168,
      "厦": 2169,
      "反": 2170,
      "古": 2171,
      "召": 2172,
      "可": 2173,
      "台": 2174,
      "号": 2175,
      "司": 2176,
      "同": 2177,
      "名": 2178,
      "员": 2179,
      "咷": 2180,
      "品": 2181,
      "哥": 2182,
      "商": 2183,
      "喜": 2184,
      "嗪": 2185,
      "器": 2186,
      "噻": 2187,
      "围": 2188,
      "型": 2189,
      "埃": 2190,
      "培": 2191,
      "基": 2192,
      "塞": 2193,
      "塢": 2194,
      "塣": 2195,
      "塧": 2196,
      "塼": 2197,
      "境": 2198,
      "增": 2199,
      "士": 2200,
      "备": 2201,
      "夏": 2202,
      "外": 2203,
      "多": 2204,
      "夜": 2205,
      "夬": 2206,
      "失": 2207,
      "头": 2208,
      "夵": 2209,
      "奎": 2210,
      "奨": 2211,
      "奴": 2212,
      "奵": 2213,
      "字": 2214,
      "安": 2215,
      "室": 2216,
      "宽": 2217,
      "寄": 2218,
      "寸": 2219,
      "寻": 2220,
      "小": 2221,
      "尔": 2222,
      "尵": 2223,
      "尺": 2224,
      "島": 2225,
      "嵥": 2226,
      "嵳": 2227,
      "川": 2228,
      "工": 2229,
      "巹": 2230,
      "巽": 2231,
      "市": 2232,
      "帲": 2233,
      "帻": 2234,
      "幕": 2235,
      "年": 2236,
      "床": 2237,
      "店": 2238,
      "府": 2239,
      "庤": 2240,
      "度": 2241,
      "廓": 2242,
      "式": 2243,
      "弭": 2244,
      "張": 2245,
      "形": 2246,
      "径": 2247,
      "後": 2248,
      "徳": 2249,
      "徺": 2250,
      "怒": 2251,
      "怖": 2252,
      "总": 2253,
      "息": 2254,
      "惊": 2255,
      "扫": 2256,
      "持": 2257,
      "挂": 2258,
      "损": 2259,
      "接": 2260,
      "掲": 2261,
      "描": 2262,
      "搶": 2263,
      "擾": 2264,
      "支": 2265,
      "救": 2266,
      "文": 2267,
      "料": 2268,
      "於": 2269,
      "日": 2270,
      "时": 2271,
      "昊": 2272,
      "春": 2273,
      "時": 2274,
      "最": 2275,
      "月": 2276,
      "有": 2277,
      "服": 2278,
      "本": 2279,
      "机": 2280,
      "李": 2281,
      "材": 2282,
      "条": 2283,
      "株": 2284,
      "格": 2285,
      "案": 2286,
      "桢": 2287,
      "档": 2288,
      "桪": 2289,
      "桱": 2290,
      "桼": 2291,
      "梅": 2292,
      "棡": 2293,
      "棬": 2294,
      "棳": 2295,
      "棴": 2296,
      "椬": 2297,
      "椺": 2298,
      "標": 2299,
      "歌": 2300,
      "歡": 2301,
      "死": 2302,
      "比": 2303,
      "毛": 2304,
      "氶": 2305,
      "汳": 2306,
      "汹": 2307,
      "沈": 2308,
      "沪": 2309,
      "泫": 2310,
      "泲": 2311,
      "浡": 2312,
      "浵": 2313,
      "浶": 2314,
      "浻": 2315,
      "液": 2316,
      "添": 2317,
      "渮": 2318,
      "渶": 2319,
      "湮": 2320,
      "溯": 2321,
      "溸": 2322,
      "满": 2323,
      "滮": 2324,
      "漢": 2325,
      "漰": 2326,
      "漴": 2327,
      "漼": 2328,
      "潻": 2329,
      "澩": 2330,
      "濡": 2331,
      "濴": 2332,
      "濵": 2333,
      "点": 2334,
      "照": 2335,
      "片": 2336,
      "版": 2337,
      "特": 2338,
      "牺": 2339,
      "独": 2340,
      "猫": 2341,
      "獨": 2342,
      "率": 2343,
      "現": 2344,
      "瓜": 2345,
      "用": 2346,
      "甲": 2347,
      "电": 2348,
      "白": 2349,
      "目": 2350,
      "直": 2351,
      "短": 2352,
      "石": 2353,
      "砸": 2354,
      "硢": 2355,
      "硦": 2356,
      "硪": 2357,
      "硰": 2358,
      "硱": 2359,
      "硼": 2360,
      "磊": 2361,
      "磬": 2362,
      "磿": 2363,
      "礬": 2364,
      "礭": 2365,
      "礹": 2366,
      "礻": 2367,
      "社": 2368,
      "祤": 2369,
      "禎": 2370,
      "积": 2371,
      "笠": 2372,
      "简": 2373,
      "管": 2374,
      "箱": 2375,
      "簢": 2376,
      "簭": 2377,
      "簳": 2378,
      "籩": 2379,
      "籫": 2380,
      "米": 2381,
      "粤": 2382,
      "糭": 2383,
      "系": 2384,
      "結": 2385,
      "絬": 2386,
      "經": 2387,
      "緽": 2388,
      "緿": 2389,
      "縩": 2390,
      "縳": 2391,
      "繁": 2392,
      "繦": 2393,
      "红": 2394,
      "绰": 2395,
      "缆": 2396,
      "缭": 2397,
      "缾": 2398,
      "罸": 2399,
      "羳": 2400,
      "翣": 2401,
      "翴": 2402,
      "肢": 2403,
      "能": 2404,
      "至": 2405,
      "芝": 2406,
      "苏": 2407,
      "范": 2408,
      "荣": 2409,
      "蛰": 2410,
      "衦": 2411,
      "表": 2412,
      "衱": 2413,
      "装": 2414,
      "褦": 2415,
      "褫": 2416,
      "褬": 2417,
      "褹": 2418,
      "褽": 2419,
      "襷": 2420,
      "见": 2421,
      "語": 2422,
      "読": 2423,
      "词": 2424,
      "语": 2425,
      "谷": 2426,
      "豸": 2427,
      "資": 2428,
      "賰": 2429,
      "赻": 2430,
      "跨": 2431,
      "踏": 2432,
      "踦": 2433,
      "軻": 2434,
      "載": 2435,
      "輪": 2436,
      "软": 2437,
      "轴": 2438,
      "轵": 2439,
      "辞": 2440,
      "近": 2441,
      "这": 2442,
      "迵": 2443,
      "送": 2444,
      "速": 2445,
      "遊": 2446,
      "道": 2447,
      "邮": 2448,
      "邽": 2449,
      "部": 2450,
      "酒": 2451,
      "里": 2452,
      "重": 2453,
      "量": 2454,
      "金": 2455,
      "鉄": 2456,
      "錾": 2457,
      "鏚": 2458,
      "链": 2459,
      "锯": 2460,
      "长": 2461,
      "關": 2462,
      "门": 2463,
      "间": 2464,
      "限": 2465,
      "集": 2466,
      "雨": 2467,
      "雪": 2468,
      "雷": 2469,
      "電": 2470,
      "霊": 2471,
      "青": 2472,
      "面": 2473,
      "顡": 2474,
      "顢": 2475,
      "顣": 2476,
      "顩": 2477,
      "顰": 2478,
      "项": 2479,
      "顼": 2480,
      "飬": 2481,
      "飺": 2482,
      "餤": 2483,
      "餪": 2484,
      "餫": 2485,
      "餹": 2486,
      "饤": 2487,
      "饯": 2488,
      "饸": 2489,
      "饹": 2490,
      "馈": 2491,
      "驗": 2492,
      "骄": 2493,
      "體": 2494,
      "魹": 2495,
      "鱣": 2496,
      "鳫": 2497,
      "鶨": 2498,
      "鷽": 2499,
      "鸦": 2500,
      "鸸": 2501,
      "麣": 2502,
      "齨": 2503,
      "齫": 2504,
      "鿡": 2505,
      "鿪": 2506,
      "鿴": 2507,
      "ꂽ": 2508,
      "ꇳ": 2509,
      "ꎞ": 2510,
      "ꗗ": 2511,
      "Ꞹ": 2512,
      "ꞹ": 2513,
      "Ꞿ": 2514,
      "ꞿ": 2515,
      "ꡡ": 2516,
      "ꡢ": 2517,
      "ꡪ": 2518,
      "ꡰ": 2519,
      "꡼": 2520,
      "꣩": 2521,
      "꣬": 2522,
      "꣺": 2523,
      "ꤦ": 2524,
      "꤬": 2525,
      "꤯": 2526,
      "ꤷ": 2527,
      "ꤿ": 2528,
      "ꥢ": 2529,
      "ꥨ": 2530,
      "ꥪ": 2531,
      "ꥫ": 2532,
      "ꥱ": 2533,
      "ꥳ": 2534,
      "ꥷ": 2535,
      "ꥸ": 2536,
      "ꥹ": 2537,
      "ꥻ": 2538,
      "꥾": 2539,
      "ꭒ": 2540,
      "갈": 2541,
      "갓": 2542,
      "걨": 2543,
      "검": 2544,
      "격": 2545,
      "계": 2546,
      "고": 2547,
      "곱": 2548,
      "공": 2549,
      "곿": 2550,
      "광": 2551,
      "괧": 2552,
      "구": 2553,
      "국": 2554,
      "굮": 2555,
      "규": 2556,
      "긲": 2557,
      "김": 2558,
      "깥": 2559,
      "깺": 2560,
      "꺸": 2561,
      "꺻": 2562,
      "껯": 2563,
      "껵": 2564,
      "꽵": 2565,
      "꾦": 2566,
      "꿬": 2567,
      "남": 2568,
      "노": 2569,
      "니": 2570,
      "독": 2571,
      "동": 2572,
      "라": 2573,
      "러": 2574,
      "레": 2575,
      "로": 2576,
      "롡": 2577,
      "롢": 2578,
      "롣": 2579,
      "롦": 2580,
      "롯": 2581,
      "롰": 2582,
      "롼": 2583,
      "뤤": 2584,
      "뤦": 2585,
      "뤪": 2586,
      "뤬": 2587,
      "뤯": 2588,
      "뤳": 2589,
      "뤷": 2590,
      "뤹": 2591,
      "뤽": 2592,
      "뤿": 2593,
      "륢": 2594,
      "륨": 2595,
      "륪": 2596,
      "륫": 2597,
      "륮": 2598,
      "륯": 2599,
      "륳": 2600,
      "른": 2601,
      "륹": 2602,
      "륻": 2603,
      "를": 2604,
      "륿": 2605,
      "림": 2606,
      "마": 2607,
      "만": 2608,
      "매": 2609,
      "먹": 2610,
      "메": 2611,
      "명": 2612,
      "모": 2613,
      "무": 2614,
      "박": 2615,
      "뱫": 2616,
      "뱸": 2617,
      "버": 2618,
      "볡": 2619,
      "볫": 2620,
      "볱": 2621,
      "보": 2622,
      "뷭": 2623,
      "뷺": 2624,
      "브": 2625,
      "븐": 2626,
      "븣": 2627,
      "븩": 2628,
      "븮": 2629,
      "븶": 2630,
      "빫": 2631,
      "빮": 2632,
      "뺸": 2633,
      "뻡": 2634,
      "뻦": 2635,
      "뻷": 2636,
      "뼪": 2637,
      "뼱": 2638,
      "뽡": 2639,
      "뽭": 2640,
      "뿩": 2641,
      "사": 2642,
      "상": 2643,
      "선": 2644,
      "세": 2645,
      "수": 2646,
      "쉬": 2647,
      "쉽": 2648,
      "스": 2649,
      "슬": 2650,
      "시": 2651,
      "신": 2652,
      "쑢": 2653,
      "아": 2654,
      "안": 2655,
      "어": 2656,
      "에": 2657,
      "역": 2658,
      "온": 2659,
      "올": 2660,
      "우": 2661,
      "울": 2662,
      "원": 2663,
      "웰": 2664,
      "윤": 2665,
      "의": 2666,
      "이": 2667,
      "인": 2668,
      "재": 2669,
      "저": 2670,
      "제": 2671,
      "졢": 2672,
      "졼": 2673,
      "주": 2674,
      "중": 2675,
      "줬": 2676,
      "줷": 2677,
      "줿": 2678,
      "쥢": 2679,
      "쥤": 2680,
      "쥯": 2681,
      "쥳": 2682,
      "쥶": 2683,
      "쥷": 2684,
      "쥹": 2685,
      "즈": 2686,
      "증": 2687,
      "지": 2688,
      "진": 2689,
      "창": 2690,
      "챨": 2691,
      "처": 2692,
      "천": 2693,
      "철": 2694,
      "쳤": 2695,
      "쳿": 2696,
      "촴": 2697,
      "최": 2698,
      "쵤": 2699,
      "쵼": 2700,
      "춘": 2701,
      "춦": 2702,
      "춭": 2703,
      "춱": 2704,
      "츮": 2705,
      "츶": 2706,
      "치": 2707,
      "칮": 2708,
      "카": 2709,
      "캔": 2710,
      "켱": 2711,
      "코": 2712,
      "콨": 2713,
      "콸": 2714,
      "콻": 2715,
      "쾩": 2716,
      "쾰": 2717,
      "쾲": 2718,
      "턴": 2719,
      "텍": 2720,
      "텔": 2721,
      "통": 2722,
      "퇴": 2723,
      "튀": 2724,
      "튜": 2725,
      "트": 2726,
      "튼": 2727,
      "평": 2728,
      "폐": 2729,
      "픽": 2730,
      "하": 2731,
      "한": 2732,
      "함": 2733,
      "항": 2734,
      "호": 2735,
      "화": 2736,
      "": 2737,
      "": 2738,
      "": 2739,
      "": 2740,
      "": 2741,
      "": 2742,
      "": 2743,
      "": 2744,
      "": 2745,
      "": 2746,
      "": 2747,
      "": 2748,
      "": 2749,
      "": 2750,
      "": 2751,
      "": 2752,
      "": 2753,
      "": 2754,
      "": 2755,
      "": 2756,
      "": 2757,
      "": 2758,
      "": 2759,
      "": 2760,
      "": 2761,
      "": 2762,
      "": 2763,
      "": 2764,
      "": 2765,
      "": 2766,
      "": 2767,
      "": 2768,
      "": 2769,
      "": 2770,
      "": 2771,
      "": 2772,
      "": 2773,
      "": 2774,
      "": 2775,
      "": 2776,
      "": 2777,
      "": 2778,
      "": 2779,
      "": 2780,
      "": 2781,
      "": 2782,
      "": 2783,
      "": 2784,
      "": 2785,
      "": 2786,
      "": 2787,
      "": 2788,
      "": 2789,
      "": 2790,
      "": 2791,
      "": 2792,
      "": 2793,
      "": 2794,
      "": 2795,
      "": 2796,
      "": 2797,
      "": 2798,
      "": 2799,
      "": 2800,
      "": 2801,
      "": 2802,
      "": 2803,
      "": 2804,
      "": 2805,
      "": 2806,
      "": 2807,
      "": 2808,
      "": 2809,
      "": 2810,
      "": 2811,
      "": 2812,
      "": 2813,
      "": 2814,
      "": 2815,
      "": 2816,
      "": 2817,
      "": 2818,
      "": 2819,
      "": 2820,
      "": 2821,
      "": 2822,
      "": 2823,
      "": 2824,
      "": 2825,
      "": 2826,
      "": 2827,
      "": 2828,
      "襤": 2829,
      "櫓": 2830,
      "磻": 2831,
      "ﬁ": 2832,
      "ﬂ": 2833,
      "וּ": 2834,
      "וֹ": 2835,
      "ﮪ": 2836,
      "﮵": 2837,
      "﮶": 2838,
      "ﱳ": 2839,
      "ﲹ": 2840,
      "ﳲ": 2841,
      "﷿": 2842,
      "️": 2843,
      "﹒": 2844,
      "﹜": 2845,
      "﻿": 2846,
      "！": 2847,
      "＂": 2848,
      "％": 2849,
      "＆": 2850,
      "＇": 2851,
      "（": 2852,
      "）": 2853,
      "＊": 2854,
      "＋": 2855,
      "，": 2856,
      "－": 2857,
      "．": 2858,
      "／": 2859,
      "０": 2860,
      "１": 2861,
      "２": 2862,
      "３": 2863,
      "６": 2864,
      "８": 2865,
      "：": 2866,
      "；": 2867,
      "＜": 2868,
      "＝": 2869,
      "＞": 2870,
      "？": 2871,
      "［": 2872,
      "］": 2873,
      "ｍ": 2874,
      "｜": 2875,
      "～": 2876,
      "･": 2877,
      "ｷ": 2878,
      "ﾒ": 2879,
      "￥": 2880,
      "￪": 2881,
      "￭": 2882,
      "￷": 2883,
      "￼": 2884,
      "�": 2885,
      "𒂊": 2886,
      "𒊹": 2887,
      "𒍢": 2888,
      "𝙰": 2889,
      "𝙱": 2890,
      "𝙲": 2891,
      "𝙴": 2892,
      "𝙶": 2893,
      "𝙸": 2894,
      "𝙼": 2895,
      "𝚂": 2896,
      "𝚃": 2897,
      "𝚄": 2898,
      "🆕": 2899,
      "🇦": 2900,
      "🇬": 2901,
      "🇭": 2902,
      "🇱": 2903,
      "🇳": 2904,
      "🇶": 2905,
      "🇸": 2906,
      "🇺": 2907,
      "🇼": 2908,
      "🇿": 2909,
      "🌏": 2910,
      "🌱": 2911,
      "🌹": 2912,
      "🍐": 2913,
      "🍴": 2914,
      "🍹": 2915,
      "🎎": 2916,
      "🎨": 2917,
      "🎰": 2918,
      "🏁": 2919,
      "🏆": 2920,
      "🏖": 2921,
      "🏠": 2922,
      "🏻": 2923,
      "🏼": 2924,
      "🏽": 2925,
      "🐣": 2926,
      "🐤": 2927,
      "🐥": 2928,
      "👀": 2929,
      "👉": 2930,
      "👍": 2931,
      "👜": 2932,
      "👥": 2933,
      "👩": 2934,
      "💋": 2935,
      "💌": 2936,
      "💔": 2937,
      "💖": 2938,
      "💘": 2939,
      "💙": 2940,
      "💚": 2941,
      "💛": 2942,
      "💡": 2943,
      "💥": 2944,
      "💰": 2945,
      "💻": 2946,
      "📁": 2947,
      "📍": 2948,
      "📰": 2949,
      "📷": 2950,
      "🔥": 2951,
      "🔧": 2952,
      "🔸": 2953,
      "🖤": 2954,
      "🗣": 2955,
      "😀": 2956,
      "😈": 2957,
      "😉": 2958,
      "😍": 2959,
      "😘": 2960,
      "😜": 2961,
      "😱": 2962,
      "🙁": 2963,
      "🙂": 2964,
      "🙋": 2965,
      "🙏": 2966,
      "🚀": 2967,
      "🛌": 2968,
      "🤑": 2969,
      "🤔": 2970,
      "🤖": 2971,
      "🤙": 2972,
      "🤠": 2973,
      "🥇": 2974,
      "🦰": 2975,
      "🧰": 2976,
      "𡢤": 2977,
      "𡰲": 2978,
      "𣬲": 2979,
      "𣬹": 2980,
      "𤵤": 2981,
      "𥨥": 2982,
      "𦡮": 2983,
      "𲽤": 2984,
      "𲿷": 2985,
      "𶢡": 2986,
      "𷴵": 2987,
      "𽺹": 2988,
      "𾭼": 2989,
      "񡢽": 2990,
      "񡰱": 2991,
      "񡱾": 2992,
      "񡹤": 2993,
      "񣺳": 2994,
      "񣺹": 2995,
      "񣺿": 2996,
      "񤷤": 2997,
      "񳫺": 2998,
      "񵯶": 2999,
      "񵻽": 3000,
      "񷨹": 3001,
      "񸫤": 3002,
      "񸲸": 3003,
      "񸻤": 3004,
      "񸻳": 3005,
      "񺽻": 3006,
      "񽺷": 3007,
      "򡡣": 3008,
      "򡢼": 3009,
      "򡧾": 3010,
      "򡷺": 3011,
      "򣿹": 3012,
      "򤪻": 3013,
      "򤴻": 3014,
      "򤷤": 3015,
      "򰡴": 3016,
      "򰡽": 3017,
      "򰮻": 3018,
      "򲨶": 3019,
      "򲻴": 3020,
      "򳫤": 3021,
      "򴹲": 3022,
      "򵡴": 3023,
      "򵡹": 3024,
      "򶵤": 3025,
      "򹯡": 3026,
      "򹹿": 3027,
      "򻯽": 3028,
      "򻲹": 3029,
      "򻹰": 3030,
      "򼯿": 3031,
      "򼺤": 3032,
      "򽡾": 3033,
      "򾭼": 3034,
      "󎺊": 3035,
      "󡡿": 3036,
      "󡢥": 3037,
      "󡢰": 3038,
      "󡦥": 3039,
      "󡱡": 3040,
      "󣬷": 3041,
      "󣬸": 3042,
      "󣬽": 3043,
      "󣱡": 3044,
      "󣲣": 3045,
      "󣲤": 3046,
      "󣳣": 3047,
      "󣵥": 3048,
      "󤫤": 3049,
      "󤲤": 3050,
      "󤵤": 3051,
      "󤷤": 3052,
      "󥢥": 3053,
      "󥪥": 3054,
      "󥫤": 3055,
      "󥭥": 3056,
      "󥯡": 3057,
      "󥯽": 3058,
      "󥰡": 3059,
      "󥰤": 3060,
      "󥰥": 3061,
      "󥰸": 3062,
      "󥱡": 3063,
      "󥲥": 3064,
      "󥵡": 3065,
      "󥷥": 3066,
      "󥸥": 3067,
      "󥹡": 3068,
      "󥹤": 3069,
      "󥹥": 3070,
      "󥻥": 3071,
      "󥽥": 3072,
      "󥿡": 3073,
      "󥿥": 3074,
      "󱨾": 3075,
      "󲽶": 3076,
      "󳱡": 3077,
      "󴬼": 3078,
      "󵨹": 3079,
      "󵵹": 3080,
      "󶡤": 3081,
      "󸮾": 3082,
      "󹫹": 3083,
      "󼨤": 3084,
      "󼰹": 3085,
      "󽣥": 3086,
      "󽫣": 3087,
      "󾭼": 3088,
      "he": 3089,
      "an": 3090,
      "na": 3091,
      "re": 3092,
      "in": 3093,
      "on": 3094,
      "ha": 3095,
      "the": 3096,
      "me": 3097,
      "dị": 3098,
      "er": 3099,
      "ar": 3100,
      "ke": 3101,
      "kw": 3102,
      "le": 3103,
      "ma": 3104,
      "is": 3105,
      "or": 3106,
      "it": 3107,
      "es": 3108,
      "at": 3109,
      "ou": 3110,
      "we": 3111,
      "en": 3112,
      "to": 3113,
      "ka": 3114,
      "al": 3115,
      "be": 3116,
      "ing": 3117,
      "any": 3118,
      "bụ": 3119,
      "ch": 3120,
      "of": 3121,
      "ed": 3122,
      "as": 3123,
      "and": 3124,
      "ndị": 3125,
      "gh": 3126,
      "ah": 3127,
      "ri": 3128,
      "ta": 3129,
      "rụ": 3130,
      "ihe": 3131,
      "ho": 3132,
      "ye": 3133,
      "ic": 3134,
      "st": 3135,
      "ya": 3136,
      "ot": 3137,
      "nke": 3138,
      "gb": 3139,
      "kp": 3140,
      "ga": 3141,
      "ro": 3142,
      "ara": 3143,
      "si": 3144,
      "ur": 3145,
      "de": 3146,
      "se": 3147,
      "ti": 3148,
      "ra": 3149,
      "zi": 3150,
      "il": 3151,
      "hat": 3152,
      "anyị": 3153,
      "wa": 3154,
      "ahụ": 3155,
      "ve": 3156,
      "th": 3157,
      "ghị": 3158,
      "bi": 3159,
      "us": 3160,
      "ji": 3161,
      "hi": 3162,
      "pụ": 3163,
      "ge": 3164,
      "kwu": 3165,
      "ly": 3166,
      "tụ": 3167,
      "dụ": 3168,
      "ere": 3169,
      "zọ": 3170,
      "om": 3171,
      "la": 3172,
      "Je": 3173,
      "od": 3174,
      "li": 3175,
      "for": 3176,
      "rị": 3177,
      "lo": 3178,
      "nwe": 3179,
      "mụ": 3180,
      "Jeho": 3181,
      "Jehov": 3182,
      "nt": 3183,
      "that": 3184,
      "el": 3185,
      "kwa": 3186,
      "so": 3187,
      "ac": 3188,
      "ike": 3189,
      "pe": 3190,
      "you": 3191,
      "ion": 3192,
      "ine": 3193,
      "eme": 3194,
      "Ch": 3195,
      "gw": 3196,
      "kọ": 3197,
      "ir": 3198,
      "un": 3199,
      "ver": 3200,
      "do": 3201,
      "ble": 3202,
      "uru": 3203,
      "go": 3204,
      "di": 3205,
      "The": 3206,
      "mma": 3207,
      "ith": 3208,
      "ad": 3209,
      "ce": 3210,
      "ul": 3211,
      "ter": 3212,
      "fe": 3213,
      "ld": 3214,
      "gbe": 3215,
      "sị": 3216,
      "ne": 3217,
      "anya": 3218,
      "nwere": 3219,
      "are": 3220,
      "ct": 3221,
      "ụ́": 3222,
      "che": 3223,
      "ow": 3224,
      "con": 3225,
      "am": 3226,
      "ime": 3227,
      "te": 3228,
      "ation": 3229,
      "onye": 3230,
      "ite": 3231,
      "aka": 3232,
      "with": 3233,
      "rọ": 3234,
      "gha": 3235,
      "nọ": 3236,
      "ol": 3237,
      "ther": 3238,
      "res": 3239,
      "nye": 3240,
      "ab": 3241,
      "ụrụ": 3242,
      "ru": 3243,
      "obi": 3244,
      "bu": 3245,
      "id": 3246,
      "his": 3247,
      "et": 3248,
      "kwụ": 3249,
      "ile": 3250,
      "tion": 3251,
      "ent": 3252,
      "00": 3253,
      "sa": 3254,
      "iri": 3255,
      "ill": 3256,
      "pro": 3257,
      "kụ": 3258,
      "gị": 3259,
      "ebe": 3260,
      "fọ": 3261,
      "ezi": 3262,
      "bụ́": 3263,
      "lọ": 3264,
      "ineke": 3265,
      "Chineke": 3266,
      "our": 3267,
      "Jehova": 3268,
      "ịa": 3269,
      "wor": 3270,
      "not": 3271,
      "cha": 3272,
      "per": 3273,
      "su": 3274,
      "ple": 3275,
      "ọrụ": 3276,
      "mgbe": 3277,
      "okwu": 3278,
      "nw": 3279,
      "da": 3280,
      "tu": 3281,
      "ex": 3282,
      "otú": 3283,
      "Ndị": 3284,
      "Jehovah": 3285,
      "gba": 3286,
      "isi": 3287,
      "one": 3288,
      "was": 3289,
      "ap": 3290,
      "ọrọ": 3291,
      "God": 3292,
      "mmadụ": 3293,
      "ght": 3294,
      "iche": 3295,
      "chị": 3296,
      "mo": 3297,
      "ist": 3298,
      "gi": 3299,
      "co": 3300,
      "ess": 3301,
      "mere": 3302,
      "Bi": 3303,
      "out": 3304,
      "ity": 3305,
      "mb": 3306,
      "An": 3307,
      "ala": 3308,
      "pụta": 3309,
      "ok": 3310,
      "com": 3311,
      "ụlọ": 3312,
      "ci": 3313,
      "oro": 3314,
      "kwọ": 3315,
      "can": 3316,
      "ọzọ": 3317,
      "20": 3318,
      "ịrị": 3319,
      "have": 3320,
      "will": 3321,
      "rom": 3322,
      "chi": 3323,
      "Bible": 3324,
      "art": 3325,
      "gbu": 3326,
      "mkp": 3327,
      "otu": 3328,
      "ozi": 3329,
      "ment": 3330,
      "man": 3331,
      "by": 3332,
      "oge": 3333,
      "der": 3334,
      "ni": 3335,
      "Ma": 3336,
      "kwụkwọ": 3337,
      "ng": 3338,
      "po": 3339,
      "ould": 3340,
      "In": 3341,
      "tara": 3342,
      "all": 3343,
      "ụzọ": 3344,
      "bụrụ": 3345,
      "zu": 3346,
      "qu": 3347,
      "du": 3348,
      "adị": 3349,
      "ate": 3350,
      "ans": 3351,
      "from": 3352,
      "hu": 3353,
      "maka": 3354,
      "enwe": 3355,
      "ag": 3356,
      "pu": 3357,
      "ant": 3358,
      "ihi": 3359,
      "ọn": 3360,
      "ach": 3361,
      "pụrụ": 3362,
      "19": 3363,
      "eji": 3364,
      "lee": 3365,
      "ụmụ": 3366,
      "who": 3367,
      "Na": 3368,
      "aga": 3369,
      "sp": 3370,
      "im": 3371,
      "abụ": 3372,
      "ers": 3373,
      "tụtụ": 3374,
      "ﾒｷ": 3375,
      "your": 3376,
      "em": 3377,
      "were": 3378,
      "anyere": 3379,
      "ﾒｷﾒｷ": 3380,
      "Ihe": 3381,
      "kwuru": 3382,
      "ca": 3383,
      "afọ": 3384,
      "ig": 3385,
      "akp": 3386,
      "ze": 3387,
      "ven": 3388,
      "kwes": 3389,
      "est": 3390,
      "iji": 3391,
      "hụ": 3392,
      "hen": 3393,
      "enye": 3394,
      "ndụ": 3395,
      "lu": 3396,
      "kpe": 3397,
      "ous": 3398,
      "ata": 3399,
      "ob": 3400,
      "Ji": 3401,
      "vi": 3402,
      "ume": 3403,
      "akwụkwọ": 3404,
      "..": 3405,
      "pp": 3406,
      "10": 3407,
      "ort": 3408,
      "fo": 3409,
      "ịbụ": 3410,
      "this": 3411,
      "nd": 3412,
      "ll": 3413,
      "their": 3414,
      "ful": 3415,
      "ys": 3416,
      "ama": 3417,
      "site": 3418,
      "banyere": 3419,
      "ọọ": 3420,
      "ard": 3421,
      "Jes": 3422,
      "ọma": 3423,
      "gosi": 3424,
      "ris": 3425,
      "zụ": 3426,
      "��": 3427,
      "ọtụtụ": 3428,
      "Jesus": 3429,
      "other": 3430,
      "onwe": 3431,
      "mme": 3432,
      "kwe": 3433,
      "fa": 3434,
      "they": 3435,
      "ind": 3436,
      "ong": 3437,
      "ná": 3438,
      "elu": 3439,
      "pa": 3440,
      "ness": 3441,
      "wu": 3442,
      "gwu": 3443,
      "nal": 3444,
      "zọs": 3445,
      "Jizọs": 3446,
      "ry": 3447,
      "ju": 3448,
      "time": 3449,
      "iti": 3450,
      "ser": 3451,
      "end": 3452,
      "ings": 3453,
      "dis": 3454,
      "les": 3455,
      "kar": 3456,
      "15": 3457,
      "now": 3458,
      "wo": 3459,
      "ọchị": 3460,
      "nwa": 3461,
      "int": 3462,
      "mm": 3463,
      "bụla": 3464,
      "ụwa": 3465,
      "red": 3466,
      "king": 3467,
      "sọ": 3468,
      "ast": 3469,
      "atụ": 3470,
      "use": 3471,
      "inye": 3472,
      "what": 3473,
      "Re": 3474,
      "tọ": 3475,
      "ice": 3476,
      "He": 3477,
      "ba": 3478,
      "Olee": 3479,
      "je": 3480,
      "What": 3481,
      "up": 3482,
      "Kra": 3483,
      "jụ": 3484,
      "bo": 3485,
      "him": 3486,
      "gụ": 3487,
      "12": 3488,
      "ịn": 3489,
      "hụrụ": 3490,
      "niile": 3491,
      "kwara": 3492,
      "has": 3493,
      "ịst": 3494,
      "Kraịst": 3495,
      "them": 3496,
      "akụ": 3497,
      "how": 3498,
      "some": 3499,
      "ople": 3500,
      "ut": 3501,
      "my": 3502,
      "Ba": 3503,
      "mee": 3504,
      "fọdụ": 3505,
      "her": 3506,
      "gu": 3507,
      "no": 3508,
      "gbo": 3509,
      "had": 3510,
      "sel": 3511,
      "ele": 3512,
      "agb": 3513,
      "Any": 3514,
      "day": 3515,
      "nile": 3516,
      "nyere": 3517,
      "os": 3518,
      "ef": 3519,
      "esi": 3520,
      "pre": 3521,
      "kwesịrị": 3522,
      "cou": 3523,
      "mkpa": 3524,
      "ally": 3525,
      "ck": 3526,
      "tra": 3527,
      "if": 3528,
      "low": 3529,
      "ving": 3530,
      "ction": 3531,
      "people": 3532,
      "ves": 3533,
      "ight": 3534,
      "ear": 3535,
      "about": 3536,
      "vid": 3537,
      "but": 3538,
      "Mgbe": 3539,
      "rou": 3540,
      "ọnụ": 3541,
      "reat": 3542,
      "led": 3543,
      "18": 3544,
      "ree": 3545,
      "pụtara": 3546,
      "hel": 3547,
      "pla": 3548,
      "asị": 3549,
      "ew": 3550,
      "ts": 3551,
      "gide": 3552,
      "ghọ": 3553,
      "ep": 3554,
      "hy": 3555,
      "yi": 3556,
      "ved": 3557,
      "Anyị": 3558,
      "We": 3559,
      "oke": 3560,
      "fac": 3561,
      "more": 3562,
      "mmụ": 3563,
      "ild": 3564,
      "okp": 3565,
      "ff": 3566,
      "ukwu": 3567,
      "arụ": 3568,
      "11": 3569,
      "ak": 3570,
      "ịbụl": 3571,
      "here": 3572,
      "Baịbụl": 3573,
      "De": 3574,
      "come": 3575,
      "ahịa": 3576,
      "when": 3577,
      "adịghị": 3578,
      "gharị": 3579,
      "16": 3580,
      "ebi": 3581,
      "aha": 3582,
      "ụfọdụ": 3583,
      "ngwa": 3584,
      "ik": 3585,
      "bere": 3586,
      "um": 3587,
      "14": 3588,
      "13": 3589,
      "ance": 3590,
      "It": 3591,
      "St": 3592,
      "eche": 3593,
      "work": 3594,
      "would": 3595,
      "op": 3596,
      "sh": 3597,
      "anye": 3598,
      "gbọ": 3599,
      "help": 3600,
      "Chris": 3601,
      "ated": 3602,
      "Onye": 3603,
      "sion": 3604,
      "ghara": 3605,
      "Ha": 3606,
      "ana": 3607,
      "ence": 3608,
      "abụọ": 3609,
      "itu": 3610,
      "pres": 3611,
      "unu": 3612,
      "chọ": 3613,
      "ome": 3614,
      "anụ": 3615,
      "How": 3616,
      "over": 3617,
      "Ka": 3618,
      "tru": 3619,
      "ture": 3620,
      "way": 3621,
      "nso": 3622,
      "very": 3623,
      "anị": 3624,
      "ati": 3625,
      "ise": 3626,
      "ọkụ": 3627,
      "Christi": 3628,
      "gwụ": 3629,
      "ﾒｷﾒｷﾒｷﾒｷ": 3630,
      "ren": 3631,
      "may": 3632,
      "reg": 3633,
      "know": 3634,
      "17": 3635,
      "lic": 3636,
      "ekwu": 3637,
      "pt": 3638,
      "life": 3639,
      "ord": 3640,
      "ịnị": 3641,
      "ide": 3642,
      "nnọ": 3643,
      "wee": 3644,
      "Gịnị": 3645,
      "chọrọ": 3646,
      "whi": 3647,
      "ish": 3648,
      "spir": 3649,
      "year": 3650,
      "des": 3651,
      "ali": 3652,
      "hose": 3653,
      "omume": 3654,
      "ụtọ": 3655,
      "ang": 3656,
      "spe": 3657,
      "Fo": 3658,
      "min": 3659,
      "mal": 3660,
      "agba": 3661,
      "bọchị": 3662,
      "Dị": 3663,
      "mmụọ": 3664,
      "ations": 3665,
      "odo": 3666,
      "Jo": 3667,
      "did": 3668,
      "tain": 3669,
      "ech": 3670,
      "fore": 3671,
      "kpọ": 3672,
      "mà": 3673,
      "new": 3674,
      "pr": 3675,
      "mu": 3676,
      "nna": 3677,
      "many": 3678,
      "son": 3679,
      "also": 3680,
      "sụ": 3681,
      "atọ": 3682,
      "eze": 3683,
      "ical": 3684,
      "able": 3685,
      "nnọọ": 3686,
      "amụ": 3687,
      "mar": 3688,
      "àmà": 3689,
      "ez": 3690,
      "ruo": 3691,
      "port": 3692,
      "rel": 3693,
      "men": 3694,
      "ani": 3695,
      "af": 3696,
      "mara": 3697,
      "inc": 3698,
      "mba": 3699,
      "ound": 3700,
      "...": 3701,
      "dow": 3702,
      "Mo": 3703,
      "eziokwu": 3704,
      "pri": 3705,
      "ps": 3706,
      "age": 3707,
      "mmiri": 3708,
      "Nke": 3709,
      "than": 3710,
      "nwụ": 3711,
      "itness": 3712,
      "its": 3713,
      "those": 3714,
      "need": 3715,
      "ụbọchị": 3716,
      "ten": 3717,
      "onal": 3718,
      "You": 3719,
      "ego": 3720,
      "har": 3721,
      "Do": 3722,
      "agha": 3723,
      "achọ": 3724,
      "there": 3725,
      "Is": 3726,
      "cri": 3727,
      "ntụ": 3728,
      "Be": 3729,
      "pos": 3730,
      "nwee": 3731,
      "Pa": 3732,
      "ụgbọ": 3733,
      "azụ": 3734,
      "For": 3735,
      "kọta": 3736,
      "she": 3737,
      "ph": 3738,
      "fi": 3739,
      "ily": 3740,
      "ọl": 3741,
      "cont": 3742,
      "ary": 3743,
      "ikpe": 3744,
      "read": 3745,
      "mon": 3746,
      "ahụ́": 3747,
      "pl": 3748,
      "ziri": 3749,
      "ud": 3750,
      "anọ": 3751,
      "ory": 3752,
      "ezie": 3753,
      "been": 3754,
      "like": 3755,
      "itere": 3756,
      "unye": 3757,
      "mber": 3758,
      "off": 3759,
      "ote": 3760,
      "Pro": 3761,
      "make": 3762,
      "wụ": 3763,
      "dere": 3764,
      "uche": 3765,
      "peeji": 3766,
      "yo": 3767,
      "self": 3768,
      "gra": 3769,
      "good": 3770,
      "ms": 3771,
      "such": 3772,
      "ces": 3773,
      "lear": 3774,
      "cts": 3775,
      "egosi": 3776,
      "eri": 3777,
      "dom": 3778,
      "tions": 3779,
      "Un": 3780,
      "As": 3781,
      "ase": 3782,
      "pra": 3783,
      "ekp": 3784,
      "igwe": 3785,
      "egwu": 3786,
      "obodo": 3787,
      "inwe": 3788,
      "karị": 3789,
      "mbụ": 3790,
      "Con": 3791,
      "inst": 3792,
      "vers": 3793,
      "fir": 3794,
      "gbakọ": 3795,
      "ụdị": 3796,
      "which": 3797,
      "cause": 3798,
      "ku": 3799,
      "gburu": 3800,
      "ihu": 3801,
      "24": 3802,
      "000": 3803,
      "sịrị": 3804,
      "wr": 3805,
      "nụ": 3806,
      "iwu": 3807,
      "mi": 3808,
      "mat": 3809,
      "ass": 3810,
      "30": 3811,
      "nakwa": 3812,
      "ds": 3813,
      "rans": 3814,
      "zo": 3815,
      "world": 3816,
      "child": 3817,
      "ned": 3818,
      "take": 3819,
      "gara": 3820,
      "aa": 3821,
      "ure": 3822,
      "ịhụ": 3823,
      "This": 3824,
      "oké": 3825,
      "bara": 3826,
      "Tra": 3827,
      "part": 3828,
      "ole": 3829,
      "kwesị": 3830,
      "ates": 3831,
      "hip": 3832,
      "ater": 3833,
      "On": 3834,
      "25": 3835,
      "agụ": 3836,
      "ss": 3837,
      "Witness": 3838,
      "nsogbu": 3839,
      "ition": 3840,
      "cc": 3841,
      "nk": 3842,
      "ning": 3843,
      "faith": 3844,
      "nwunye": 3845,
      "rist": 3846,
      "Le": 3847,
      "see": 3848,
      "ori": 3849,
      "jọọ": 3850,
      "usoro": 3851,
      "fri": 3852,
      "ting": 3853,
      "cy": 3854,
      "nwoke": 3855,
      "gwa": 3856,
      "nj": 3857,
      "ṅụ": 3858,
      "tur": 3859,
      "cer": 3860,
      "even": 3861,
      "kwasị": 3862,
      "cho": 3863,
      "King": 3864,
      "ọhụrụ": 3865,
      "under": 3866,
      "less": 3867,
      "If": 3868,
      "mp": 3869,
      "No": 3870,
      "ked": 3871,
      "bịa": 3872,
      "Al": 3873,
      "echiche": 3874,
      "eto": 3875,
      "Co": 3876,
      "enweghị": 3877,
      "should": 3878,
      "land": 3879,
      "page": 3880,
      "pare": 3881,
      "Ot": 3882,
      "stand": 3883,
      "ack": 3884,
      "count": 3885,
      "mis": 3886,
      "chie": 3887,
      "love": 3888,
      "ọjọọ": 3889,
      "Ebe": 3890,
      "ited": 3891,
      "str": 3892,
      "exam": 3893,
      "serv": 3894,
      "hie": 3895,
      "sy": 3896,
      "gwọ": 3897,
      "jo": 3898,
      "bro": 3899,
      "=\"": 3900,
      "Christ": 3901,
      "eru": 3902,
      "just": 3903,
      "ko": 3904,
      "does": 3905,
      "ath": 3906,
      "cent": 3907,
      "Otú": 3908,
      "inụlọ": 3909,
      "ors": 3910,
      "ịdị": 3911,
      "ebu": 3912,
      "into": 3913,
      "200": 3914,
      "ty": 3915,
      "thou": 3916,
      "So": 3917,
      "Ad": 3918,
      "Da": 3919,
      "Ya": 3920,
      "ọmụ": 3921,
      "Chi": 3922,
      "nsọ": 3923,
      "fam": 3924,
      "Witnesses": 3925,
      "Ju": 3926,
      "gen": 3927,
      "own": 3928,
      "Ndịàmà": 3929,
      "ities": 3930,
      "years": 3931,
      "ins": 3932,
      "first": 3933,
      "log": 3934,
      "mgb": 3935,
      "vel": 3936,
      "ange": 3937,
      "Akwụkwọ": 3938,
      "Otu": 3939,
      "could": 3940,
      "When": 3941,
      "ili": 3942,
      "22": 3943,
      "kacha": 3944,
      "said": 3945,
      "things": 3946,
      "rịa": 3947,
      "fu": 3948,
      "usa": 3949,
      "gwara": 3950,
      "jiri": 3951,
      "ating": 3952,
      "gwà": 3953,
      "au": 3954,
      "ress": 3955,
      "mes": 3956,
      "ọnwụ": 3957,
      "cus": 3958,
      "And": 3959,
      "lụ": 3960,
      "only": 3961,
      "Ala": 3962,
      "Paul": 3963,
      "lite": 3964,
      "cal": 3965,
      "Hi": 3966,
      "kwuo": 3967,
      "ajụ": 3968,
      "ezinụlọ": 3969,
      "Com": 3970,
      "br": 3971,
      "Ụlọ": 3972,
      "ower": 3973,
      "Mar": 3974,
      "val": 3975,
      "produ": 3976,
      "ments": 3977,
      "ghọta": 3978,
      "Au": 3979,
      "Go": 3980,
      "ters": 3981,
      "start": 3982,
      "enyere": 3983,
      "mer": 3984,
      "But": 3985,
      "anwụ": 3986,
      "dur": 3987,
      "set": 3988,
      "ịta": 3989,
      "ced": 3990,
      "get": 3991,
      "ost": 3992,
      "ezigbo": 3993,
      "Christian": 3994,
      "50": 3995,
      "vis": 3996,
      "row": 3997,
      "bụghị": 3998,
      "ibe": 3999,
      "earth": 4000,
      "ọgwụ": 4001,
      "then": 4002,
      "ia": 4003,
      "ality": 4004,
      "Pọl": 4005,
      "ugbu": 4006,
      "nọdụ": 4007,
      "nche": 4008,
      "comp": 4009,
      "show": 4010,
      "these": 4011,
      "LE": 4012,
      "dịghị": 4013,
      "Se": 4014,
      "ult": 4015,
      "tri": 4016,
      "cted": 4017,
      "New": 4018,
      "ink": 4019,
      "zed": 4020,
      "gwè": 4021,
      "most": 4022,
      "China": 4023,
      "akpa": 4024,
      "alị": 4025,
      "example": 4026,
      "fic": 4027,
      "reas": 4028,
      "àgwà": 4029,
      "well": 4030,
      "za": 4031,
      "right": 4032,
      "nta": 4033,
      "To": 4034,
      "say": 4035,
      "ọ̀": 4036,
      "book": 4037,
      "name": 4038,
      "ace": 4039,
      "Why": 4040,
      "HE": 4041,
      "als": 4042,
      "kpọrọ": 4043,
      "Me": 4044,
      "ents": 4045,
      "chara": 4046,
      "ire": 4047,
      "let": 4048,
      "uro": 4049,
      "23": 4050,
      "used": 4051,
      "ọgbakọ": 4052,
      "light": 4053,
      "Th": 4054,
      "asụ": 4055,
      "Ex": 4056,
      "says": 4057,
      "21": 4058,
      "eso": 4059,
      "feel": 4060,
      "agaghị": 4061,
      "ukwuu": 4062,
      "view": 4063,
      "great": 4064,
      "kere": 4065,
      "heart": 4066,
      "ell": 4067,
      "Su": 4068,
      "ekwe": 4069,
      "ding": 4070,
      "others": 4071,
      "They": 4072,
      "akwa": 4073,
      "line": 4074,
      "thing": 4075,
      "US": 4076,
      "ịna": 4077,
      "made": 4078,
      "anwe": 4079,
      "stud": 4080,
      "want": 4081,
      "ita": 4082,
      "Sa": 4083,
      "bet": 4084,
      "Pe": 4085,
      "nanị": 4086,
      "ware": 4087,
      "Bo": 4088,
      "Ho": 4089,
      "children": 4090,
      "Okwu": 4091,
      "kọwa": 4092,
      "oft": 4093,
      "supp": 4094,
      "peri": 4095,
      "ọdị": 4096,
      "tụrụ": 4097,
      "nu": 4098,
      "tive": 4099,
      "ọk": 4100,
      "Foto": 4101,
      "rough": 4102,
      "kọrọ": 4103,
      "cre": 4104,
      "zuru": 4105,
      "after": 4106,
      "hed": 4107,
      "nne": 4108,
      "wer": 4109,
      "nri": 4110,
      "spiritu": 4111,
      "car": 4112,
      "ntị": 4113,
      "fol": 4114,
      "because": 4115,
      "����": 4116,
      "nzu": 4117,
      "long": 4118,
      "ọrịa": 4119,
      "ewe": 4120,
      "kwere": 4121,
      "kind": 4122,
      "gbas": 4123,
      "ue": 4124,
      "sha": 4125,
      "ﾒｷﾒｷﾒｷﾒｷﾒｷﾒｷﾒｷﾒｷ": 4126,
      "akụkụ": 4127,
      "av": 4128,
      "ọnọdụ": 4129,
      "diff": 4130,
      "wever": 4131,
      "kasị": 4132,
      "AN": 4133,
      "Rom": 4134,
      "ular": 4135,
      "ekpere": 4136,
      "nanya": 4137,
      "kwụsị": 4138,
      "vol": 4139,
      "every": 4140,
      "ted": 4141,
      "ber": 4142,
      "att": 4143,
      "Joh": 4144,
      "came": 4145,
      "Kingdom": 4146,
      "comm": 4147,
      "ibu": 4148,
      "cur": 4149,
      "100": 4150,
      "akụkọ": 4151,
      "human": 4152,
      "nkwa": 4153,
      "tị": 4154,
      "nts": 4155,
      "family": 4156,
      "ref": 4157,
      "ones": 4158,
      "ekwesị": 4159,
      "IN": 4160,
      "war": 4161,
      "edu": 4162,
      "stem": 4163,
      "Christians": 4164,
      "enti": 4165,
      "etiti": 4166,
      "ways": 4167,
      "pon": 4168,
      "greg": 4169,
      "anaghị": 4170,
      "mkpụrụ": 4171,
      "Isra": 4172,
      "bl": 4173,
      "ghachi": 4174,
      "agbanye": 4175,
      "Pic": 4176,
      "Israel": 4177,
      "spirit": 4178,
      "Ọrụ": 4179,
      "congreg": 4180,
      "ft": 4181,
      "happ": 4182,
      "sim": 4183,
      "Alaeze": 4184,
      "karịa": 4185,
      "ward": 4186,
      "tù": 4187,
      "ọs": 4188,
      "tụta": 4189,
      "doro": 4190,
      "28": 4191,
      "Euro": 4192,
      "must": 4193,
      "John": 4194,
      "lie": 4195,
      "Int": 4196,
      "mgba": 4197,
      "bre": 4198,
      "win": 4199,
      "down": 4200,
      "hand": 4201,
      "kpụrụ": 4202,
      "dec": 4203,
      "ks": 4204,
      "okpu": 4205,
      "trans": 4206,
      "being": 4207,
      "high": 4208,
      "pray": 4209,
      "buru": 4210,
      "ari": 4211,
      "ife": 4212,
      "Iz": 4213,
      "ezu": 4214,
      "oth": 4215,
      "through": 4216,
      "siri": 4217,
      "naanị": 4218,
      "enyi": 4219,
      "akpọ": 4220,
      "ER": 4221,
      "iwe": 4222,
      "app": 4223,
      "abụghị": 4224,
      "jọ": 4225,
      "aba": 4226,
      "agbanyeghị": 4227,
      "eke": 4228,
      "Lu": 4229,
      "nn": 4230,
      "Lo": 4231,
      "gaa": 4232,
      "Ab": 4233,
      "point": 4234,
      "obere": 4235,
      "kè": 4236,
      "narị": 4237,
      "follow": 4238,
      "ign": 4239,
      "ather": 4240,
      "med": 4241,
      "where": 4242,
      "phe": 4243,
      "sin": 4244,
      "ọgụ": 4245,
      "ọdụ": 4246,
      "ekw": 4247,
      "Wor": 4248,
      "sider": 4249,
      "add": 4250,
      "ever": 4251,
      "brother": 4252,
      "times": 4253,
      "Obi": 4254,
      "tures": 4255,
      "become": 4256,
      "ịlụ": 4257,
      "though": 4258,
      "40": 4259,
      "Europe": 4260,
      "ip": 4261,
      "26": 4262,
      "ons": 4263,
      "cial": 4264,
      "yocha": 4265,
      "ges": 4266,
      "Izrel": 4267,
      "joy": 4268,
      "reli": 4269,
      "ship": 4270,
      "maara": 4271,
      "net": 4272,
      "clo": 4273,
      "ikwu": 4274,
      "Ar": 4275,
      "pur": 4276,
      "main": 4277,
      "bị": 4278,
      "nle": 4279,
      "nị": 4280,
      "fact": 4281,
      "nde": 4282,
      "true": 4283,
      "crip": 4284,
      "manụ": 4285,
      "ọchịchị": 4286,
      "inter": 4287,
      "two": 4288,
      "cu": 4289,
      "kama": 4290,
      "meri": 4291,
      "put": 4292,
      "Light": 4293,
      "last": 4294,
      "sta": 4295,
      "fect": 4296,
      "find": 4297,
      "ouse": 4298,
      "ick": 4299,
      "ụọ": 4300,
      "ciple": 4301,
      "inclu": 4302,
      "beg": 4303,
      "achị": 4304,
      "atch": 4305,
      "60": 4306,
      "Ga": 4307,
      "IS": 4308,
      "ility": 4309,
      "fel": 4310,
      "29": 4311,
      "ged": 4312,
      "free": 4313,
      "aching": 4314,
      "nji": 4315,
      "biri": 4316,
      "nwaanyị": 4317,
      "zie": 4318,
      "bap": 4319,
      "okwukwe": 4320,
      "before": 4321,
      "Che": 4322,
      "Si": 4323,
      "inyere": 4324,
      "With": 4325,
      "njem": 4326,
      "gịnị": 4327,
      "found": 4328,
      "might": 4329,
      "kpu": 4330,
      "Iji": 4331,
      "ajụjụ": 4332,
      "eluigwe": 4333,
      "asụsụ": 4334,
      "alụ": 4335,
      "tupu": 4336,
      "soft": 4337,
      "yiri": 4338,
      "cei": 4339,
      "lar": 4340,
      "aven": 4341,
      "lan": 4342,
      "isiokwu": 4343,
      "act": 4344,
      "hịa": 4345,
      "spiritual": 4346,
      "rịta": 4347,
      "woro": 4348,
      "There": 4349,
      "27": 4350,
      "ofu": 4351,
      "ines": 4352,
      "give": 4353,
      "sure": 4354,
      "tiv": 4355,
      "iness": 4356,
      "friend": 4357,
      "ọbụ": 4358,
      "tal": 4359,
      "gr": 4360,
      "Ph": 4361,
      "ev": 4362,
      "congregation": 4363,
      "ịhụnanya": 4364,
      "person": 4365,
      "cour": 4366,
      "ịma": 4367,
      "vide": 4368,
      "bas": 4369,
      "nwanyị": 4370,
      "back": 4371,
      "ens": 4372,
      "ON": 4373,
      "requ": 4374,
      "ọsọ": 4375,
      "load": 4376,
      "words": 4377,
      "Mat": 4378,
      "ial": 4379,
      "side": 4380,
      "ikike": 4381,
      "keep": 4382,
      "nkw": 4383,
      "karịrị": 4384,
      "home": 4385,
      "cle": 4386,
      "apost": 4387,
      "power": 4388,
      "selves": 4389,
      "list": 4390,
      "gbara": 4391,
      "ịtị": 4392,
      "ster": 4393,
      "ric": 4394,
      "sig": 4395,
      "taa": 4396,
      "nọgide": 4397,
      "kpụ": 4398,
      "ekpe": 4399,
      "ịga": 4400,
      "Jer": 4401,
      "Ser": 4402,
      "ron": 4403,
      "efe": 4404,
      "too": 4405,
      "okpukpe": 4406,
      "ants": 4407,
      "play": 4408,
      "velo": 4409,
      "wed": 4410,
      "cess": 4411,
      "tem": 4412,
      "Set": 4413,
      "each": 4414,
      "ww": 4415,
      "study": 4416,
      "rol": 4417,
      "ona": 4418,
      "ony": 4419,
      "mụrụ": 4420,
      "One": 4421,
      "malitere": 4422,
      "old": 4423,
      "og": 4424,
      "That": 4425,
      "col": 4426,
      "cl": 4427,
      "amụma": 4428,
      "sto": 4429,
      "Nsọ": 4430,
      "dra": 4431,
      "coura": 4432,
      "nweghị": 4433,
      "ụmụnna": 4434,
      "truth": 4435,
      "death": 4436,
      "much": 4437,
      "pan": 4438,
      "press": 4439,
      "lit": 4440,
      "All": 4441,
      "cord": 4442,
      "Sat": 4443,
      "At": 4444,
      "gboro": 4445,
      "parents": 4446,
      "ined": 4447,
      "org": 4448,
      "ques": 4449,
      "Word": 4450,
      "enter": 4451,
      "kọrịta": 4452,
      "La": 4453,
      "ada": 4454,
      "Sol": 4455,
      "agwa": 4456,
      "acha": 4457,
      "sur": 4458,
      "nweta": 4459,
      "ohu": 4460,
      "place": 4461,
      "experi": 4462,
      "young": 4463,
      "stre": 4464,
      "blic": 4465,
      "look": 4466,
      "care": 4467,
      "ies": 4468,
      "beghị": 4469,
      "mmasị": 4470,
      "osisi": 4471,
      "hè": 4472,
      "respon": 4473,
      "bor": 4474,
      "ered": 4475,
      "heaven": 4476,
      "ịgba": 4477,
      "versity": 4478,
      "ọcha": 4479,
      "meet": 4480,
      "stri": 4481,
      "gosiri": 4482,
      "another": 4483,
      "KW": 4484,
      "par": 4485,
      "ki": 4486,
      "mfe": 4487,
      "AR": 4488,
      "dia": 4489,
      "wara": 4490,
      "grou": 4491,
      "Uni": 4492,
      "Read": 4493,
      "Isi": 4494,
      "oti": 4495,
      "word": 4496,
      "malite": 4497,
      "ben": 4498,
      "ochie": 4499,
      "ie": 4500,
      "ste": 4501,
      "sonal": 4502,
      "ics": 4503,
      "mụta": 4504,
      "days": 4505,
      "Ike": 4506,
      "chool": 4507,
      "eje": 4508,
      "Af": 4509,
      "She": 4510,
      "anna": 4511,
      "AS": 4512,
      "High": 4513,
      "Abụ": 4514,
      "import": 4515,
      "Picture": 4516,
      "tional": 4517,
      "Some": 4518,
      "David": 4519,
      "mind": 4520,
      "egbu": 4521,
      "sal": 4522,
      "Ọtụtụ": 4523,
      "ọmụmụ": 4524,
      "dịrị": 4525,
      "IT": 4526,
      "logo": 4527,
      "contin": 4528,
      "lead": 4529,
      "cor": 4530,
      "ọnwa": 4531,
      "velop": 4532,
      "belie": 4533,
      "Sam": 4534,
      "Man": 4535,
      "\">": 4536,
      "dist": 4537,
      "sub": 4538,
      "atara": 4539,
      "recei": 4540,
      "service": 4541,
      "jà": 4542,
      "Ro": 4543,
      "today": 4544,
      "họrọ": 4545,
      "gwù": 4546,
      "Tim": 4547,
      "ham": 4548,
      "Ke": 4549,
      "live": 4550,
      "ail": 4551,
      "ites": 4552,
      "lect": 4553,
      "Gen": 4554,
      "ozu": 4555,
      "marri": 4556,
      "cond": 4557,
      "system": 4558,
      "illi": 4559,
      "ogo": 4560,
      "lem": 4561,
      "fully": 4562,
      "xt": 4563,
      "Our": 4564,
      "Gị": 4565,
      "33": 4566,
      "logy": 4567,
      "ụkwụ": 4568,
      "Mma": 4569,
      "nwụrụ": 4570,
      "pect": 4571,
      "ufac": 4572,
      "dum": 4573,
      "enweta": 4574,
      "RE": 4575,
      "table": 4576,
      "ative": 4577,
      "regwu": 4578,
      "alth": 4579,
      "abịa": 4580,
      "gaghị": 4581,
      "ọmụma": 4582,
      "ner": 4583,
      "ions": 4584,
      "ws": 4585,
      "ewu": 4586,
      "ded": 4587,
      "nor": 4588,
      "gwá": 4589,
      "My": 4590,
      "ual": 4591,
      "ciples": 4592,
      "form": 4593,
      "bapti": 4594,
      "ígwè": 4595,
      "okpuru": 4596,
      "Ọma": 4597,
      "chụ": 4598,
      "izu": 4599,
      "bịara": 4600,
      "ining": 4601,
      "ngwaahịa": 4602,
      "ash": 4603,
      "Can": 4604,
      "ghe": 4605,
      "ọg": 4606,
      "nation": 4607,
      "ished": 4608,
      "Tu": 4609,
      "conf": 4610,
      "mor": 4611,
      "Ọ̀": 4612,
      "ries": 4613,
      "ital": 4614,
      "àjà": 4615,
      "ering": 4616,
      "AT": 4617,
      "house": 4618,
      "personal": 4619,
      "dọ": 4620,
      "order": 4621,
      "80": 4622,
      "sible": 4623,
      "same": 4624,
      "Ne": 4625,
      "ịtụ": 4626,
      "Kọ": 4627,
      "gg": 4628,
      "kpa": 4629,
      "ran": 4630,
      "chọọ": 4631,
      "sho": 4632,
      "Home": 4633,
      "mmehie": 4634,
      "support": 4635,
      "dire": 4636,
      "Site": 4637,
      "Fe": 4638,
      "However": 4639,
      "31": 4640,
      "prophe": 4641,
      "den": 4642,
      "2019": 4643,
      "ls": 4644,
      "oli": 4645,
      "Di": 4646,
      "appro": 4647,
      "ugboro": 4648,
      "ụgwọ": 4649,
      "ùgwù": 4650,
      "sis": 4651,
      "differe": 4652,
      "pen": 4653,
      "Anya": 4654,
      "2018": 4655,
      "soro": 4656,
      "Ngwa": 4657,
      "gy": 4658,
      "consider": 4659,
      "data": 4660,
      "ody": 4661,
      "Inter": 4662,
      "ars": 4663,
      "minist": 4664,
      "nnukwu": 4665,
      "Ger": 4666,
      "ókè": 4667,
      "chiri": 4668,
      "bata": 4669,
      "nwekwara": 4670,
      "iko": 4671,
      "atụrụ": 4672,
      "uwe": 4673,
      "never": 4674,
      "tere": 4675,
      "chere": 4676,
      "mmanụ": 4677,
      "tle": 4678,
      "soci": 4679,
      "oun": 4680,
      "Devid": 4681,
      "ọbụna": 4682,
      "mation": 4683,
      "ury": 4684,
      "rit": 4685,
      "present": 4686,
      "35": 4687,
      "Pre": 4688,
      "course": 4689,
      "ọṅụ": 4690,
      "Setan": 4691,
      "faịlụ": 4692,
      "mmetụta": 4693,
      "worship": 4694,
      "ọgụgụ": 4695,
      "awa": 4696,
      "arị": 4697,
      "pol": 4698,
      "software": 4699,
      "asịrị": 4700,
      "bru": 4701,
      "sing": 4702,
      "open": 4703,
      "hapụ": 4704,
      "loy": 4705,
      "Des": 4706,
      ").": 4707,
      "ism": 4708,
      "gbasara": 4709,
      "against": 4710,
      "ices": 4711,
      "told": 4712,
      "guzo": 4713,
      "adv": 4714,
      "ject": 4715,
      "ebighị": 4716,
      "University": 4717,
      "Jọn": 4718,
      "eas": 4719,
      "ofufe": 4720,
      "head": 4721,
      "199": 4722,
      "After": 4723,
      "okè": 4724,
      "bed": 4725,
      "World": 4726,
      "learn": 4727,
      "Ozi": 4728,
      "len": 4729,
      "bs": 4730,
      "quality": 4731,
      "Job": 4732,
      "Li": 4733,
      "CO": 4734,
      "Nna": 4735,
      "ator": 4736,
      "okenye": 4737,
      "Eze": 4738,
      "mean": 4739,
      "ntụkwasị": 4740,
      "By": 4741,
      "NA": 4742,
      "para": 4743,
      "ohere": 4744,
      "erest": 4745,
      "means": 4746,
      "arch": 4747,
      "Pr": 4748,
      "ext": 4749,
      "LED": 4750,
      "United": 4751,
      "often": 4752,
      "don": 4753,
      "proble": 4754,
      "ctive": 4755,
      "develop": 4756,
      "cept": 4757,
      "Ezi": 4758,
      "olu": 4759,
      "important": 4760,
      "understand": 4761,
      "water": 4762,
      "knowled": 4763,
      "urch": 4764,
      "lack": 4765,
      "ogologo": 4766,
      "bal": 4767,
      "okporo": 4768,
      "Lee": 4769,
      "Satan": 4770,
      "matụ": 4771,
      "oid": 4772,
      "artic": 4773,
      "top": 4774,
      "sie": 4775,
      "bit": 4776,
      "ton": 4777,
      "Cor": 4778,
      "Ru": 4779,
      "More": 4780,
      "public": 4781,
      "ay": 4782,
      "ES": 4783,
      "mit": 4784,
      "sive": 4785,
      "ket": 4786,
      "bon": 4787,
      "face": 4788,
      "why": 4789,
      "brothers": 4790,
      "kwanụ": 4791,
      "ụgbọala": 4792,
      "kụzi": 4793,
      "ikpeazụ": 4794,
      "Win": 4795,
      "given": 4796,
      "puku": 4797,
      "chọpụta": 4798,
      "himself": 4799,
      "cul": 4800,
      "best": 4801,
      "Sy": 4802,
      "call": 4803,
      "Ameri": 4804,
      "benef": 4805,
      "prote": 4806,
      "CH": 4807,
      "pris": 4808,
      "apostle": 4809,
      "inv": 4810,
      "puta": 4811,
      "leanya": 4812,
      "akpụ": 4813,
      "Nche": 4814,
      "ja": 4815,
      "Peter": 4816,
      "stru": 4817,
      "họ": 4818,
      "ịza": 4819,
      "ụmụaka": 4820,
      "Qu": 4821,
      "provid": 4822,
      "Eng": 4823,
      "tech": 4824,
      "òtù": 4825,
      "32": 4826,
      "wise": 4827,
      "suff": 4828,
      "faithful": 4829,
      "ụkpụrụ": 4830,
      "bel": 4831,
      "without": 4832,
      "fil": 4833,
      "ns": 4834,
      "ween": 4835,
      "chine": 4836,
      "45": 4837,
      "akọ": 4838,
      "duct": 4839,
      "interest": 4840,
      "Pita": 4841,
      "serve": 4842,
      "while": 4843,
      "Adam": 4844,
      "37": 4845,
      "OR": 4846,
      "olee": 4847,
      "pose": 4848,
      "rụrụ": 4849,
      "mod": 4850,
      "onyeozi": 4851,
      "vil": 4852,
      "lay": 4853,
      "),": 4854,
      "inweta": 4855,
      "Spe": 4856,
      "comple": 4857,
      "appe": 4858,
      "Ste": 4859,
      "jere": 4860,
      "langu": 4861,
      "Father": 4862,
      "pọ": 4863,
      "hold": 4864,
      "Or": 4865,
      "wrote": 4866,
      "certain": 4867,
      "called": 4868,
      "desi": 4869,
      "prof": 4870,
      "news": 4871,
      "til": 4872,
      "sụgharị": 4873,
      "gburugburu": 4874,
      "national": 4875,
      "Gụọ": 4876,
      "bus": 4877,
      "udo": 4878,
      "ety": 4879,
      "sk": 4880,
      "Car": 4881,
      "Nw": 4882,
      "teous": 4883,
      "hard": 4884,
      "ling": 4885,
      "stan": 4886,
      "va": 4887,
      "bless": 4888,
      "mọdụ": 4889,
      "jụrụ": 4890,
      "ìhè": 4891,
      "inf": 4892,
      "preci": 4893,
      "infor": 4894,
      "ense": 4895,
      "ahụhụ": 4896,
      "ghteous": 4897,
      "band": 4898,
      "clu": 4899,
      "MA": 4900,
      "dows": 4901,
      "oney": 4902,
      "ND": 4903,
      "Ụmụ": 4904,
      "chaa": 4905,
      "ịrụ": 4906,
      "mater": 4907,
      "during": 4908,
      "akara": 4909,
      "34": 4910,
      "ring": 4911,
      "custo": 4912,
      "occ": 4913,
      "writ": 4914,
      "three": 4915,
      "knowledge": 4916,
      "ages": 4917,
      "blo": 4918,
      "among": 4919,
      "Afri": 4920,
      "ny": 4921,
      "month": 4922,
      "ders": 4923,
      "ije": 4924,
      "father": 4925,
      "peace": 4926,
      "ME": 4927,
      "Met": 4928,
      "Air": 4929,
      "away": 4930,
      "vir": 4931,
      "ano": 4932,
      "righteous": 4933,
      "full": 4934,
      "Let": 4935,
      "won": 4936,
      "still": 4937,
      "between": 4938,
      "hazi": 4939,
      "file": 4940,
      "divid": 4941,
      "became": 4942,
      "change": 4943,
      "olileanya": 4944,
      "ima": 4945,
      "both": 4946,
      "Jose": 4947,
      "Free": 4948,
      "city": 4949,
      "Your": 4950,
      "sac": 4951,
      "Te": 4952,
      "enjoy": 4953,
      "njọ": 4954,
      "cation": 4955,
      "ìgwè": 4956,
      "uni": 4957,
      "Gu": 4958,
      "ount": 4959,
      "account": 4960,
      "different": 4961,
      "GB": 4962,
      "miri": 4963,
      "amaghị": 4964,
      "ying": 4965,
      "nzukọ": 4966,
      "streng": 4967,
      "akpata": 4968,
      "obe": 4969,
      "ede": 4970,
      "hope": 4971,
      "upon": 4972,
      "met": 4973,
      "70": 4974,
      ".,": 4975,
      "wife": 4976,
      "Train": 4977,
      "bul": 4978,
      "Fore": 4979,
      "mbers": 4980,
      "Ama": 4981,
      "cap": 4982,
      "90": 4983,
      "egwuregwu": 4984,
      "ger": 4985,
      "\"%": 4986,
      "ccess": 4987,
      "mihe": 4988,
      "Res": 4989,
      "outh": 4990,
      "Mmadụ": 4991,
      "pụghị": 4992,
      "number": 4993,
      "nology": 4994,
      "Juu": 4995,
      "thor": 4996,
      "td": 4997,
      "Ọnụ": 4998,
      "anet": 4999,
      "ians": 5000,
      "gener": 5001,
      "mpe": 5002,
      "using": 5003,
      "36": 5004,
      "Watch": 5005,
      "making": 5006,
      "fun": 5007,
      "dio": 5008,
      "build": 5009,
      "hà": 5010,
      "ufacture": 5011,
      "ruru": 5012,
      "shi": 5013,
      "pract": 5014,
      "later": 5015,
      "speci": 5016,
      "Ime": 5017,
      "wal": 5018,
      "Sh": 5019,
      "turn": 5020,
      "gaz": 5021,
      "Maka": 5022,
      "IC": 5023,
      "UR": 5024,
      "ID": 5025,
      "EA": 5026,
      "Per": 5027,
      "criptures": 5028,
      "sions": 5029,
      "prom": 5030,
      "ank": 5031,
      "elect": 5032,
      "thought": 5033,
      "encoura": 5034,
      "grow": 5035,
      "sci": 5036,
      "ministry": 5037,
      "akwado": 5038,
      "IP": 5039,
      "ﾒｷﾒｷﾒｷﾒｷﾒｷﾒｷﾒｷﾒｷﾒｷﾒｷﾒｷﾒｷﾒｷﾒｷﾒｷﾒｷ": 5040,
      "oper": 5041,
      "kpo": 5042,
      "ards": 5043,
      "gl": 5044,
      "vo": 5045,
      "mother": 5046,
      "creat": 5047,
      "obibi": 5048,
      "efu": 5049,
      "fin": 5050,
      "Ta": 5051,
      "simiri": 5052,
      "kara": 5053,
      "reason": 5054,
      "Door": 5055,
      "py": 5056,
      "fort": 5057,
      "Ltd": 5058,
      "iz": 5059,
      "key": 5060,
      "onyinye": 5061,
      "food": 5062,
      "Ụfọdụ": 5063,
      "always": 5064,
      "Bu": 5065,
      "sitere": 5066,
      "aru": 5067,
      "known": 5068,
      "search": 5069,
      "ince": 5070,
      "ging": 5071,
      "ngwá": 5072,
      "whole": 5073,
      "ndụmọdụ": 5074,
      "Oge": 5075,
      "doing": 5076,
      "expla": 5077,
      "chang": 5078,
      "perfect": 5079,
      "AL": 5080,
      "und": 5081,
      "Mos": 5082,
      "Par": 5083,
      "Trans": 5084,
      "yes": 5085,
      "rs": 5086,
      "gbochi": 5087,
      "States": 5088,
      "bur": 5089,
      "began": 5090,
      "nce": 5091,
      "Isa": 5092,
      "mmụta": 5093,
      "activ": 5094,
      "kachamara": 5095,
      "think": 5096,
      "iso": 5097,
      "reanya": 5098,
      "az": 5099,
      "experience": 5100,
      "gal": 5101,
      "akwụ": 5102,
      "Ọzọ": 5103,
      "mall": 5104,
      "ures": 5105,
      "ndi": 5106,
      "Bet": 5107,
      "relations": 5108,
      "Ana": 5109,
      "tt": 5110,
      "Jis": 5111,
      "kpara": 5112,
      "real": 5113,
      "products": 5114,
      "invol": 5115,
      "Po": 5116,
      "yl": 5117,
      "Mic": 5118,
      "sage": 5119,
      "KE": 5120,
      "uel": 5121,
      "asa": 5122,
      "bụkwa": 5123,
      "Col": 5124,
      "Psal": 5125,
      "far": 5126,
      "tell": 5127,
      "ious": 5128,
      "ina": 5129,
      "From": 5130,
      "control": 5131,
      "emepụta": 5132,
      "clear": 5133,
      "amamihe": 5134,
      "cir": 5135,
      "oyi": 5136,
      "article": 5137,
      "vari": 5138,
      "matic": 5139,
      "App": 5140,
      "abara": 5141,
      "ication": 5142,
      "result": 5143,
      "ually": 5144,
      "travel": 5145,
      "Jisọs": 5146,
      "Best": 5147,
      "holy": 5148,
      "bie": 5149,
      "inted": 5150,
      "gụnyere": 5151,
      "aghaghị": 5152,
      "mail": 5153,
      "Med": 5154,
      "ired": 5155,
      "gram": 5156,
      "hon": 5157,
      "wide": 5158,
      "dev": 5159,
      "las": 5160,
      "rid": 5161,
      "body": 5162,
      "obile": 5163,
      "however": 5164,
      "fere": 5165,
      "unity": 5166,
      "cry": 5167,
      "ụ̀": 5168,
      "reme": 5169,
      "Cha": 5170,
      "ajọ": 5171,
      "Matthe": 5172,
      "Kama": 5173,
      "gave": 5174,
      "zim": 5175,
      "Ok": 5176,
      "bring": 5177,
      "ekwesịghị": 5178,
      "Many": 5179,
      "En": 5180,
      "aṅ": 5181,
      "Matthew": 5182,
      "loving": 5183,
      "38": 5184,
      "ature": 5185,
      "May": 5186,
      "Of": 5187,
      "try": 5188,
      "sia": 5189,
      "possible": 5190,
      "fellow": 5191,
      "Min": 5192,
      "Ụzọ": 5193,
      "pi": 5194,
      "His": 5195,
      "isii": 5196,
      "ọkà": 5197,
      "ọbara": 5198,
      "essi": 5199,
      "Mati": 5200,
      "school": 5201,
      "century": 5202,
      "Matiu": 5203,
      "Pri": 5204,
      "ask": 5205,
      "Even": 5206,
      "ịchọ": 5207,
      "close": 5208,
      "prin": 5209,
      "sex": 5210,
      "wi": 5211,
      "living": 5212,
      "iru": 5213,
      "preaching": 5214,
      "ụgha": 5215,
      "Vi": 5216,
      "sla": 5217,
      "hist": 5218,
      "Psalm": 5219,
      "kpam": 5220,
      "something": 5221,
      "accept": 5222,
      "akpali": 5223,
      "ọzi": 5224,
      "themselves": 5225,
      "usband": 5226,
      "ently": 5227,
      "Hu": 5228,
      "Rus": 5229,
      "ories": 5230,
      "hour": 5231,
      "really": 5232,
      "ese": 5233,
      "information": 5234,
      "priv": 5235,
      "Mon": 5236,
      "speak": 5237,
      "zụzụ": 5238,
      "Ja": 5239,
      "cla": 5240,
      "mata": 5241,
      "PE": 5242,
      "kee": 5243,
      "ọkachamara": 5244,
      "jud": 5245,
      "Scriptures": 5246,
      "Yes": 5247,
      "ebube": 5248,
      "ready": 5249,
      "ugwu": 5250,
      "banye": 5251,
      "whe": 5252,
      "ctions": 5253,
      "hing": 5254,
      "nment": 5255,
      "rest": 5256,
      "toge": 5257,
      "Mme": 5258,
      "together": 5259,
      "emp": 5260,
      "bar": 5261,
      "mmekọ": 5262,
      "river": 5263,
      "OS": 5264,
      "ngosi": 5265,
      "etinye": 5266,
      "air": 5267,
      "Dani": 5268,
      "mate": 5269,
      "oru": 5270,
      "sịa": 5271,
      "THE": 5272,
      "individ": 5273,
      "Then": 5274,
      "took": 5275,
      "health": 5276,
      "ilar": 5277,
      "Nzu": 5278,
      "disciples": 5279,
      "marriage": 5280,
      "Ị̀": 5281,
      "ulti": 5282,
      "tic": 5283,
      "ough": 5284,
      "allow": 5285,
      "zation": 5286,
      "ctor": 5287,
      "86": 5288,
      "bad": 5289,
      "Bab": 5290,
      "fied": 5291,
      "gbè": 5292,
      "Ony": 5293,
      "pow": 5294,
      "felt": 5295,
      "pass": 5296,
      "husband": 5297,
      "report": 5298,
      "AC": 5299,
      "Moz": 5300,
      "del": 5301,
      "99": 5302,
      "Are": 5303,
      "ize": 5304,
      "Bro": 5305,
      "metụ": 5306,
      "Ụwa": 5307,
      "treat": 5308,
      "pport": 5309,
      "wit": 5310,
      "ịzụ": 5311,
      "esis": 5312,
      "2017": 5313,
      "oji": 5314,
      "por": 5315,
      "position": 5316,
      "draw": 5317,
      "command": 5318,
      "500": 5319,
      "cut": 5320,
      "icked": 5321,
      "regard": 5322,
      "//": 5323,
      "concer": 5324,
      "eng": 5325,
      "urre": 5326,
      "attend": 5327,
      "ational": 5328,
      "Daniel": 5329,
      "ekele": 5330,
      "mus": 5331,
      "abalị": 5332,
      "Auto": 5333,
      "Abra": 5334,
      "nihu": 5335,
      "milli": 5336,
      "ibi": 5337,
      "godị": 5338,
      "wom": 5339,
      "coming": 5340,
      "few": 5341,
      "ler": 5342,
      "including": 5343,
      "following": 5344,
      "kwanyere": 5345,
      "wis": 5346,
      "little": 5347,
      "Fi": 5348,
      "lot": 5349,
      "purpose": 5350,
      "ose": 5351,
      "hite": 5352,
      "ses": 5353,
      "mgbanwe": 5354,
      "Ko": 5355,
      "board": 5356,
      "vious": 5357,
      "Hebre": 5358,
      "Forex": 5359,
      "BỤ": 5360,
      "situ": 5361,
      "elekọta": 5362,
      "www": 5363,
      "near": 5364,
      "blished": 5365,
      "magaz": 5366,
      "uring": 5367,
      "pm": 5368,
      "qual": 5369,
      "Line": 5370,
      "gre": 5371,
      "baptizim": 5372,
      "nkà": 5373,
      "questions": 5374,
      "someone": 5375,
      "mas": 5376,
      "tern": 5377,
      "gious": 5378,
      "ists": 5379,
      "having": 5380,
      "que": 5381,
      "mkpọrọ": 5382,
      "small": 5383,
      "dise": 5384,
      "gaara": 5385,
      "hes": 5386,
      "better": 5387,
      "ian": 5388,
      "orobịa": 5389,
      "ago": 5390,
      "cam": 5391,
      "visit": 5392,
      "Kpọ": 5393,
      "iyi": 5394,
      "tact": 5395,
      "uku": 5396,
      "nway": 5397,
      "Off": 5398,
      "remain": 5399,
      "asked": 5400,
      "tee": 5401,
      "TO": 5402,
      "deed": 5403,
      "prayer": 5404,
      "Ilu": 5405,
      "whom": 5406,
      "dee": 5407,
      "htt": 5408,
      "move": 5409,
      "fee": 5410,
      "nala": 5411,
      "tage": 5412,
      "pic": 5413,
      "company": 5414,
      "ịmata": 5415,
      "ụka": 5416,
      "nkịtị": 5417,
      "55": 5418,
      "rus": 5419,
      "inking": 5420,
      "See": 5421,
      "post": 5422,
      "gbanwe": 5423,
      "appreci": 5424,
      "kwem": 5425,
      "These": 5426,
      "teach": 5427,
      "kweere": 5428,
      "ches": 5429,
      "gwe": 5430,
      "transl": 5431,
      "online": 5432,
      "fear": 5433,
      "future": 5434,
      "mahụ": 5435,
      "nwayọọ": 5436,
      "39": 5437,
      "Not": 5438,
      "Mozis": 5439,
      "god": 5440,
      "trust": 5441,
      "fer": 5442,
      "around": 5443,
      "ule": 5444,
      "humans": 5445,
      "Hibru": 5446,
      "Iwu": 5447,
      "discus": 5448,
      "price": 5449,
      "mmekọahụ": 5450,
      "listen": 5451,
      "ọla": 5452,
      "law": 5453,
      "metụtara": 5454,
      "ịnụ": 5455,
      "sacri": 5456,
      "Ca": 5457,
      "friends": 5458,
      "cas": 5459,
      "ino": 5460,
      "://": 5461,
      "Tech": 5462,
      "eld": 5463,
      "mpa": 5464,
      "woman": 5465,
      "sou": 5466,
      "nwanna": 5467,
      "Ekw": 5468,
      "usalem": 5469,
      "weta": 5470,
      "Jerusalem": 5471,
      "ailable": 5472,
      "aṅaa": 5473,
      "Germany": 5474,
      "money": 5475,
      "gharịa": 5476,
      "ery": 5477,
      "pas": 5478,
      "pers": 5479,
      "strong": 5480,
      "Ee": 5481,
      "Who": 5482,
      "Dis": 5483,
      "provide": 5484,
      "ehi": 5485,
      "Ndụ": 5486,
      "ịkpọ": 5487,
      "agbanwe": 5488,
      "share": 5489,
      "nations": 5490,
      "EN": 5491,
      "nhọrọ": 5492,
      "mụọ": 5493,
      "Mmiri": 5494,
      "ubi": 5495,
      "mkwem": 5496,
      "zer": 5497,
      "language": 5498,
      "omi": 5499,
      "ọdịnihu": 5500,
      "issu": 5501,
      "mmanya": 5502,
      "cel": 5503,
      "Tur": 5504,
      "ịmụta": 5505,
      "anab": 5506,
      "Phone": 5507,
      "case": 5508,
      "enyemaka": 5509,
      "agbalị": 5510,
      "lands": 5511,
      "record": 5512,
      "ults": 5513,
      "anyanwụ": 5514,
      "Africa": 5515,
      "hoto": 5516,
      "Stu": 5517,
      "2016": 5518,
      "Gree": 5519,
      "Son": 5520,
      "Tru": 5521,
      "lent": 5522,
      "dest": 5523,
      "wicked": 5524,
      "room": 5525,
      "material": 5526,
      "gban": 5527,
      "left": 5528,
      "esta": 5529,
      "nyeere": 5530,
      "65": 5531,
      "44": 5532,
      "Down": 5533,
      "test": 5534,
      "sed": 5535,
      "sib": 5536,
      "door": 5537,
      "Yet": 5538,
      "rance": 5539,
      "City": 5540,
      "anne": 5541,
      "organi": 5542,
      "amalite": 5543,
      "ịgụ": 5544,
      "cannot": 5545,
      "fill": 5546,
      "itude": 5547,
      "zọpụta": 5548,
      "Ge": 5549,
      "mankind": 5550,
      "Windows": 5551,
      "servants": 5552,
      "associ": 5553,
      "ekwusa": 5554,
      "KWU": 5555,
      "PC": 5556,
      "une": 5557,
      "toward": 5558,
      "NDỊ": 5559,
      "deal": 5560,
      "vor": 5561,
      "hal": 5562,
      "again": 5563,
      "web": 5564,
      "women": 5565,
      "diffic": 5566,
      "coun": 5567,
      "deter": 5568,
      "problems": 5569,
      "iny": 5570,
      "agụụ": 5571,
      "Tụ": 5572,
      "Samuel": 5573,
      "ọchịchọ": 5574,
      "Sp": 5575,
      "ozugbo": 5576,
      "dr": 5577,
      "ane": 5578,
      "ement": 5579,
      "since": 5580,
      "avoid": 5581,
      "promis": 5582,
      "complete": 5583,
      "fes": 5584,
      "Comp": 5585,
      "njikọ": 5586,
      "RO": 5587,
      "ịnọ": 5588,
      "cep": 5589,
      "Jen": 5590,
      "ences": 5591,
      "yourself": 5592,
      "ịghọta": 5593,
      "akụziri": 5594,
      "ross": 5595,
      "mmalite": 5596,
      "nei": 5597,
      "happy": 5598,
      "Moses": 5599,
      "continu": 5600,
      "Eme": 5601,
      "Solom": 5602,
      "going": 5603,
      "biga": 5604,
      "anger": 5605,
      "class": 5606,
      "prove": 5607,
      "religious": 5608,
      "Aha": 5609,
      "Time": 5610,
      "pain": 5611,
      "mmepụta": 5612,
      "atụmatụ": 5613,
      "clean": 5614,
      "uses": 5615,
      "respect": 5616,
      "sat": 5617,
      "PA": 5618,
      "ken": 5619,
      "fụ": 5620,
      "saịtị": 5621,
      "deep": 5622,
      "wonder": 5623,
      "lat": 5624,
      "ability": 5625,
      "large": 5626,
      "ákw": 5627,
      "ghọọ": 5628,
      "decis": 5629,
      "nzube": 5630,
      "idi": 5631,
      "dịkwa": 5632,
      "asaa": 5633,
      "giving": 5634,
      "vic": 5635,
      "phys": 5636,
      "Cont": 5637,
      "48": 5638,
      "Rob": 5639,
      "cover": 5640,
      "learned": 5641,
      "night": 5642,
      "lea": 5643,
      "iro": 5644,
      "cient": 5645,
      "lin": 5646,
      "Her": 5647,
      "iah": 5648,
      "���": 5649,
      "works": 5650,
      "seem": 5651,
      "Sep": 5652,
      "apa": 5653,
      "oriri": 5654,
      "next": 5655,
      "Jere": 5656,
      "ught": 5657,
      "kpọmkwem": 5658,
      "available": 5659,
      "Abraham": 5660,
      "ione": 5661,
      "hic": 5662,
      "obiọma": 5663,
      "Ụdị": 5664,
      "fur": 5665,
      "relationship": 5666,
      "mkpu": 5667,
      "needed": 5668,
      "windo": 5669,
      "evid": 5670,
      "cks": 5671,
      "ground": 5672,
      "accord": 5673,
      "mbọ": 5674,
      "umeala": 5675,
      "ọha": 5676,
      "amụta": 5677,
      "Church": 5678,
      "success": 5679,
      "helped": 5680,
      "nwata": 5681,
      "ror": 5682,
      "dep": 5683,
      "omọkụ": 5684,
      "pping": 5685,
      "fọrọ": 5686,
      "Machine": 5687,
      "coin": 5688,
      "bọ": 5689,
      "gover": 5690,
      "sent": 5691,
      "Nor": 5692,
      "Char": 5693,
      "roll": 5694,
      "apan": 5695,
      "aṅụ": 5696,
      "done": 5697,
      "Mụ": 5698,
      "chal": 5699,
      "Now": 5700,
      "els": 5701,
      "mmekọrịta": 5702,
      "cing": 5703,
      "went": 5704,
      "ịmụ": 5705,
      "indu": 5706,
      "88": 5707,
      "Nwa": 5708,
      "wrong": 5709,
      "cra": 5710,
      "arr": 5711,
      "nọrọ": 5712,
      "special": 5713,
      "dou": 5714,
      "partic": 5715,
      "text": 5716,
      "based": 5717,
      "lives": 5718,
      "moved": 5719,
      "acher": 5720,
      "Kpọtụrụ": 5721,
      "powder": 5722,
      "along": 5723,
      "video": 5724,
      "ọzụzụ": 5725,
      "proper": 5726,
      "System": 5727,
      "pay": 5728,
      "Japan": 5729,
      "dabere": 5730,
      "ogle": 5731,
      "emekwa": 5732,
      "Aka": 5733,
      "gar": 5734,
      "cially": 5735,
      "effe": 5736,
      "question": 5737,
      "IL": 5738,
      "kemgbe": 5739,
      "tinye": 5740,
      "verbs": 5741,
      "resurre": 5742,
      "Isaiah": 5743,
      "ege": 5744,
      "ọghọ": 5745,
      "ung": 5746,
      "nkwusa": 5747,
      "spo": 5748,
      "Bra": 5749,
      "pleas": 5750,
      "Ahụ": 5751,
      "nyocha": 5752,
      "char": 5753,
      "reve": 5754,
      "valu": 5755,
      "Nle": 5756,
      "died": 5757,
      "counsel": 5758,
      "ern": 5759,
      "note": 5760,
      "Stre": 5761,
      "Black": 5762,
      "stu": 5763,
      "nlereanya": 5764,
      "mgbakọ": 5765,
      "ógbè": 5766,
      "apụghị": 5767,
      "meetings": 5768,
      "members": 5769,
      "happen": 5770,
      "Elu": 5771,
      "contain": 5772,
      "mag": 5773,
      "Hy": 5774,
      "mechara": 5775,
      "wel": 5776,
      "conduct": 5777,
      "Hol": 5778,
      "descri": 5779,
      "answer": 5780,
      "amasị": 5781,
      "Acc": 5782,
      "NC": 5783,
      "megide": 5784,
      "otor": 5785,
      "dri": 5786,
      "ED": 5787,
      "urịta": 5788,
      "pped": 5789,
      "Mac": 5790,
      "Ra": 5791,
      "fru": 5792,
      "advan": 5793,
      "run": 5794,
      "pop": 5795,
      "IHE": 5796,
      "tes": 5797,
      "beere": 5798,
      "75": 5799,
      "Jud": 5800,
      "akọwa": 5801,
      "entị": 5802,
      "adọ": 5803,
      "apụta": 5804,
      "300": 5805,
      "rug": 5806,
      "kpatara": 5807,
      "Rol": 5808,
      "factory": 5809,
      "akụzi": 5810,
      "xi": 5811,
      "James": 5812,
      "Proverbs": 5813,
      "Whi": 5814,
      "design": 5815,
      "ming": 5816,
      "zing": 5817,
      "working": 5818,
      "ogb": 5819,
      "inth": 5820,
      "matter": 5821,
      "ịkwa": 5822,
      "tower": 5823,
      "tention": 5824,
      "South": 5825,
      "ịs": 5826,
      "early": 5827,
      "lier": 5828,
      "Akụ": 5829,
      "Bụ": 5830,
      "bụkwanụ": 5831,
      "step": 5832,
      "needs": 5833,
      "ban": 5834,
      "indic": 5835,
      "dem": 5836,
      "agbata": 5837,
      "Sim": 5838,
      "Unu": 5839,
      "kpere": 5840,
      "mkpebi": 5841,
      "instru": 5842,
      "Ob": 5843,
      "rụọ": 5844,
      "onụ": 5845,
      "Cop": 5846,
      "continue": 5847,
      "vent": 5848,
      "eyes": 5849,
      "blood": 5850,
      "ufacturer": 5851,
      "haps": 5852,
      "ised": 5853,
      "Serv": 5854,
      "witness": 5855,
      "pat": 5856,
      "offer": 5857,
      "nkwado": 5858,
      "states": 5859,
      "sol": 5860,
      "pione": 5861,
      "reading": 5862,
      "assig": 5863,
      "GO": 5864,
      "ural": 5865,
      "Creat": 5866,
      "HO": 5867,
      "ọm": 5868,
      "Like": 5869,
      "four": 5870,
      "lim": 5871,
      "AD": 5872,
      "author": 5873,
      "message": 5874,
      "Elect": 5875,
      "France": 5876,
      "Pen": 5877,
      "ener": 5878,
      "raw": 5879,
      "months": 5880,
      "flo": 5881,
      "fine": 5882,
      "nable": 5883,
      "ico": 5884,
      "size": 5885,
      "ountain": 5886,
      "gion": 5887,
      "rik": 5888,
      "wisdom": 5889,
      "Other": 5890,
      "aring": 5891,
      "alite": 5892,
      "ito": 5893,
      "lasting": 5894,
      "leng": 5895,
      "jiji": 5896,
      "sons": 5897,
      "equ": 5898,
      "Blu": 5899,
      "eguzo": 5900,
      "tinyere": 5901,
      "believe": 5902,
      "America": 5903,
      "Lord": 5904,
      "rent": 5905,
      "local": 5906,
      "regular": 5907,
      "vine": 5908,
      "rep": 5909,
      "worth": 5910,
      "download": 5911,
      "Cl": 5912,
      "Usoro": 5913,
      "kil": 5914,
      "asọ": 5915,
      "ebere": 5916,
      "EM": 5917,
      "oo": 5918,
      "country": 5919,
      "polit": 5920,
      "ejere": 5921,
      "akwụsị": 5922,
      "itive": 5923,
      "chọpụtara": 5924,
      "rain": 5925,
      "likely": 5926,
      "makes": 5927,
      "Du": 5928,
      "othy": 5929,
      "cum": 5930,
      "mesịrị": 5931,
      "Produ": 5932,
      "confid": 5933,
      "serving": 5934,
      "PS": 5935,
      "ụba": 5936,
      "dịka": 5937,
      "echeta": 5938,
      "ekpo": 5939,
      "fold": 5940,
      "Ri": 5941,
      "type": 5942,
      "Gener": 5943,
      "GH": 5944,
      "ister": 5945,
      "Atụ": 5946,
      "process": 5947,
      "Sun": 5948,
      "phone": 5949,
      "espe": 5950,
      "ndu": 5951,
      "cript": 5952,
      "redit": 5953,
      "iled": 5954,
      "47": 5955,
      "osimiri": 5956,
      "xy": 5957,
      "received": 5958,
      "ched": 5959,
      "group": 5960,
      "especially": 5961,
      "teaching": 5962,
      "saw": 5963,
      "Law": 5964,
      "proof": 5965,
      "ource": 5966,
      "fra": 5967,
      "ically": 5968,
      "Consider": 5969,
      "condition": 5970,
      "Gal": 5971,
      "reco": 5972,
      "School": 5973,
      "aghọ": 5974,
      "Corinth": 5975,
      "taking": 5976,
      "debe": 5977,
      "talk": 5978,
      "receive": 5979,
      "bir": 5980,
      "benefit": 5981,
      "edo": 5982,
      "Mkpu": 5983,
      "ikuku": 5984,
      "Luk": 5985,
      "aghọta": 5986,
      "njikere": 5987,
      "GE": 5988,
      "gige": 5989,
      "chọọchị": 5990,
      "mama": 5991,
      "Download": 5992,
      "ray": 5993,
      "exp": 5994,
      "46": 5995,
      "ert": 5996,
      "solu": 5997,
      "ụra": 5998,
      "roid": 5999,
      "fal": 6000,
      "jupụtara": 6001,
      "pression": 6002,
      "yle": 6003,
      "common": 6004,
      "Pu": 6005,
      "verse": 6006,
      "comes": 6007,
      "Foot": 6008,
      "Because": 6009,
      "BE": 6010,
      "irst": 6011,
      "agadi": 6012,
      "safe": 6013,
      "riri": 6014,
      "Israelites": 6015,
      "Onyenwe": 6016,
      "area": 6017,
      "Tod": 6018,
      "Pi": 6019,
      "ek": 6020,
      "opport": 6021,
      "until": 6022,
      "tural": 6023,
      "loved": 6024,
      "ntanet": 6025,
      "appoint": 6026,
      "Greek": 6027,
      "pati": 6028,
      "nhazi": 6029,
      "similar": 6030,
      "Since": 6031,
      "Ọkpara": 6032,
      "Although": 6033,
      "Nweta": 6034,
      "ịkụ": 6035,
      "mention": 6036,
      "dead": 6037,
      "Sha": 6038,
      "42": 6039,
      "Timothy": 6040,
      "lish": 6041,
      "soon": 6042,
      "lowed": 6043,
      "express": 6044,
      "Cat": 6045,
      "ozizi": 6046,
      "sense": 6047,
      "edebe": 6048,
      "English": 6049,
      "VC": 6050,
      "according": 6051,
      "Pol": 6052,
      "ann": 6053,
      "ghọrọ": 6054,
      "okpomọkụ": 6055,
      "Am": 6056,
      "agbọghọ": 6057,
      "Isiokwu": 6058,
      "direct": 6059,
      "arịa": 6060,
      "situation": 6061,
      "anointed": 6062,
      "emere": 6063,
      "unic": 6064,
      "Fa": 6065,
      "10am": 6066,
      "stat": 6067,
      "illu": 6068,
      "ied": 6069,
      "Luke": 6070,
      "hor": 6071,
      "mission": 6072,
      "oche": 6073,
      "yet": 6074,
      "conven": 6075,
      "ahụmahụ": 6076,
      "desire": 6077,
      "Em": 6078,
      "ịka": 6079,
      "easy": 6080,
      "ikw": 6081,
      "born": 6082,
      "Life": 6083,
      "rop": 6084,
      "66": 6085,
      "Egwu": 6086,
      "dies": 6087,
      "Today": 6088,
      "FS": 6089,
      "uselem": 6090,
      "Day": 6091,
      "Jeruselem": 6092,
      "ugh": 6093,
      "itinye": 6094,
      "loyal": 6095,
      "second": 6096,
      "ziaka": 6097,
      "Post": 6098,
      "kọwara": 6099,
      "got": 6100,
      "feelings": 6101,
      "tail": 6102,
      "ark": 6103,
      "rought": 6104,
      "lies": 6105,
      "ourselves": 6106,
      "past": 6107,
      "Does": 6108,
      "Timoti": 6109,
      "gbuo": 6110,
      "mbi": 6111,
      "attention": 6112,
      "kọtara": 6113,
      "gust": 6114,
      "Igwe": 6115,
      "kịrị": 6116,
      "pụọ": 6117,
      "zuo": 6118,
      "display": 6119,
      "aly": 6120,
      "box": 6121,
      "TA": 6122,
      "eti": 6123,
      "viole": 6124,
      "March": 6125,
      "address": 6126,
      "Ọzọkwa": 6127,
      "nnyocha": 6128,
      "Br": 6129,
      "siona": 6130,
      "USD": 6131,
      "BI": 6132,
      "Ugbu": 6133,
      "Box": 6134,
      "serious": 6135,
      "kachasị": 6136,
      "ands": 6137,
      "ụjọ": 6138,
      "odide": 6139,
      "difficult": 6140,
      "influ": 6141,
      "uzo": 6142,
      "itate": 6143,
      "People": 6144,
      "II": 6145,
      "Ben": 6146,
      "CS": 6147,
      "ekpu": 6148,
      "Center": 6149,
      "mart": 6150,
      "value": 6151,
      "simp": 6152,
      "conclu": 6153,
      "Bar": 6154,
      "150": 6155,
      "Driver": 6156,
      "gọ": 6157,
      "emee": 6158,
      "Google": 6159,
      "ịnọgide": 6160,
      "mdi": 6161,
      "hum": 6162,
      "Para": 6163,
      "ọkọ": 6164,
      "ancient": 6165,
      "werw": 6166,
      "wn": 6167,
      "UN": 6168,
      "ndo": 6169,
      "wish": 6170,
      "cost": 6171,
      "foto": 6172,
      "akụ̀": 6173,
      "ikom": 6174,
      "turned": 6175,
      "ork": 6176,
      "gement": 6177,
      "nwanne": 6178,
      "strali": 6179,
      "Fri": 6180,
      "Web": 6181,
      "igosi": 6182,
      "parent": 6183,
      "mkpọ": 6184,
      "rele": 6185,
      "enced": 6186,
      "Joseph": 6187,
      "AM": 6188,
      "Nye": 6189,
      "Those": 6190,
      "gwo": 6191,
      "vision": 6192,
      "baptized": 6193,
      "meaning": 6194,
      "sc": 6195,
      "nate": 6196,
      "aro": 6197,
      "Nzukọ": 6198,
      "please": 6199,
      "heavenly": 6200,
      "aking": 6201,
      "Gi": 6202,
      "rat": 6203,
      "77": 6204,
      "Power": 6205,
      "ikwe": 6206,
      "uals": 6207,
      "ley": 6208,
      "already": 6209,
      "gas": 6210,
      "Bel": 6211,
      "ọsụ": 6212,
      "aster": 6213,
      "Solar": 6214,
      "saying": 6215,
      "served": 6216,
      "--": 6217,
      "cli": 6218,
      "thus": 6219,
      "El": 6220,
      "Jan": 6221,
      "August": 6222,
      "mgbapụta": 6223,
      "Australi": 6224,
      "gin": 6225,
      "version": 6226,
      "rich": 6227,
      "exer": 6228,
      "applic": 6229,
      "KA": 6230,
      "demon": 6231,
      "etc": 6232,
      "Acts": 6233,
      "wanted": 6234,
      "illustr": 6235,
      "Mere": 6236,
      "asatọ": 6237,
      "ọgwụgwụ": 6238,
      "willing": 6239,
      "short": 6240,
      "ended": 6241,
      "National": 6242,
      "pto": 6243,
      "San": 6244,
      "ording": 6245,
      "plan": 6246,
      "wanye": 6247,
      "Ver": 6248,
      "bes": 6249,
      "41": 6250,
      "dara": 6251,
      "ntu": 6252,
      "hours": 6253,
      "While": 6254,
      "nlekọta": 6255,
      "Pan": 6256,
      "bt": 6257,
      "enụ": 6258,
      "2015": 6259,
      "Ap": 6260,
      "begin": 6261,
      "Cover": 6262,
      "werwwerw": 6263,
      "elders": 6264,
      "egw": 6265,
      "Micro": 6266,
      "window": 6267,
      "history": 6268,
      "According": 6269,
      "nwetara": 6270,
      "half": 6271,
      "reali": 6272,
      "kwasịrị": 6273,
      "First": 6274,
      "chiche": 6275,
      "taken": 6276,
      "countries": 6277,
      "fy": 6278,
      "kọọ": 6279,
      "ential": 6280,
      "alaeze": 6281,
      "sian": 6282,
      "mụtara": 6283,
      "mg": 6284,
      "mgbalị": 6285,
      "arri": 6286,
      "Travel": 6287,
      "Mary": 6288,
      "ewere": 6289,
      "gni": 6290,
      "asi": 6291,
      "ịgwa": 6292,
      "curity": 6293,
      "ING": 6294,
      "Echiche": 6295,
      "brought": 6296,
      "chaghị": 6297,
      "itional": 6298,
      "started": 6299,
      "action": 6300,
      "họọrọ": 6301,
      "nkọwa": 6302,
      "tific": 6303,
      "ensu": 6304,
      "pes": 6305,
      "Indu": 6306,
      "Street": 6307,
      "mental": 6308,
      "production": 6309,
      "Speed": 6310,
      "various": 6311,
      "gir": 6312,
      "TC": 6313,
      "conne": 6314,
      "chụàjà": 6315,
      "JI": 6316,
      "within": 6317,
      "technology": 6318,
      "Taa": 6319,
      "49": 6320,
      "Septe": 6321,
      "dabeere": 6322,
      "omenala": 6323,
      "essional": 6324,
      "karịsịa": 6325,
      "reed": 6326,
      "Up": 6327,
      "panel": 6328,
      "knew": 6329,
      "hapụrụ": 6330,
      "ensị": 6331,
      "vere": 6332,
      "pet": 6333,
      "gbaa": 6334,
      "Os": 6335,
      "8pm": 6336,
      "ager": 6337,
      "Thus": 6338,
      "195": 6339,
      "Ik": 6340,
      "seen": 6341,
      "apply": 6342,
      "medi": 6343,
      "married": 6344,
      "gives": 6345,
      "White": 6346,
      "mid": 6347,
      "International": 6348,
      "akpụkpọ": 6349,
      "ezo": 6350,
      "focus": 6351,
      "maintain": 6352,
      "hot": 6353,
      "kwukwara": 6354,
      "tor": 6355,
      "Led": 6356,
      "dy": 6357,
      "tar": 6358,
      "naghị": 6359,
      "depend": 6360,
      "mputa": 6361,
      "strength": 6362,
      "Ken": 6363,
      "Corinthians": 6364,
      "ond": 6365,
      "War": 6366,
      "onwu": 6367,
      "Ed": 6368,
      "thinking": 6369,
      "ests": 6370,
      "State": 6371,
      "principles": 6372,
      "pịa": 6373,
      "dọk": 6374,
      "ọhịa": 6375,
      "ped": 6376,
      "gain": 6377,
      "igbu": 6378,
      "kets": 6379,
      "loc": 6380,
      "ginal": 6381,
      "CE": 6382,
      "require": 6383,
      "stead": 6384,
      "business": 6385,
      "ngwaọrụ": 6386,
      "ojii": 6387,
      "juru": 6388,
      "nghọta": 6389,
      "couple": 6390,
      "lick": 6391,
      "American": 6392,
      "òkè": 6393,
      "satis": 6394,
      "olo": 6395,
      "ugbo": 6396,
      "Book": 6397,
      "aza": 6398,
      "privile": 6399,
      "atụle": 6400,
      "cription": 6401,
      "Ebre": 6402,
      "Ebreham": 6403,
      "TH": 6404,
      "bot": 6405,
      "mend": 6406,
      "nchị": 6407,
      "wute": 6408,
      "Ọbụ": 6409,
      "Will": 6410,
      "inte": 6411,
      "week": 6412,
      "NKE": 6413,
      "Just": 6414,
      "building": 6415,
      "Nso": 6416,
      "parts": 6417,
      "ronic": 6418,
      "ghọtara": 6419,
      "date": 6420,
      "nothing": 6421,
      "Open": 6422,
      "nkume": 6423,
      "abo": 6424,
      "exist": 6425,
      "AP": 6426,
      "vation": 6427,
      "once": 6428,
      "ately": 6429,
      "kpebiri": 6430,
      "gasịrị": 6431,
      "ịkp": 6432,
      "ral": 6433,
      "auto": 6434,
      "Pictures": 6435,
      "ido": 6436,
      "train": 6437,
      "tụ̀": 6438,
      "false": 6439,
      "ọkwa": 6440,
      "ndọrọ": 6441,
      "deli": 6442,
      "takes": 6443,
      "kwala": 6444,
      "Watchtower": 6445,
      "whether": 6446,
      "stry": 6447,
      "izi": 6448,
      "church": 6449,
      "consci": 6450,
      "ateg": 6451,
      "mpaghara": 6452,
      "Mba": 6453,
      "mahịa": 6454,
      "Such": 6455,
      "Hot": 6456,
      "watch": 6457,
      "York": 6458,
      "students": 6459,
      "alụmdi": 6460,
      "pher": 6461,
      "circum": 6462,
      "gasị": 6463,
      "necess": 6464,
      "individuals": 6465,
      "onwunwe": 6466,
      "affe": 6467,
      "nọgidere": 6468,
      "papa": 6469,
      "icial": 6470,
      "hadum": 6471,
      "kindness": 6472,
      "Net": 6473,
      "mers": 6474,
      "Aị": 6475,
      "Eli": 6476,
      "Ngwaahịa": 6477,
      "liter": 6478,
      "ogige": 6479,
      "ịchị": 6480,
      "esa": 6481,
      "mobile": 6482,
      "echebe": 6483,
      "Pl": 6484,
      "attitude": 6485,
      "atta": 6486,
      "Bit": 6487,
      "alaka": 6488,
      "adịgide": 6489,
      "jụjụ": 6490,
      "hood": 6491,
      "iles": 6492,
      "graph": 6493,
      "viron": 6494,
      "Water": 6495,
      "moti": 6496,
      "sid": 6497,
      "shows": 6498,
      "Company": 6499,
      "laị": 6500,
      "kwaghị": 6501,
      "Metro": 6502,
      "Play": 6503,
      "ụgbọelu": 6504,
      "anọgide": 6505,
      "tempt": 6506,
      "youth": 6507,
      "Mee": 6508,
      "suffering": 6509,
      "Ty": 6510,
      "amaokwu": 6511,
      "Hall": 6512,
      "event": 6513,
      "posed": 6514,
      "files": 6515,
      "mbu": 6516,
      "arịta": 6517,
      "iting": 6518,
      "Hack": 6519,
      "Red": 6520,
      "Jews": 6521,
      "provided": 6522,
      "esonụ": 6523,
      "temple": 6524,
      "state": 6525,
      "Face": 6526,
      "leg": 6527,
      "color": 6528,
      "sever": 6529,
      "lected": 6530,
      "roy": 6531,
      "Ọdị": 6532,
      "ipment": 6533,
      "religion": 6534,
      "Internet": 6535,
      "Iv": 6536,
      "ịjụ": 6537,
      "ọnwụnwa": 6538,
      "prophet": 6539,
      "GA": 6540,
      "problem": 6541,
      "ST": 6542,
      "Ụbọchị": 6543,
      "egosipụta": 6544,
      "Phili": 6545,
      "bipụtara": 6546,
      "tụlee": 6547,
      "results": 6548,
      "Dr": 6549,
      "nje": 6550,
      "ghụ": 6551,
      "die": 6552,
      "2013": 6553,
      "magburu": 6554,
      "Ukwu": 6555,
      "fig": 6556,
      "kingdom": 6557,
      "sight": 6558,
      "taught": 6559,
      "Soci": 6560,
      "nchekwa": 6561,
      "ilt": 6562,
      "Nwere": 6563,
      "maj": 6564,
      "kota": 6565,
      "achụ": 6566,
      "Har": 6567,
      "nụrụ": 6568,
      "emezu": 6569,
      "Romans": 6570,
      "happiness": 6571,
      "simply": 6572,
      "arọ": 6573,
      "oko": 6574,
      "Out": 6575,
      "ency": 6576,
      "è": 6577,
      "rule": 6578,
      "followers": 6579,
      "Solomon": 6580,
      "hou": 6581,
      "Tupu": 6582,
      "han": 6583,
      "exerc": 6584,
      "astic": 6585,
      "music": 6586,
      "anabata": 6587,
      "ogbenye": 6588,
      "emebi": 6589,
      "ania": 6590,
      "Copy": 6591,
      "involved": 6592,
      "physical": 6593,
      "single": 6594,
      "eriri": 6595,
      "3D": 6596,
      "quick": 6597,
      "Online": 6598,
      "bat": 6599,
      "sayensị": 6600,
      "ker": 6601,
      "odu": 6602,
      "ached": 6603,
      "Atụmatụ": 6604,
      "\",": 6605,
      "imp": 6606,
      "ekweghị": 6607,
      "obedi": 6608,
      "stra": 6609,
      "moral": 6610,
      "OT": 6611,
      "cto": 6612,
      "wes": 6613,
      "ilities": 6614,
      "okorobịa": 6615,
      "glo": 6616,
      "inyom": 6617,
      "BA": 6618,
      "ties": 6619,
      "tụnyere": 6620,
      "field": 6621,
      "filled": 6622,
      "Ajụjụ": 6623,
      "Bus": 6624,
      "tọrọ": 6625,
      "erughị": 6626,
      "prison": 6627,
      "ghụghọ": 6628,
      "agụnye": 6629,
      "mentioned": 6630,
      "Gre": 6631,
      "gn": 6632,
      "stant": 6633,
      "rench": 6634,
      "gwọta": 6635,
      "effect": 6636,
      "Technology": 6637,
      "Did": 6638,
      "Next": 6639,
      "thous": 6640,
      "egwú": 6641,
      "million": 6642,
      "road": 6643,
      "manage": 6644,
      "About": 6645,
      "inese": 6646,
      "43": 6647,
      "UL": 6648,
      "cs": 6649,
      "favor": 6650,
      "85": 6651,
      "Sk": 6652,
      "training": 6653,
      "zara": 6654,
      "daịs": 6655,
      "Jiri": 6656,
      "mist": 6657,
      "Ìhè": 6658,
      "Oké": 6659,
      "Creator": 6660,
      "Sci": 6661,
      "ịrịọ": 6662,
      "velation": 6663,
      "June": 6664,
      "Sc": 6665,
      "Show": 6666,
      "Nwanna": 6667,
      "code": 6668,
      "gụọ": 6669,
      "During": 6670,
      "India": 6671,
      "Society": 6672,
      "igbe": 6673,
      "PVC": 6674,
      "tool": 6675,
      "carry": 6676,
      "ọ́": 6677,
      "written": 6678,
      "Ac": 6679,
      "lik": 6680,
      "Tube": 6681,
      "integr": 6682,
      "fall": 6683,
      "jects": 6684,
      "responsib": 6685,
      "onyeisi": 6686,
      "curren": 6687,
      "Josef": 6688,
      "News": 6689,
      "ney": 6690,
      "guid": 6691,
      "nzọ": 6692,
      "ots": 6693,
      "TV": 6694,
      "ously": 6695,
      "lied": 6696,
      "forts": 6697,
      "Chinese": 6698,
      "doo": 6699,
      "amb": 6700,
      "commend": 6701,
      "July": 6702,
      "auti": 6703,
      "heard": 6704,
      "Nkwa": 6705,
      "firm": 6706,
      "DC": 6707,
      "rul": 6708,
      "kwunye": 6709,
      "volu": 6710,
      "achọghị": 6711,
      "mgbasa": 6712,
      "named": 6713,
      "nyị": 6714,
      "gri": 6715,
      "Fil": 6716,
      "ably": 6717,
      "courage": 6718,
      "Hebrew": 6719,
      "mwute": 6720,
      "lost": 6721,
      "Cent": 6722,
      "pite": 6723,
      "held": 6724,
      "Australia": 6725,
      "prepare": 6726,
      "anihu": 6727,
      "famili": 6728,
      "Mmụọ": 6729,
      "ezighị": 6730,
      "Afọ": 6731,
      "pụkwara": 6732,
      "agwụ": 6733,
      "lex": 6734,
      "Grik": 6735,
      "cular": 6736,
      "drug": 6737,
      "ISO": 6738,
      "ahapụ": 6739,
      "increas": 6740,
      "Mkpughe": 6741,
      "95": 6742,
      "matters": 6743,
      "Cer": 6744,
      "sound": 6745,
      "appear": 6746,
      "Alu": 6747,
      "fulfill": 6748,
      "ified": 6749,
      "Banyere": 6750,
      "ụkọ": 6751,
      "azụmahịa": 6752,
      "nchegbu": 6753,
      "Agha": 6754,
      "Egy": 6755,
      "gard": 6756,
      "nkụzi": 6757,
      "September": 6758,
      "till": 6759,
      "Paris": 6760,
      "hara": 6761,
      "actu": 6762,
      "stay": 6763,
      "dachi": 6764,
      "ending": 6765,
      "daugh": 6766,
      "miah": 6767,
      "tre": 6768,
      "gift": 6769,
      "distri": 6770,
      "qualities": 6771,
      "eyi": 6772,
      "level": 6773,
      "Child": 6774,
      "sale": 6775,
      "standards": 6776,
      "Kọr": 6777,
      "Would": 6778,
      "email": 6779,
      "anyone": 6780,
      "Igbe": 6781,
      "ration": 6782,
      "weere": 6783,
      "stances": 6784,
      "Android": 6785,
      "Mark": 6786,
      "period": 6787,
      "ceed": 6788,
      "ndekọ": 6789,
      "job": 6790,
      "Tri": 6791,
      "à": 6792,
      "zụga": 6793,
      "Mod": 6794,
      "machine": 6795,
      "spired": 6796,
      "eduzi": 6797,
      "leave": 6798,
      "further": 6799,
      "teacher": 6800,
      "pages": 6801,
      "fail": 6802,
      "Lights": 6803,
      "fruit": 6804,
      "non": 6805,
      "67": 6806,
      "Gr": 6807,
      "XL": 6808,
      "sea": 6809,
      "cies": 6810,
      "final": 6811,
      "Ni": 6812,
      "Script": 6813,
      "occur": 6814,
      "Ngwá": 6815,
      "Ijipt": 6816,
      "Rather": 6817,
      "holic": 6818,
      "via": 6819,
      "certainly": 6820,
      "website": 6821,
      "major": 6822,
      "meekwa": 6823,
      "German": 6824,
      "Apri": 6825,
      "Octo": 6826,
      "Press": 6827,
      "Revelation": 6828,
      "ghachiri": 6829,
      "Most": 6830,
      "refer": 6831,
      "Ekwensu": 6832,
      "anụmanụ": 6833,
      "Top": 6834,
      "Service": 6835,
      "OF": 6836,
      "ghi": 6837,
      "elder": 6838,
      "kọmputa": 6839,
      "French": 6840,
      "Part": 6841,
      "return": 6842,
      "chukwu": 6843,
      "Aịza": 6844,
      "MP": 6845,
      "space": 6846,
      "abị": 6847,
      "percent": 6848,
      "issue": 6849,
      "lief": 6850,
      "strial": 6851,
      "litere": 6852,
      "above": 6853,
      "Ber": 6854,
      "Ná": 6855,
      "truly": 6856,
      "powerful": 6857,
      "Products": 6858,
      "mbà": 6859,
      "...]": 6860,
      "include": 6861,
      "neigh": 6862,
      "400": 6863,
      "market": 6864,
      "bapt": 6865,
      "fast": 6866,
      "mony": 6867,
      "Under": 6868,
      "October": 6869,
      "Nkọwa": 6870,
      "ụda": 6871,
      "Dece": 6872,
      "esiri": 6873,
      "expect": 6874,
      "choose": 6875,
      "ezughị": 6876,
      "stanbul": 6877,
      "dro": 6878,
      "fice": 6879,
      "promise": 6880,
      "sus": 6881,
      "ntọ": 6882,
      "everything": 6883,
      "Previous": 6884,
      "several": 6885,
      "Ez": 6886,
      "sians": 6887,
      "Good": 6888,
      "specific": 6889,
      "changed": 6890,
      "eria": 6891,
      "everlasting": 6892,
      "Gra": 6893,
      "conom": 6894,
      "Ze": 6895,
      "righteousness": 6896,
      "December": 6897,
      "Fran": 6898,
      "Shi": 6899,
      "missiona": 6900,
      "longer": 6901,
      "pursu": 6902,
      "meeting": 6903,
      "provides": 6904,
      "Devil": 6905,
      "ịṅụ": 6906,
      "nkiri": 6907,
      "Òtù": 6908,
      "uary": 6909,
      "nduzi": 6910,
      "kept": 6911,
      "else": 6912,
      "contact": 6913,
      "Bay": 6914,
      "makwụkwọ": 6915,
      "mode": 6916,
      "mine": 6917,
      "phy": 6918,
      "spiritually": 6919,
      "FX": 6920,
      "Ọchị": 6921,
      "chite": 6922,
      "ulation": 6923,
      "ngọzi": 6924,
      "Great": 6925,
      "round": 6926,
      "recogni": 6927,
      "Alumin": 6928,
      "metal": 6929,
      "Jona": 6930,
      "Er": 6931,
      "Lat": 6932,
      "aghụghọ": 6933,
      "anything": 6934,
      "cons": 6935,
      "ị́": 6936,
      "resist": 6937,
      "ọ̀": 6938,
      "emepe": 6939,
      "activities": 6940,
      "ado": 6941,
      "bili": 6942,
      "lụrụ": 6943,
      "zon": 6944,
      "effort": 6945,
      "lights": 6946,
      "Look": 6947,
      "created": 6948,
      "mic": 6949,
      "kaadị": 6950,
      "shall": 6951,
      "wers": 6952,
      "series": 6953,
      "01": 6954,
      "Bekee": 6955,
      "ball": 6956,
      "hab": 6957,
      "Roman": 6958,
      "sere": 6959,
      "liers": 6960,
      "chap": 6961,
      "lere": 6962,
      "Akụkọ": 6963,
      "sisters": 6964,
      "IV": 6965,
      "aranya": 6966,
      "April": 6967,
      "Ụgbọ": 6968,
      "break": 6969,
      "Istanbul": 6970,
      "Over": 6971,
      "cking": 6972,
      "hol": 6973,
      "comfort": 6974,
      "Nu": 6975,
      "Keep": 6976,
      "commit": 6977,
      "events": 6978,
      "ọgaranya": 6979,
      "cell": 6980,
      "emb": 6981,
      "European": 6982,
      "120": 6983,
      "Por": 6984,
      "sell": 6985,
      "contri": 6986,
      "bri": 6987,
      "ịkọ": 6988,
      "stitu": 6989,
      "eweta": 6990,
      "Ear": 6991,
      "klas": 6992,
      "ṅomi": 6993,
      "kwekọrọ": 6994,
      "program": 6995,
      "Prof": 6996,
      "understanding": 6997,
      "isa": 6998,
      "2000": 6999,
      "Nk": 7000,
      "role": 7001,
      "accur": 7002,
      "Ahịa": 7003,
      "TS": 7004,
      "inspired": 7005,
      "anwa": 7006,
      "itation": 7007,
      "EC": 7008,
      "Ele": 7009,
      "honor": 7010,
      "natural": 7011,
      "eju": 7012,
      "otion": 7013,
      "ping": 7014,
      "recent": 7015,
      "standing": 7016,
      "Hel": 7017,
      "sacrifice": 7018,
      "ákwà": 7019,
      "ret": 7020,
      "resurrection": 7021,
      "dọkịta": 7022,
      "ators": 7023,
      "ịkpa": 7024,
      "cheta": 7025,
      "autiful": 7026,
      "Mobile": 7027,
      "mical": 7028,
      "research": 7029,
      "proved": 7030,
      "ising": 7031,
      "greater": 7032,
      "ịgbanwe": 7033,
      "slave": 7034,
      "Year": 7035,
      "ịkwụsị": 7036,
      "inyo": 7037,
      "lig": 7038,
      "Men": 7039,
      "Vide": 7040,
      "ither": 7041,
      "source": 7042,
      "rather": 7043,
      "http": 7044,
      "Ara": 7045,
      "earn": 7046,
      "original": 7047,
      "looking": 7048,
      "crow": 7049,
      "wonderful": 7050,
      "Wal": 7051,
      "Flo": 7052,
      "scre": 7053,
      "ANY": 7054,
      "MS": 7055,
      "Pet": 7056,
      "orts": 7057,
      "ndịozi": 7058,
      "Add": 7059,
      "Genesis": 7060,
      "kwo": 7061,
      "lived": 7062,
      "divine": 7063,
      "1x": 7064,
      "wezụga": 7065,
      "perse": 7066,
      "nchebe": 7067,
      "ndokwa": 7068,
      "remember": 7069,
      "Mu": 7070,
      "ịnya": 7071,
      "Brazi": 7072,
      "agwọ": 7073,
      "sterone": 7074,
      "modern": 7075,
      "Jenesis": 7076,
      "oud": 7077,
      "pected": 7078,
      "Pat": 7079,
      "elụ": 7080,
      "animal": 7081,
      "eder": 7082,
      "cture": 7083,
      "Canada": 7084,
      "government": 7085,
      "sun": 7086,
      "ull": 7087,
      "erved": 7088,
      "Kore": 7089,
      "particular": 7090,
      "\".": 7091,
      "ulo": 7092,
      "ici": 7093,
      "nific": 7094,
      "ERE": 7095,
      "ylon": 7096,
      "popular": 7097,
      "meere": 7098,
      "evidence": 7099,
      "ib": 7100,
      "actions": 7101,
      "sidered": 7102,
      "older": 7103,
      "km": 7104,
      "lesh": 7105,
      "bran": 7106,
      "apostles": 7107,
      "circumstances": 7108,
      "87": 7109,
      "kwaara": 7110,
      "published": 7111,
      "wd": 7112,
      "berede": 7113,
      "akwanyere": 7114,
      "lata": 7115,
      "fire": 7116,
      "Ọbụna": 7117,
      "Tes": 7118,
      "gment": 7119,
      "hear": 7120,
      "ishing": 7121,
      "views": 7122,
      "considered": 7123,
      "2020": 7124,
      "2012": 7125,
      "pair": 7126,
      "59": 7127,
      "Cy": 7128,
      "anti": 7129,
      "arịọ": 7130,
      "Bas": 7131,
      "Sho": 7132,
      "desk": 7133,
      "opportunity": 7134,
      "lose": 7135,
      "UT": 7136,
      "claim": 7137,
      "Get": 7138,
      "Tag": 7139,
      "ọka": 7140,
      "formed": 7141,
      "acka": 7142,
      "identi": 7143,
      "efforts": 7144,
      "earch": 7145,
      "puter": 7146,
      "helps": 7147,
      "mọrụ": 7148,
      "Pụrụ": 7149,
      "mil": 7150,
      "dịgasị": 7151,
      "sheep": 7152,
      "mbly": 7153,
      "aled": 7154,
      "reach": 7155,
      "emetụta": 7156,
      "sister": 7157,
      "Jac": 7158,
      "sequ": 7159,
      "quare": 7160,
      "five": 7161,
      "Egwuregwu": 7162,
      "vin": 7163,
      "January": 7164,
      "def": 7165,
      "ndú": 7166,
      "determin": 7167,
      "Mex": 7168,
      "Soft": 7169,
      "iPhone": 7170,
      "wepụ": 7171,
      "ịrịba": 7172,
      "desig": 7173,
      "2014": 7174,
      "ION": 7175,
      "Span": 7176,
      "bia": 7177,
      "biko": 7178,
      "Max": 7179,
      "pressure": 7180,
      "View": 7181,
      "magazin": 7182,
      "Fact": 7183,
      "assu": 7184,
      "ọdịmma": 7185,
      "ọtọ": 7186,
      "Manufacturer": 7187,
      "belief": 7188,
      "emeso": 7189,
      "ọdachi": 7190,
      "ills": 7191,
      "showed": 7192,
      "occas": 7193,
      "Ntu": 7194,
      "dị́": 7195,
      "vey": 7196,
      "foot": 7197,
      "bis": 7198,
      "current": 7199,
      "Mag": 7200,
      "IR": 7201,
      "WE": 7202,
      "dịịrị": 7203,
      "asse": 7204,
      "Chọọ": 7205,
      "flesh": 7206,
      "wered": 7207,
      "logical": 7208,
      "doubt": 7209,
      "ashi": 7210,
      "ekwentị": 7211,
      "Steel": 7212,
      "nrụ": 7213,
      "baa": 7214,
      "Onyeàmà": 7215,
      "Have": 7216,
      "Spanish": 7217,
      "reward": 7218,
      "creation": 7219,
      "Copyright": 7220,
      "baptism": 7221,
      "Noa": 7222,
      "entire": 7223,
      "Lon": 7224,
      "ica": 7225,
      "dered": 7226,
      "emi": 7227,
      "addition": 7228,
      "Obodo": 7229,
      "Photo": 7230,
      "Sta": 7231,
      "ejiri": 7232,
      "therefore": 7233,
      "Gosi": 7234,
      "lastic": 7235,
      "soul": 7236,
      "baara": 7237,
      "Wa": 7238,
      "represent": 7239,
      "Their": 7240,
      "stop": 7241,
      "multi": 7242,
      "kwá": 7243,
      "enough": 7244,
      "hands": 7245,
      "direction": 7246,
      "folder": 7247,
      "89": 7248,
      "ịba": 7249,
      "office": 7250,
      "mgbu": 7251,
      "ịdọ": 7252,
      "alone": 7253,
      "activity": 7254,
      "Mkpụrụ": 7255,
      "electric": 7256,
      "Eve": 7257,
      "ij": 7258,
      "neg": 7259,
      "ebibi": 7260,
      "forever": 7261,
      "ịda": 7262,
      "limited": 7263,
      "echi": 7264,
      "pee": 7265,
      "otuto": 7266,
      "hut": 7267,
      "turing": 7268,
      "https": 7269,
      "spoke": 7270,
      "Catholic": 7271,
      "enem": 7272,
      "jikwa": 7273,
      "amata": 7274,
      "speed": 7275,
      "Hist": 7276,
      "Ọgwụ": 7277,
      "save": 7278,
      "arụmọrụ": 7279,
      "Model": 7280,
      "plastic": 7281,
      "organization": 7282,
      "Eriri": 7283,
      "six": 7284,
      "lying": 7285,
      "regarding": 7286,
      "Every": 7287,
      "van": 7288,
      "birth": 7289,
      "Credit": 7290,
      "slee": 7291,
      "challeng": 7292,
      "Wel": 7293,
      "perhaps": 7294,
      "Febru": 7295,
      "lor": 7296,
      "Automatic": 7297,
      "Ikike": 7298,
      "temp": 7299,
      "Tower": 7300,
      "bute": 7301,
      "Ego": 7302,
      "gụrụ": 7303,
      "pal": 7304,
      "February": 7305,
      "Size": 7306,
      "AH": 7307,
      "ared": 7308,
      "pot": 7309,
      "Love": 7310,
      "blog": 7311,
      "force": 7312,
      "prog": 7313,
      "enyo": 7314,
      "ọganihu": 7315,
      "engine": 7316,
      "gradu": 7317,
      "compl": 7318,
      "speaking": 7319,
      "cast": 7320,
      "print": 7321,
      "Never": 7322,
      "Val": 7323,
      "former": 7324,
      "mkpagbu": 7325,
      "REE": 7326,
      "Clear": 7327,
      "ịiko": 7328,
      "gbanwee": 7329,
      "NO": 7330,
      "PD": 7331,
      "rac": 7332,
      "loss": 7333,
      "daily": 7334,
      "element": 7335,
      "GỤ": 7336,
      "adịrị": 7337,
      "protection": 7338,
      "ners": 7339,
      "ọgbọ": 7340,
      "hụụ": 7341,
      "Nove": 7342,
      "Vol": 7343,
      "batara": 7344,
      "pere": 7345,
      "USB": 7346,
      "obey": 7347,
      "má": 7348,
      "erubere": 7349,
      "believers": 7350,
      "tou": 7351,
      "contr": 7352,
      "image": 7353,
      "Ugwu": 7354,
      "Tat": 7355,
      "chic": 7356,
      "trad": 7357,
      "examples": 7358,
      "zí": 7359,
      "Jewish": 7360,
      "steel": 7361,
      "cm": 7362,
      "jụọ": 7363,
      "Noah": 7364,
      "appointed": 7365,
      "SE": 7366,
      "Swit": 7367,
      "VD": 7368,
      "bol": 7369,
      "bag": 7370,
      "oted": 7371,
      "access": 7372,
      "kpọọ": 7373,
      "Happ": 7374,
      "itself": 7375,
      "rouble": 7376,
      "godly": 7377,
      "decision": 7378,
      "Ah": 7379,
      "mbara": 7380,
      "emegide": 7381,
      "Instead": 7382,
      "Still": 7383,
      "manufac": 7384,
      "Microsoft": 7385,
      "SS": 7386,
      "abụrụ": 7387,
      "chin": 7388,
      "ejegharị": 7389,
      "05": 7390,
      "Meri": 7391,
      "accompl": 7392,
      "psal": 7393,
      "mpempe": 7394,
      "Facebook": 7395,
      "town": 7396,
      "́à": 7397,
      "prayers": 7398,
      "achara": 7399,
      "ats": 7400,
      "Jos": 7401,
      "Ịhụ": 7402,
      "stated": 7403,
      "continued": 7404,
      "places": 7405,
      "justice": 7406,
      "temper": 7407,
      "ilite": 7408,
      "buy": 7409,
      "promises": 7410,
      "FSX": 7411,
      "notes": 7412,
      "ikwusa": 7413,
      "product": 7414,
      "prise": 7415,
      "hur": 7416,
      "fit": 7417,
      "èzí": 7418,
      "copy": 7419,
      "sexual": 7420,
      "super": 7421,
      "demonstr": 7422,
      "Plastic": 7423,
      "enable": 7424,
      "vert": 7425,
      "tery": 7426,
      "mberede": 7427,
      "nchụàjà": 7428,
      "photo": 7429,
      "…]": 7430,
      "belong": 7431,
      "Work": 7432,
      "Nde": 7433,
      "Biko": 7434,
      "abric": 7435,
      "operation": 7436,
      "oleekwa": 7437,
      "sacrific": 7438,
      "violence": 7439,
      "Motor": 7440,
      "fla": 7441,
      "advice": 7442,
      "authority": 7443,
      "ekpuchi": 7444,
      "Họrọ": 7445,
      "Uk": 7446,
      "kwụnye": 7447,
      "imitate": 7448,
      "professional": 7449,
      "map": 7450,
      "simple": 7451,
      "Hebrews": 7452,
      "guard": 7453,
      "write": 7454,
      "Version": 7455,
      "NE": 7456,
      "tala": 7457,
      "vered": 7458,
      "create": 7459,
      "decid": 7460,
      "Bitcoin": 7461,
      "wọk": 7462,
      "wood": 7463,
      "kpọtụrụ": 7464,
      "Ori": 7465,
      "Italy": 7466,
      "Young": 7467,
      "weight": 7468,
      "Mexico": 7469,
      "TR": 7470,
      "nsụgharị": 7471,
      "Russia": 7472,
      "ier": 7473,
      "Mak": 7474,
      "tosterone": 7475,
      "poor": 7476,
      "crypto": 7477,
      "necessary": 7478,
      "November": 7479,
      "ene": 7480,
      "chol": 7481,
      "everyone": 7482,
      "ụtụtụ": 7483,
      "Osimiri": 7484,
      "meas": 7485,
      "Product": 7486,
      "confidence": 7487,
      "ntanetị": 7488,
      "management": 7489,
      "Us": 7490,
      "environ": 7491,
      "active": 7492,
      "Scriptural": 7493,
      "wall": 7494,
      "aso": 7495,
      "gbalị": 7496,
      "seven": 7497,
      "tele": 7498,
      "pane": 7499,
      "Dep": 7500,
      "mountain": 7501,
      "least": 7502,
      "learning": 7503,
      "mgbochi": 7504,
      "ini": 7505,
      "hosp": 7506,
      "zeal": 7507,
      "London": 7508,
      "YE": 7509,
      "já": 7510,
      "ọbịa": 7511,
      "security": 7512,
      "cipl": 7513,
      "instance": 7514,
      "assist": 7515,
      "orial": 7516,
      "explained": 7517,
      "rie": 7518,
      "arrange": 7519,
      "IA": 7520,
      "itable": 7521,
      "overse": 7522,
      "congregations": 7523,
      "languages": 7524,
      "urance": 7525,
      "feat": 7526,
      "ngọ": 7527,
      "pioneer": 7528,
      "books": 7529,
      "AND": 7530,
      "calls": 7531,
      "bonus": 7532,
      "Babylon": 7533,
      "tom": 7534,
      "Brother": 7535,
      "Data": 7536,
      "bac": 7537,
      "ịghọ": 7538,
      "irè": 7539,
      "worldwide": 7540,
      "getting": 7541,
      "actually": 7542,
      "dle": 7543,
      "ntụziaka": 7544,
      "Bur": 7545,
      "ememe": 7546,
      "Messi": 7547,
      "danger": 7548,
      "onable": 7549,
      "effective": 7550,
      "Cap": 7551,
      "echekwa": 7552,
      "seek": 7553,
      "letter": 7554,
      "beautiful": 7555,
      "Sil": 7556,
      "pha": 7557,
      "bidoro": 7558,
      "iguzo": 7559,
      "juju": 7560,
      "Spir": 7561,
      "Wo": 7562,
      "Count": 7563,
      "Mus": 7564,
      "ejighị": 7565,
      "ndidi": 7566,
      "69": 7567,
      "Business": 7568,
      "Brazil": 7569,
      "sor": 7570,
      "Pay": 7571,
      "ọmịiko": 7572,
      "sì": 7573,
      "zhou": 7574,
      "amị": 7575,
      "achọpụta": 7576,
      "prophecy": 7577,
      "center": 7578,
      "oil": 7579,
      "Ònye": 7580,
      "positive": 7581,
      "walk": 7582,
      "Sing": 7583,
      "akw": 7584,
      "Ọhụrụ": 7585,
      ".:": 7586,
      "Asia": 7587,
      "Fili": 7588,
      "MO": 7589,
      "constru": 7590,
      "Glo": 7591,
      "destroy": 7592,
      "kit": 7593,
      "kwadoro": 7594,
      "kwụsịrị": 7595,
      "oked": 7596,
      "protect": 7597,
      "decisions": 7598,
      "Mkpa": 7599,
      "wuru": 7600,
      "changes": 7601,
      "Ak": 7602,
      "Cas": 7603,
      "rate": 7604,
      "ụta": 7605,
      "comfor": 7606,
      "corre": 7607,
      "Mom": 7608,
      "Mart": 7609,
      "alum": 7610,
      "Nọ": 7611,
      "Indeed": 7612,
      "Supp": 7613,
      "ason": 7614,
      "forward": 7615,
      "charac": 7616,
      "FREE": 7617,
      "crit": 7618,
      "expression": 7619,
      "whose": 7620,
      "mark": 7621,
      "priate": 7622,
      "Ant": 7623,
      "Kwa": 7624,
      "itor": 7625,
      "250": 7626,
      "related": 7627,
      "nzuzo": 7628,
      "oloko": 7629,
      "development": 7630,
      "fair": 7631,
      "blessings": 7632,
      "ịtụkwasị": 7633,
      "Nsogbu": 7634,
      "Enwere": 7635,
      "agbụrụ": 7636,
      "blessing": 7637,
      "True": 7638,
      "usually": 7639,
      "dina": 7640,
      "Katọ": 7641,
      "ero": 7642,
      "68": 7643,
      "Mis": 7644,
      "́è": 7645,
      "offered": 7646,
      "education": 7647,
      "branch": 7648,
      "Gold": 7649,
      "privilege": 7650,
      "AB": 7651,
      "Far": 7652,
      "experienced": 7653,
      "heavens": 7654,
      "thoughts": 7655,
      "Katọlik": 7656,
      "aches": 7657,
      "gs": 7658,
      "cret": 7659,
      "Mgba": 7660,
      "Obere": 7661,
      "shar": 7662,
      "rịọ": 7663,
      "Brit": 7664,
      "nkụ": 7665,
      "ample": 7666,
      "content": 7667,
      "determined": 7668,
      "uter": 7669,
      "energy": 7670,
      "ntọala": 7671,
      "Ephe": 7672,
      "nchara": 7673,
      "edozi": 7674,
      "ased": 7675,
      "ABỤ": 7676,
      "Efes": 7677,
      "utes": 7678,
      "eries": 7679,
      "aghara": 7680,
      "link": 7681,
      "ọkpụ": 7682,
      "wants": 7683,
      "stitute": 7684,
      "hind": 7685,
      "alaba": 7686,
      "lia": 7687,
      "incre": 7688,
      "GS": 7689,
      "Hence": 7690,
      "dden": 7691,
      "ufe": 7692,
      "Efesọs": 7693,
      "600": 7694,
      "endu": 7695,
      "improve": 7696,
      "ịny": 7697,
      "otional": 7698,
      "02": 7699,
      "ends": 7700,
      "hearts": 7701,
      "normal": 7702,
      "hicha": 7703,
      "Ple": 7704,
      "mahadum": 7705,
      "itoolu": 7706,
      "currency": 7707,
      "bụgba": 7708,
      "Sunday": 7709,
      "!!": 7710,
      "ọna": 7711,
      "kes": 7712,
      "ront": 7713,
      "wdg": 7714,
      "ịgbas": 7715,
      "Rome": 7716,
      "eat": 7717,
      "aling": 7718,
      "Jems": 7719,
      "saịa": 7720,
      "Abụọ": 7721,
      "cultiv": 7722,
      "Fur": 7723,
      "Mana": 7724,
      "ọgwụgwọ": 7725,
      "smo": 7726,
      "́ọ̀": 7727,
      "excel": 7728,
      "�����": 7729,
      "mpụ": 7730,
      "jection": 7731,
      "Before": 7732,
      "influence": 7733,
      "flow": 7734,
      "vital": 7735,
      "esday": 7736,
      "chee": 7737,
      "Philipp": 7738,
      "either": 7739,
      "197": 7740,
      "Footnote": 7741,
      "Video": 7742,
      "CC": 7743,
      "Fin": 7744,
      "Gl": 7745,
      "ngalaba": 7746,
      "Pad": 7747,
      "ngwụ": 7748,
      "exe": 7749,
      "Mi": 7750,
      "gid": 7751,
      "pert": 7752,
      "ọkara": 7753,
      "glory": 7754,
      "accepted": 7755,
      "Don": 7756,
      "jour": 7757,
      "emede": 7758,
      "Jerema": 7759,
      "Factory": 7760,
      "Lin": 7761,
      "built": 7762,
      "Also": 7763,
      "istic": 7764,
      "practical": 7765,
      "treatment": 7766,
      "akwu": 7767,
      "ila": 7768,
      "omita": 7769,
      "survi": 7770,
      "explains": 7771,
      "azịza": 7772,
      "North": 7773,
      "tat": 7774,
      "respond": 7775,
      "Ruo": 7776,
      "recorded": 7777,
      "Jeremiah": 7778,
      "rem": 7779,
      "nwu": 7780,
      "Rail": 7781,
      "answers": 7782,
      "trouble": 7783,
      "ox": 7784,
      "hia": 7785,
      "shepher": 7786,
      "57": 7787,
      "Know": 7788,
      "Nig": 7789,
      "wụwa": 7790,
      "edemede": 7791,
      "ird": 7792,
      "ident": 7793,
      "Where": 7794,
      "zar": 7795,
      "team": 7796,
      "Here": 7797,
      "Mil": 7798,
      "cure": 7799,
      "range": 7800,
      "bey": 7801,
      "ilead": 7802,
      "reedom": 7803,
      "Okp": 7804,
      "2011": 7805,
      "Tụlee": 7806,
      "ando": 7807,
      "East": 7808,
      "eli": 7809,
      "discipl": 7810,
      "Geor": 7811,
      "NW": 7812,
      "Comm": 7813,
      "happened": 7814,
      "Ter": 7815,
      "preach": 7816,
      "kụziiri": 7817,
      "honest": 7818,
      "Cour": 7819,
      "YO": 7820,
      "nical": 7821,
      "amp": 7822,
      "oghere": 7823,
      "Cus": 7824,
      "ámá": 7825,
      "earlier": 7826,
      "ntụrụ": 7827,
      "ịchọta": 7828,
      "Kọrint": 7829,
      "Uru": 7830,
      "welcome": 7831,
      "Blue": 7832,
      "Sọ": 7833,
      "ghere": 7834,
      "Juda": 7835,
      "Tool": 7836,
      "General": 7837,
      "Gilead": 7838,
      "Therefore": 7839,
      "mkpuchi": 7840,
      "spring": 7841,
      "decla": 7842,
      "IF": 7843,
      "acy": 7844,
      "reasons": 7845,
      "Children": 7846,
      "Awa": 7847,
      "enwere": 7848,
      "Office": 7849,
      "nar": 7850,
      "Dire": 7851,
      "ájá": 7852,
      "nter": 7853,
      "etara": 7854,
      "bụrụkwa": 7855,
      "apụ": 7856,
      "nchọpụta": 7857,
      "gbal": 7858,
      "forth": 7859,
      "added": 7860,
      "colle": 7861,
      "DA": 7862,
      "fight": 7863,
      "eleghị": 7864,
      "angels": 7865,
      "pasent": 7866,
      "manufacturing": 7867,
      "wid": 7868,
      "acts": 7869,
      "achịkwa": 7870,
      "ekpebi": 7871,
      "ntụrụndụ": 7872,
      "Vis": 7873,
      "somebe": 7874,
      "Grou": 7875,
      "media": 7876,
      "evil": 7877,
      "described": 7878,
      "Im": 7879,
      "fts": 7880,
      "social": 7881,
      "IO": 7882,
      "separ": 7883,
      "lock": 7884,
      "ghaghị": 7885,
      "Priv": 7886,
      "83": 7887,
      "amara": 7888,
      "sign": 7889,
      "Russian": 7890,
      "900": 7891,
      "cked": 7892,
      "sick": 7893,
      "lean": 7894,
      "international": 7895,
      "1000": 7896,
      "Enweghị": 7897,
      "HD": 7898,
      "Kris": 7899,
      "mir": 7900,
      "anw": 7901,
      "minister": 7902,
      "Server": 7903,
      "Electric": 7904,
      "DVD": 7905,
      "icon": 7906,
      "acqu": 7907,
      "emeghị": 7908,
      "atị": 7909,
      "Gosp": 7910,
      "affect": 7911,
      "Saul": 7912,
      "signific": 7913,
      "lenge": 7914,
      "teachings": 7915,
      "cru": 7916,
      "pti": 7917,
      "areas": 7918,
      "Sur": 7919,
      "ụtụ": 7920,
      "chain": 7921,
      "ọgbụgba": 7922,
      "nka": 7923,
      "chapụ": 7924,
      "cope": 7925,
      "established": 7926,
      "ịnyịnya": 7927,
      "07": 7928,
      "dian": 7929,
      "64": 7930,
      "cis": 7931,
      "benefits": 7932,
      "individual": 7933,
      "Ọchịchị": 7934,
      "Another": 7935,
      "commun": 7936,
      "ried": 7937,
      "stress": 7938,
      "services": 7939,
      "UK": 7940,
      "esti": 7941,
      "allowed": 7942,
      "Anti": 7943,
      "subject": 7944,
      "kilomita": 7945,
      "2010": 7946,
      "standard": 7947,
      "claime": 7948,
      "Ikpe": 7949,
      "Sto": 7950,
      "enga": 7951,
      "tụkwasị": 7952,
      "los": 7953,
      "Make": 7954,
      "nsọpụrụ": 7955,
      "shown": 7956,
      "throughout": 7957,
      "race": 7958,
      "materi": 7959,
      "millions": 7960,
      "zere": 7961,
      "menti": 7962,
      "toos": 7963,
      "magazine": 7964,
      "cuit": 7965,
      "clearly": 7966,
      "somebefaịlụ": 7967,
      "EJI": 7968,
      "ium": 7969,
      "tan": 7970,
      "undred": 7971,
      "Okike": 7972,
      "girl": 7973,
      "paneelụ": 7974,
      "Alex": 7975,
      "Sọl": 7976,
      "gan": 7977,
      "Inc": 7978,
      "metho": 7979,
      "Map": 7980,
      "placed": 7981,
      "suppliers": 7982,
      "Hyper": 7983,
      "Tha": 7984,
      "cat": 7985,
      "hua": 7986,
      "judgment": 7987,
      "ịhịa": 7988,
      "nated": 7989,
      "redu": 7990,
      "weak": 7991,
      "tube": 7992,
      "decided": 7993,
      "EUR": 7994,
      "aliri": 7995,
      "ntinye": 7996,
      "choice": 7997,
      "tried": 7998,
      "Kemgbe": 7999,
      "Type": 8000,
      "quickly": 8001,
      "Aịzaya": 8002,
      "SU": 8003,
      "sales": 8004,
      "trading": 8005,
      "developed": 8006,
      "Egypt": 8007,
      "Kwes": 8008,
      "izere": 8009,
      "Om": 8010,
      "PO": 8011,
      "stone": 8012,
      "chebe": 8013,
      "request": 8014,
      "appropriate": 8015,
      "ridge": 8016,
      "daughter": 8017,
      "mọn": 8018,
      "rịka": 8019,
      "Bethe": 8020,
      "Fam": 8021,
      "uries": 8022,
      "ids": 8023,
      "nwụọ": 8024,
      "harm": 8025,
      "medical": 8026,
      "Betel": 8027,
      "chapter": 8028,
      "helping": 8029,
      "isher": 8030,
      "location": 8031,
      "Name": 8032,
      "ọdịdị": 8033,
      "Onwe": 8034,
      "ilo": 8035,
      "industry": 8036,
      "Agba": 8037,
      "eye": 8038,
      "kat": 8039,
      "almost": 8040,
      "extra": 8041,
      "Plan": 8042,
      "vest": 8043,
      "chu": 8044,
      "immedi": 8045,
      "mezuo": 8046,
      "plant": 8047,
      "Ask": 8048,
      "KWUO": 8049,
      "ojuju": 8050,
      "initi": 8051,
      "Cheta": 8052,
      "leading": 8053,
      "household": 8054,
      "unicip": 8055,
      "egbochi": 8056,
      "expected": 8057,
      "Health": 8058,
      "Holy": 8059,
      "Others": 8060,
      "application": 8061,
      "Group": 8062,
      "DO": 8063,
      "kg": 8064,
      "ịmara": 8065,
      "menu": 8066,
      "ákwá": 8067,
      "myself": 8068,
      "ances": 8069,
      "agọzi": 8070,
      "Ek": 8071,
      "1914": 8072,
      "ncheta": 8073,
      "leaders": 8074,
      "integrity": 8075,
      "​​": 8076,
      "detail": 8077,
      "Holm": 8078,
      "raised": 8079,
      "big": 8080,
      "covered": 8081,
      "jupụta": 8082,
      "England": 8083,
      "practice": 8084,
      "translation": 8085,
      "steps": 8086,
      "game": 8087,
      "constant": 8088,
      "caused": 8089,
      "USA": 8090,
      "cale": 8091,
      "ọlị": 8092,
      "designed": 8093,
      "cities": 8094,
      "Ịlaị": 8095,
      "threat": 8096,
      "nupụ": 8097,
      "Design": 8098,
      "strengthen": 8099,
      "gọọ": 8100,
      "mita": 8101,
      "style": 8102,
      "ush": 8103,
      "kwaa": 8104,
      "term": 8105,
      "cti": 8106,
      "card": 8107,
      "thern": 8108,
      "imi": 8109,
      "adabere": 8110,
      "concern": 8111,
      "63": 8112,
      "Ning": 8113,
      "selected": 8114,
      "poly": 8115,
      "ọṅụṅụ": 8116,
      "Roller": 8117,
      "eguzosi": 8118,
      "conditions": 8119,
      "families": 8120,
      "crus": 8121,
      "ahọrọ": 8122,
      "reflect": 8123,
      "politan": 8124,
      "ịchụ": 8125,
      "required": 8126,
      "Dist": 8127,
      "employ": 8128,
      "lash": 8129,
      "fix": 8130,
      "promised": 8131,
      "accurate": 8132,
      "arịrịọ": 8133,
      "jide": 8134,
      "gold": 8135,
      "repent": 8136,
      "lv": 8137,
      "mgbakwunye": 8138,
      "PEEJI": 8139,
      "seems": 8140,
      "03": 8141,
      "08": 8142,
      "gla": 8143,
      "ige": 8144,
      "Park": 8145,
      "ford": 8146,
      "publ": 8147,
      "stood": 8148,
      "Moreover": 8149,
      "responsibility": 8150,
      "EL": 8151,
      "Edu": 8152,
      "Igbo": 8153,
      "customers": 8154,
      "Turkey": 8155,
      "rejo": 8156,
      "male": 8157,
      "bido": 8158,
      "dre": 8159,
      "sins": 8160,
      "ịkwanyere": 8161,
      "behind": 8162,
      "ransom": 8163,
      "appreciation": 8164,
      "Control": 8165,
      "voice": 8166,
      "Industrial": 8167,
      "speech": 8168,
      "foreign": 8169,
      "cution": 8170,
      "Gover": 8171,
      "SA": 8172,
      "ria": 8173,
      "lyn": 8174,
      "neighbor": 8175,
      "IM": 8176,
      "HA": 8177,
      "tree": 8178,
      "ggest": 8179,
      "Software": 8180,
      "fon": 8181,
      "seed": 8182,
      "atives": 8183,
      "symb": 8184,
      "Description": 8185,
      "miles": 8186,
      "bụrụgodị": 8187,
      "exercise": 8188,
      "Science": 8189,
      "Jacob": 8190,
      "bility": 8191,
      "ify": 8192,
      "guidance": 8193,
      "Lev": 8194,
      "ingly": 8195,
      "conscience": 8196,
      "dọrọ": 8197,
      "ola": 8198,
      "ọpụta": 8199,
      "ozuzu": 8200,
      "regularly": 8201,
      "wind": 8202,
      "knows": 8203,
      "2009": 8204,
      "computer": 8205,
      "rise": 8206,
      "precious": 8207,
      "disease": 8208,
      "52": 8209,
      "ijere": 8210,
      "icated": 8211,
      "gue": 8212,
      "offers": 8213,
      "includes": 8214,
      "interested": 8215,
      "Card": 8216,
      "sara": 8217,
      "kwetara": 8218,
      "convers": 8219,
      "mgbaru": 8220,
      "Aịsaịa": 8221,
      "mem": 8222,
      "prevent": 8223,
      "List": 8224,
      "praise": 8225,
      "oyiyi": 8226,
      "effects": 8227,
      "psalmist": 8228,
      "emotional": 8229,
      "unique": 8230,
      "burg": 8231,
      "destru": 8232,
      "progress": 8233,
      "Pla": 8234,
      "max": 8235,
      "Key": 8236,
      "Transport": 8237,
      "Minist": 8238,
      "Cho": 8239,
      "white": 8240,
      "laws": 8241,
      "due": 8242,
      "gency": 8243,
      "Later": 8244,
      "SO": 8245,
      "bath": 8246,
      "omen": 8247,
      "suffer": 8248,
      "ufacturers": 8249,
      "iju": 8250,
      "eletri": 8251,
      "install": 8252,
      "Equ": 8253,
      "ption": 8254,
      "sụgharịrị": 8255,
      "Ọkụ": 8256,
      "member": 8257,
      "delight": 8258,
      "produce": 8259,
      "hous": 8260,
      "CD": 8261,
      "rin": 8262,
      "included": 8263,
      "Medical": 8264,
      "OK": 8265,
      "gosipụta": 8266,
      "kọwaa": 8267,
      "tells": 8268,
      "rodu": 8269,
      "ources": 8270,
      "ebipụta": 8271,
      "Whe": 8272,
      "rịọrọ": 8273,
      "worked": 8274,
      "ọdịda": 8275,
      "History": 8276,
      "ires": 8277,
      "uine": 8278,
      "coil": 8279,
      "baric": 8280,
      "equipment": 8281,
      "thousands": 8282,
      "itions": 8283,
      "points": 8284,
      "Stud": 8285,
      "completely": 8286,
      "haziri": 8287,
      "ihere": 8288,
      "kpaliri": 8289,
      "adaba": 8290,
      "GỤKWUO": 8291,
      "RỤ": 8292,
      "theless": 8293,
      "camp": 8294,
      "ọkwá": 8295,
      "ọhụụ": 8296,
      "erite": 8297,
      "Bethel": 8298,
      "econom": 8299,
      "òk": 8300,
      "eduga": 8301,
      "Chọọchị": 8302,
      "Es": 8303,
      "Mala": 8304,
      "Right": 8305,
      "ifufe": 8306,
      "Ques": 8307,
      "Ọnwụ": 8308,
      "iced": 8309,
      "discuss": 8310,
      "98": 8311,
      "Long": 8312,
      "tour": 8313,
      "kwus": 8314,
      "bear": 8315,
      "showing": 8316,
      "gbanwere": 8317,
      "neither": 8318,
      "challenge": 8319,
      "imewe": 8320,
      "deliver": 8321,
      "Master": 8322,
      "akpando": 8323,
      "harmony": 8324,
      "egbuke": 8325,
      "56": 8326,
      "nkeji": 8327,
      "pụpụ": 8328,
      "inste": 8329,
      "Ịhụnanya": 8330,
      "freedom": 8331,
      "mach": 8332,
      "ụmụnne": 8333,
      "arụsị": 8334,
      "nchịkọta": 8335,
      "Ningbo": 8336,
      "rịrị": 8337,
      "nty": 8338,
      "pects": 8339,
      "ida": 8340,
      "asọpụrụ": 8341,
      "Nri": 8342,
      "ịsị": 8343,
      "inum": 8344,
      "dig": 8345,
      "mates": 8346,
      "film": 8347,
      "Ebu": 8348,
      "rite": 8349,
      "ntorobịa": 8350,
      "Chang": 8351,
      "comments": 8352,
      "goal": 8353,
      "Green": 8354,
      "AK": 8355,
      "Den": 8356,
      "Hen": 8357,
      "ngwọta": 8358,
      "plu": 8359,
      "button": 8360,
      "ỤL": 8361,
      "Metropolitan": 8362,
      "ụntụ": 8363,
      "mepụta": 8364,
      "atụghị": 8365,
      "sometimes": 8366,
      "carbon": 8367,
      "Ezigbo": 8368,
      "HS": 8369,
      "uhie": 8370,
      "ịpụ": 8371,
      "ilu": 8372,
      "Only": 8373,
      "ARA": 8374,
      "Shen": 8375,
      "nkwu": 8376,
      "nsomebefaịlụ": 8377,
      "adjust": 8378,
      "weebụ": 8379,
      "Friday": 8380,
      "tax": 8381,
      "stic": 8382,
      "mụma": 8383,
      "Union": 8384,
      "appreciate": 8385,
      "emeela": 8386,
      "Stra": 8387,
      "flu": 8388,
      "exact": 8389,
      "weeks": 8390,
      "villa": 8391,
      "nia": 8392,
      "adịbeghị": 8393,
      "idea": 8394,
      "Spain": 8395,
      "hundred": 8396,
      "sinc": 8397,
      "square": 8398,
      "una": 8399,
      "Please": 8400,
      "Last": 8401,
      "warm": 8402,
      "trying": 8403,
      "UD": 8404,
      "psy": 8405,
      "aghachi": 8406,
      "paradaịs": 8407,
      "cases": 8408,
      "Use": 8409,
      "anda": 8410,
      "craft": 8411,
      "Back": 8412,
      "hit": 8413,
      "ịkwụ": 8414,
      "amount": 8415,
      "mmepe": 8416,
      "Heat": 8417,
      "pie": 8418,
      "habit": 8419,
      "Iche": 8420,
      "Kọrị": 8421,
      "Transl": 8422,
      "LO": 8423,
      "Nyocha": 8424,
      "cement": 8425,
      "remind": 8426,
      "feet": 8427,
      "alized": 8428,
      "itain": 8429,
      "Awake": 8430,
      "Kọrịnt": 8431,
      "cop": 8432,
      "traveling": 8433,
      "Municip": 8434,
      "ahịhịa": 8435,
      "fault": 8436,
      "beginning": 8437,
      "sident": 8438,
      "58": 8439,
      "vior": 8440,
      "53": 8441,
      "97": 8442,
      "nces": 8443,
      "ore": 8444,
      "song": 8445,
      "becoming": 8446,
      "owu": 8447,
      "woke": 8448,
      "solution": 8449,
      "ịlọ": 8450,
      "guide": 8451,
      "general": 8452,
      "indeed": 8453,
      "String": 8454,
      "echegbu": 8455,
      "nwatakịrị": 8456,
      "Britain": 8457,
      "06": 8458,
      "heat": 8459,
      "icy": 8460,
      "passed": 8461,
      "contains": 8462,
      "SP": 8463,
      "sort": 8464,
      "wat": 8465,
      "returned": 8466,
      "compare": 8467,
      "reasonable": 8468,
      "Teta": 8469,
      "echere": 8470,
      "ụkọchukwu": 8471,
      "rash": 8472,
      "foretold": 8473,
      "Safe": 8474,
      "unch": 8475,
      "Kwesịrị": 8476,
      "laghachi": 8477,
      "ejiji": 8478,
      "chọta": 8479,
      "kwesịkwara": 8480,
      "2008": 8481,
      "jijiji": 8482,
      "convention": 8483,
      "occasion": 8484,
      "Pal": 8485,
      "store": 8486,
      "belata": 8487,
      "Hand": 8488,
      "mike": 8489,
      "Could": 8490,
      "basis": 8491,
      "growth": 8492,
      "Mem": 8493,
      "Reme": 8494,
      "mone": 8495,
      "zoro": 8496,
      "nature": 8497,
      "Cre": 8498,
      "Ngw": 8499,
      "chat": 8500,
      "ị̀": 8501,
      "inten": 8502,
      "FOR": 8503,
      "Well": 8504,
      "fying": 8505,
      "conv": 8506,
      "grand": 8507,
      "pressed": 8508,
      "ịkụziri": 8509,
      "54": 8510,
      "Nile": 8511,
      "ancial": 8512,
      "defin": 8513,
      "amụrụ": 8514,
      "easily": 8515,
      "invited": 8516,
      "earthly": 8517,
      "windows": 8518,
      "encouraged": 8519,
      "assignment": 8520,
      "Hyperbaric": 8521,
      "Kp": 8522,
      "Pra": 8523,
      "ior": 8524,
      "tainless": 8525,
      "morning": 8526,
      "aware": 8527,
      "inside": 8528,
      "nte": 8529,
      "project": 8530,
      "Real": 8531,
      "forms": 8532,
      "venant": 8533,
      "Associ": 8534,
      "mpi": 8535,
      "angel": 8536,
      "TD": 8537,
      "CL": 8538,
      "Note": 8539,
      "ahia": 8540,
      "forman": 8541,
      "isible": 8542,
      "Poly": 8543,
      "environment": 8544,
      "Sar": 8545,
      "gawa": 8546,
      "increase": 8547,
      "Ly": 8548,
      "Sal": 8549,
      "ml": 8550,
      "smart": 8551,
      "rap": 8552,
      "docu": 8553,
      "Management": 8554,
      "front": 8555,
      "lines": 8556,
      "ụma": 8557,
      "cher": 8558,
      "ohi": 8559,
      "snow": 8560,
      "ahụkwa": 8561,
      "third": 8562,
      "Review": 8563,
      "Satur": 8564,
      "Was": 8565,
      "mbilite": 8566,
      "ports": 8567,
      "ehihie": 8568,
      "base": 8569,
      "adọrọ": 8570,
      "artment": 8571,
      "kpebie": 8572,
      "Each": 8573,
      "mekwara": 8574,
      "Stand": 8575,
      "oh": 8576,
      "sens": 8577,
      "Ịgba": 8578,
      "ought": 8579,
      "ịhapụ": 8580,
      "ọfụ": 8581,
      "obtain": 8582,
      "jah": 8583,
      "shu": 8584,
      "outside": 8585,
      "Institute": 8586,
      "priest": 8587,
      "paradise": 8588,
      "Az": 8589,
      "Were": 8590,
      "studies": 8591,
      "beyond": 8592,
      "zes": 8593,
      "itary": 8594,
      "ebubo": 8595,
      "Ekwentị": 8596,
      "Panel": 8597,
      "51": 8598,
      "vig": 8599,
      "Heating": 8600,
      "nda": 8601,
      "stor": 8602,
      "format": 8603,
      "echefu": 8604,
      "wine": 8605,
      "maa": 8606,
      "walking": 8607,
      "chinery": 8608,
      "graphy": 8609,
      "seeking": 8610,
      "fici": 8611,
      "nic": 8612,
      "gharịrị": 8613,
      "Nlereanya": 8614,
      "Joshua": 8615,
      "drive": 8616,
      "worthy": 8617,
      "á": 8618,
      "user": 8619,
      "Develop": 8620,
      "WH": 8621,
      "check": 8622,
      "centuries": 8623,
      "kiel": 8624,
      "Nwunye": 8625,
      "Should": 8626,
      "gafere": 8627,
      "covenant": 8628,
      "reports": 8629,
      "werwwerwwerwwerw": 8630,
      "Kar": 8631,
      "Lan": 8632,
      "ịbịa": 8633,
      "ict": 8634,
      "Contact": 8635,
      "cross": 8636,
      "ening": 8637,
      "background": 8638,
      "Perhaps": 8639,
      "ﾒｷﾒｷﾒｷﾒｷﾒｷﾒｷﾒｷﾒｷﾒｷﾒｷﾒｷﾒｷﾒｷﾒｷﾒｷﾒｷﾒｷﾒｷﾒｷﾒｷﾒｷﾒｷﾒｷﾒｷﾒｷﾒｷﾒｷﾒｷﾒｷﾒｷﾒｷﾒｷ": 8640,
      "Av": 8641,
      "host": 8642,
      "kwute": 8643,
      "attle": 8644,
      "interests": 8645,
      "OEM": 8646,
      "ets": 8647,
      "trials": 8648,
      "othing": 8649,
      "Take": 8650,
      "ọta": 8651,
      "ulu": 8652,
      "boy": 8653,
      "opened": 8654,
      "values": 8655,
      "located": 8656,
      "hutter": 8657,
      "VER": 8658,
      "servant": 8659,
      "Materi": 8660,
      "discipline": 8661,
      "Ag": 8662,
      "inher": 8663,
      "mepere": 8664,
      "2004": 8665,
      "greatest": 8666,
      "ategories": 8667,
      "96": 8668,
      "recommend": 8669,
      "Anyanwụ": 8670,
      "Nigeria": 8671,
      "instead": 8672,
      "Mbụ": 8673,
      "hips": 8674,
      "goals": 8675,
      "ternal": 8676,
      "feeling": 8677,
      "realize": 8678,
      "character": 8679,
      "Table": 8680,
      "bank": 8681,
      "kpakpando": 8682,
      "raine": 8683,
      "Colle": 8684,
      "72": 8685,
      "CR": 8686,
      "Mid": 8687,
      "oku": 8688,
      "studying": 8689,
      "Faith": 8690,
      "fat": 8691,
      "esem": 8692,
      "icheta": 8693,
      "merenụ": 8694,
      "primar": 8695,
      "capac": 8696,
      "ekiri": 8697,
      "humble": 8698,
      "literature": 8699,
      "Nwoke": 8700,
      "Ozu": 8701,
      "bai": 8702,
      "Metal": 8703,
      "Ezinụlọ": 8704,
      "Omume": 8705,
      "beha": 8706,
      "Ans": 8707,
      "Main": 8708,
      "agbaso": 8709,
      "rous": 8710,
      "attra": 8711,
      "otes": 8712,
      "lding": 8713,
      "Messiah": 8714,
      "picture": 8715,
      "esemokwu": 8716,
      "Pas": 8717,
      "chemical": 8718,
      "model": 8719,
      "ikpo": 8720,
      "ghịkwa": 8721,
      "tex": 8722,
      "steroid": 8723,
      "bly": 8724,
      "kings": 8725,
      "spa": 8726,
      "Christmas": 8727,
      "formance": 8728,
      "ụbụrụ": 8729,
      "issues": 8730,
      "nuche": 8731,
      "manufacturer": 8732,
      "Project": 8733,
      "refere": 8734,
      "Judah": 8735,
      "tali": 8736,
      "sil": 8737,
      "emeli": 8738,
      "spend": 8739,
      "Save": 8740,
      "ifest": 8741,
      "desires": 8742,
      "AAS": 8743,
      "achie": 8744,
      "atụgharị": 8745,
      "fim": 8746,
      "san": 8747,
      "ened": 8748,
      "wokwa": 8749,
      "tụ̀tụ̀": 8750,
      "ànyị": 8751,
      "below": 8752,
      "waya": 8753,
      "accounts": 8754,
      "zhen": 8755,
      "rebel": 8756,
      "dama": 8757,
      "compas": 8758,
      "Applic": 8759,
      "urb": 8760,
      "gosipụtara": 8761,
      "61": 8762,
      "Women": 8763,
      "dark": 8764,
      "genuine": 8765,
      "allows": 8766,
      "DỊ": 8767,
      "Dri": 8768,
      "Yu": 8769,
      "util": 8770,
      "zy": 8771,
      "imag": 8772,
      "temperature": 8773,
      "black": 8774,
      "items": 8775,
      "discer": 8776,
      "họpụtara": 8777,
      "principle": 8778,
      "Further": 8779,
      "PRO": 8780,
      "ump": 8781,
      "spect": 8782,
      "block": 8783,
      "Point": 8784,
      "Tags": 8785,
      "abund": 8786,
      "sages": 8787,
      "risk": 8788,
      "ntachi": 8789,
      "Remember": 8790,
      "Dig": 8791,
      "Gaa": 8792,
      "SI": 8793,
      "enwu": 8794,
      "limit": 8795,
      "strugg": 8796,
      "sincere": 8797,
      "Mes": 8798,
      "Eke": 8799,
      "Mel": 8800,
      "alco": 8801,
      "gabiga": 8802,
      "consequ": 8803,
      "spent": 8804,
      "ezumike": 8805,
      "salvation": 8806,
      "Cra": 8807,
      "roof": 8808,
      "rogen": 8809,
      "compan": 8810,
      "ktị": 8811,
      "minal": 8812,
      "arrived": 8813,
      "òkù": 8814,
      "800": 8815,
      "PR": 8816,
      "Ti": 8817,
      "knowing": 8818,
      "compani": 8819,
      "IDS": 8820,
      "kpamkpam": 8821,
      "Wall": 8822,
      "BLE": 8823,
      "Ogo": 8824,
      "tong": 8825,
      "mel": 8826,
      "master": 8827,
      "lid": 8828,
      "kọb": 8829,
      "Itali": 8830,
      "purcha": 8831,
      "feed": 8832,
      "Through": 8833,
      "network": 8834,
      "Saturday": 8835,
      "Care": 8836,
      "DE": 8837,
      "Mesa": 8838,
      "masịrị": 8839,
      "asy": 8840,
      "icha": 8841,
      "Access": 8842,
      "Jekọb": 8843,
      "prayed": 8844,
      "personality": 8845,
      "enjoyed": 8846,
      "??": 8847,
      "Ọrịa": 8848,
      "ekweta": 8849,
      "tification": 8850,
      "automatic": 8851,
      "Nj": 8852,
      "Wes": 8853,
      "bla": 8854,
      "ụzụ": 8855,
      "legal": 8856,
      "chos": 8857,
      "guar": 8858,
      "minutes": 8859,
      "produced": 8860,
      "achịcha": 8861,
      "basic": 8862,
      "Quality": 8863,
      "Body": 8864,
      "MT": 8865,
      "Nn": 8866,
      "cele": 8867,
      "abanye": 8868,
      "������": 8869,
      "encourage": 8870,
      "particip": 8871,
      "missionary": 8872,
      "aluminum": 8873,
      "OM": 8874,
      "anted": 8875,
      "Code": 8876,
      "koodu": 8877,
      "Lighting": 8878,
      "gọọmenti": 8879,
      "Del": 8880,
      "Vir": 8881,
      "wing": 8882,
      "Sea": 8883,
      "followed": 8884,
      "glass": 8885,
      "09": 8886,
      "ịchọpụta": 8887,
      "icine": 8888,
      "tụbeghị": 8889,
      "ebute": 8890,
      "Eziokwu": 8891,
      "Similar": 8892,
      "youths": 8893,
      "110": 8894,
      "Fol": 8895,
      "Mal": 8896,
      "igh": 8897,
      "agree": 8898,
      "Soon": 8899,
      "netwọk": 8900,
      "Ruth": 8901,
      "Price": 8902,
      "Ephesians": 8903,
      "84": 8904,
      "enyocha": 8905,
      "ntakịrị": 8906,
      "Though": 8907,
      "ewepụta": 8908,
      "invest": 8909,
      "function": 8910,
      "Ukraine": 8911,
      "Gb": 8912,
      "Mor": 8913,
      "schol": 8914,
      "posit": 8915,
      "custom": 8916,
      "Portu": 8917,
      "House": 8918,
      "sit": 8919,
      "tend": 8920,
      "lọtọ": 8921,
      "suc": 8922,
      "kweta": 8923,
      "Star": 8924,
      "thank": 8925,
      "warning": 8926,
      "merie": 8927,
      "04": 8928,
      "gher": 8929,
      "esị": 8930,
      "Move": 8931,
      "Brook": 8932,
      "Paradise": 8933,
      "Bank": 8934,
      "ekere": 8935,
      "mọọ": 8936,
      "tit": 8937,
      "stal": 8938,
      "emed": 8939,
      "consu": 8940,
      "2001": 8941,
      "Road": 8942,
      "obedience": 8943,
      "62": 8944,
      "Smart": 8945,
      "budata": 8946,
      "Deuter": 8947,
      "mighty": 8948,
      "construction": 8949,
      "names": 8950,
      "inno": 8951,
      "labor": 8952,
      "emerụ": 8953,
      "grams": 8954,
      "2005": 8955,
      "brings": 8956,
      "Nehe": 8957,
      "blessed": 8958,
      "private": 8959,
      "atụkwasị": 8960,
      "Solu": 8961,
      "Prote": 8962,
      "articles": 8963,
      "Human": 8964,
      "Apple": 8965,
      "animals": 8966,
      "sleep": 8967,
      "Welcome": 8968,
      "endure": 8969,
      "Eto": 8970,
      "Nji": 8971,
      "Tinye": 8972,
      "degaara": 8973,
      "Engine": 8974,
      "ịkọn": 8975,
      "global": 8976,
      "mọọbụ": 8977,
      "raara": 8978,
      "spread": 8979,
      "Training": 8980,
      "distress": 8981,
      "ịzụta": 8982,
      "Ve": 8983,
      "cil": 8984,
      "wire": 8985,
      "mira": 8986,
      "ọ̀tụ̀tụ̀": 8987,
      "opening": 8988,
      "virtu": 8989,
      "negative": 8990,
      "Atọ": 8991,
      "SON": 8992,
      "olic": 8993,
      "YouTube": 8994,
      "approach": 8995,
      "ured": 8996,
      "ịmalite": 8997,
      "amụba": 8998,
      "gbasa": 8999,
      "Step": 9000,
      "Bat": 9001,
      "__": 9002,
      "kill": 9003,
      "Ozizi": 9004,
      "click": 9005,
      "sche": 9006,
      "imperfect": 9007,
      "frame": 9008,
      "ahead": 9009,
      "ọgba": 9010,
      "paper": 9011,
      "circuit": 9012,
      "LC": 9013,
      "OD": 9014,
      "kọọrọ": 9015,
      "ides": 9016,
      "mination": 9017,
      "ewed": 9018,
      "prepared": 9019,
      "Mount": 9020,
      "fuge": 9021,
      "repe": 9022,
      "ikwuu": 9023,
      "Despite": 9024,
      "victi": 9025,
      "Dubai": 9026,
      "requirements": 9027,
      "crowd": 9028,
      "beliefs": 9029,
      "ashion": 9030,
      "Bill": 9031,
      "ọ́": 9032,
      "mejupụtara": 9033,
      "emekarị": 9034,
      "verage": 9035,
      "imeri": 9036,
      "ỤLỌ": 9037,
      "West": 9038,
      "fection": 9039,
      "ụrụngwa": 9040,
      "Prov": 9041,
      "Board": 9042,
      "Cana": 9043,
      "Matt": 9044,
      "agafe": 9045,
      "faced": 9046,
      "Cry": 9047,
      "Wed": 9048,
      "Ịntanet": 9049,
      "associated": 9050,
      "Ibe": 9051,
      "Two": 9052,
      "secret": 9053,
      "plate": 9054,
      "Super": 9055,
      "keeping": 9056,
      "Tụkwasị": 9057,
      "challenges": 9058,
      "bisi": 9059,
      "nga": 9060,
      "sample": 9061,
      "revealed": 9062,
      "Penn": 9063,
      "mur": 9064,
      "whatever": 9065,
      "enemies": 9066,
      "Translation": 9067,
      "Bud": 9068,
      "bab": 9069,
      "edere": 9070,
      "higher": 9071,
      "drink": 9072,
      "assigned": 9073,
      "Ozugbo": 9074,
      "Snow": 9075,
      "Ul": 9076,
      "ịcha": 9077,
      "kable": 9078,
      "screen": 9079,
      "tempor": 9080,
      "materials": 9081,
      "Shenzhen": 9082,
      "ịlọn": 9083,
      "ikwesị": 9084,
      "motor": 9085,
      "ịzụlite": 9086,
      "Ole": 9087,
      "ọkwọ": 9088,
      "imum": 9089,
      "workers": 9090,
      "ikpebi": 9091,
      "motiv": 9092,
      "WA": 9093,
      "mild": 9094,
      "rence": 9095,
      "wholesale": 9096,
      "deeply": 9097,
      "destruction": 9098,
      "eventually": 9099,
      "Korea": 9100,
      "excellent": 9101,
      "Iju": 9102,
      "ute": 9103,
      "moving": 9104,
      "Airport": 9105,
      "TE": 9106,
      "kiri": 9107,
      "enkwe": 9108,
      "mitted": 9109,
      "Happy": 9110,
      "Agaghị": 9111,
      "Dra": 9112,
      "ison": 9113,
      "waa": 9114,
      "Fu": 9115,
      "aịkọn": 9116,
      "correct": 9117,
      "communication": 9118,
      "mouth": 9119,
      "siast": 9120,
      "manifest": 9121,
      "gịnịkwa": 9122,
      "Nnukwu": 9123,
      "Malite": 9124,
      "debere": 9125,
      "tụkwasịrị": 9126,
      "quite": 9127,
      "viewed": 9128,
      "immediately": 9129,
      "Ima": 9130,
      "PP": 9131,
      "ras": 9132,
      "sacred": 9133,
      "laser": 9134,
      "gwoju": 9135,
      "features": 9136,
      "ù": 9137,
      "total": 9138,
      "efere": 9139,
      "plain": 9140,
      "dedicated": 9141,
      "bber": 9142,
      "forget": 9143,
      "offering": 9144,
      "technical": 9145,
      "Ọnọdụ": 9146,
      "agbaghara": 9147,
      "communic": 9148,
      "dwell": 9149,
      "late": 9150,
      "pun": 9151,
      "nabatara": 9152,
      "sina": 9153,
      "sports": 9154,
      "imm": 9155,
      "introdu": 9156,
      "visited": 9157,
      "ọkọlọtọ": 9158,
      "ọfụụ": 9159,
      "zaa": 9160,
      "mepụtara": 9161,
      "ihenhọrọ": 9162,
      "gather": 9163,
      "kwado": 9164,
      "mix": 9165,
      "kwaghịm": 9166,
      "1xBet": 9167,
      "Mountain": 9168,
      "Sel": 9169,
      "Shutter": 9170,
      "nkasi": 9171,
      "'%": 9172,
      "Bal": 9173,
      "path": 9174,
      "ndịda": 9175,
      "tụghị": 9176,
      "mbanye": 9177,
      "lvania": 9178,
      "Bl": 9179,
      "Ebi": 9180,
      "gree": 9181,
      "ọd": 9182,
      "doll": 9183,
      "transport": 9184,
      "society": 9185,
      "Ọdịdị": 9186,
      "anwụrụ": 9187,
      "Ejiri": 9188,
      "natara": 9189,
      "noted": 9190,
      "CNC": 9191,
      "nku": 9192,
      "effici": 9193,
      "mgbidi": 9194,
      "mpako": 9195,
      "Solomọn": 9196,
      "Global": 9197,
      "ọkpụkpụ": 9198,
      "significant": 9199,
      "alive": 9200,
      "Nevertheless": 9201,
      "Clearly": 9202,
      "Nhazi": 9203,
      "nments": 9204,
      "oc": 9205,
      "ancy": 9206,
      "andon": 9207,
      "iheomume": 9208,
      "mmer": 9209,
      "ijeri": 9210,
      "CB": 9211,
      "DD": 9212,
      "anyi": 9213,
      "ades": 9214,
      "tek": 9215,
      "antic": 9216,
      "conflic": 9217,
      "fulfillment": 9218,
      "AIDS": 9219,
      "aff": 9220,
      "slow": 9221,
      "Ịdị": 9222,
      "nyefe": 9223,
      "ental": 9224,
      "contrast": 9225,
      "Questions": 9226,
      "furu": 9227,
      "rout": 9228,
      "zz": 9229,
      "games": 9230,
      "prior": 9231,
      "sylvania": 9232,
      "reported": 9233,
      "Pennsylvania": 9234,
      "ịdabere": 9235,
      "vidio": 9236,
      "fulfilled": 9237,
      "Film": 9238,
      "Ụtọ": 9239,
      "hael": 9240,
      "meworo": 9241,
      "akaụntụ": 9242,
      "comment": 9243,
      "quar": 9244,
      "convinc": 9245,
      "MB": 9246,
      "́ù": 9247,
      "wealth": 9248,
      "serves": 9249,
      "yie": 9250,
      "njikwa": 9251,
      "fare": 9252,
      "kamakwa": 9253,
      "1999": 9254,
      "valuable": 9255,
      "Municipality": 9256,
      "Agụ": 9257,
      "HT": 9258,
      "review": 9259,
      "experiences": 9260,
      "groups": 9261,
      "Central": 9262,
      "ndabere": 9263,
      "zerland": 9264,
      "nzọụkwụ": 9265,
      "Ame": 9266,
      "nọmba": 9267,
      "eruo": 9268,
      "rown": 9269,
      "kụziere": 9270,
      "encouragement": 9271,
      "igosipụta": 9272,
      ".”": 9273,
      "HP": 9274,
      "bread": 9275,
      "fish": 9276,
      "wepụtara": 9277,
      "cancer": 9278,
      "expressed": 9279,
      "Nwee": 9280,
      "aja": 9281,
      "meter": 9282,
      "arụpụta": 9283,
      "nleta": 9284,
      "ndepụta": 9285,
      "Pipe": 9286,
      "IOKWU": 9287,
      "resol": 9288,
      "PAGE": 9289,
      "rulers": 9290,
      "Family": 9291,
      "tings": 9292,
      "ịghara": 9293,
      "doct": 9294,
      "Republic": 9295,
      "PDF": 9296,
      "Cal": 9297,
      "Inwe": 9298,
      "NT": 9299,
      "paị": 9300,
      "Switzerland": 9301,
      "sharing": 9302,
      "Education": 9303,
      "tọọ": 9304,
      "Ahụ́": 9305,
      "Aga": 9306,
      "Old": 9307,
      "akpọrọ": 9308,
      "African": 9309,
      "illustration": 9310,
      "meta": 9311,
      "wait": 9312,
      "tribul": 9313,
      "bably": 9314,
      "explain": 9315,
      "Gospel": 9316,
      "publisher": 9317,
      "celebr": 9318,
      "MH": 9319,
      "elekere": 9320,
      "possib": 9321,
      "abaghị": 9322,
      "Art": 9323,
      "carefully": 9324,
      "responsible": 9325,
      "Filipaị": 9326,
      "Pur": 9327,
      "frequ": 9328,
      "treas": 9329,
      "homes": 9330,
      "emetụ": 9331,
      "emewo": 9332,
      "mercy": 9333,
      "videos": 9334,
      "Wood": 9335,
      "AF": 9336,
      "accep": 9337,
      "exc": 9338,
      "kpụrụkpụ": 9339,
      "corru": 9340,
      "asking": 9341,
      "Jet": 9342,
      "lif": 9343,
      "territ": 9344,
      "educ": 9345,
      "closer": 9346,
      "connection": 9347,
      "Aluminum": 9348,
      "Brooklyn": 9349,
      "Lit": 9350,
      "cles": 9351,
      "anic": 9352,
      "amin": 9353,
      "presence": 9354,
      "cycle": 9355,
      "political": 9356,
      "Department": 9357,
      "Association": 9358,
      "inner": 9359,
      "ahazi": 9360,
      "achọta": 9361,
      "student": 9362,
      "ekwurịta": 9363,
      "patient": 9364,
      "bing": 9365,
      "nti": 9366,
      "poses": 9367,
      "surround": 9368,
      "Japanese": 9369,
      "Sọlọ": 9370,
      "Dou": 9371,
      "era": 9372,
      "laa": 9373,
      "idu": 9374,
      "ụlọikwuu": 9375,
      "Really": 9376,
      "Series": 9377,
      "Tho": 9378,
      "oring": 9379,
      "Ankara": 9380,
      "selfish": 9381,
      "Spy": 9382,
      "Willi": 9383,
      "anal": 9384,
      "resh": 9385,
      "advantage": 9386,
      "xygen": 9387,
      "realized": 9388,
      "zụrụ": 9389,
      "cape": 9390,
      "famous": 9391,
      "Network": 9392,
      "bra": 9393,
      "daa": 9394,
      "Trains": 9395,
      "examine": 9396,
      "Okwukwe": 9397,
      "session": 9398,
      "accomplish": 9399,
      "Sọlọmọn": 9400,
      "Fabric": 9401,
      "Psy": 9402,
      "ebo": 9403,
      "ụfụ": 9404,
      "osara": 9405,
      "strengthe": 9406,
      "Kedu": 9407,
      "despite": 9408,
      "importance": 9409,
      "Ministry": 9410,
      "akọrọ": 9411,
      "tely": 9412,
      "Amazon": 9413,
      "Dan": 9414,
      "Gris": 9415,
      "Prom": 9416,
      "Àgwà": 9417,
      "rill": 9418,
      "star": 9419,
      "cker": 9420,
      "okpo": 9421,
      "syn": 9422,
      "Arma": 9423,
      "publications": 9424,
      "directly": 9425,
      "ackaging": 9426,
      "utilus": 9427,
      "mkpofu": 9428,
      "Njem": 9429,
      "HGH": 9430,
      "heav": 9431,
      "behalf": 9432,
      "anọchi": 9433,
      "surpris": 9434,
      "Monday": 9435,
      "Hong": 9436,
      "urs": 9437,
      "Support": 9438,
      "charge": 9439,
      "Flood": 9440,
      "ịsụ": 9441,
      "chetara": 9442,
      "involves": 9443,
      "Glass": 9444,
      "Distri": 9445,
      "Development": 9446,
      "Pịa": 9447,
      "otest": 9448,
      "uty": 9449,
      "130": 9450,
      "successful": 9451,
      "iguzosi": 9452,
      "Similarly": 9453,
      "CA": 9454,
      "Tem": 9455,
      "ọbụla": 9456,
      "ikekwe": 9457,
      "resto": 9458,
      "Naanị": 9459,
      "vention": 9460,
      "Expert": 9461,
      "wives": 9462,
      "Tattoos": 9463,
      "eth": 9464,
      "pị": 9465,
      "swe": 9466,
      "uo": 9467,
      "error": 9468,
      "ellig": 9469,
      "release": 9470,
      "76": 9471,
      "ịm": 9472,
      "gaje": 9473,
      "kwekọrịta": 9474,
      "recognize": 9475,
      "Ntụ": 9476,
      "nit": 9477,
      "sung": 9478,
      "ejide": 9479,
      "berg": 9480,
      "response": 9481,
      "shop": 9482,
      "Shan": 9483,
      "touch": 9484,
      "Nchị": 9485,
      "mass": 9486,
      "seeing": 9487,
      "community": 9488,
      "ewute": 9489,
      "cultivate": 9490,
      "behavior": 9491,
      "Mesaya": 9492,
      "mwe": 9493,
      "toro": 9494,
      "yal": 9495,
      "adịkwa": 9496,
      "mmeri": 9497,
      "Mepee": 9498,
      "BỤL": 9499,
      "Elijah": 9500,
      "sacrifices": 9501,
      "Ọk": 9502,
      "nketa": 9503,
      "Arab": 9504,
      "hurt": 9505,
      "eletrik": 9506,
      "chosen": 9507,
      "Cou": 9508,
      "Ide": 9509,
      "eburu": 9510,
      "ester": 9511,
      "istics": 9512,
      "region": 9513,
      "priests": 9514,
      "nkwenkwe": 9515,
      "spoken": 9516,
      "Private": 9517,
      "William": 9518,
      "Once": 9519,
      "Michael": 9520,
      "Memorial": 9521,
      "GPS": 9522,
      "Mad": 9523,
      "gest": 9524,
      "jected": 9525,
      "cyclo": 9526,
      "tattoo": 9527,
      "kpata": 9528,
      "acc": 9529,
      "kụziri": 9530,
      "echebara": 9531,
      "evening": 9532,
      "nearly": 9533,
      "obedient": 9534,
      "formation": 9535,
      "relief": 9536,
      "Oziọma": 9537,
      "announ": 9538,
      "arrangement": 9539,
      "ﾒｷﾒｷﾒｷﾒｷﾒｷﾒｷﾒｷﾒｷﾒｷﾒｷﾒｷﾒｷﾒｷﾒｷﾒｷﾒｷﾒｷﾒｷﾒｷﾒｷﾒｷﾒｷﾒｷﾒｷﾒｷﾒｷﾒｷﾒｷﾒｷﾒｷﾒｷﾒｷﾒｷﾒｷﾒｷﾒｷﾒｷﾒｷﾒｷﾒｷ": 9540,
      "Click": 9541,
      "Full": 9542,
      "Las": 9543,
      "Lazar": 9544,
      "Final": 9545,
      "ịgbaso": 9546,
      "Follow": 9547,
      "Oli": 9548,
      "billi": 9549,
      "iOS": 9550,
      "users": 9551,
      "looked": 9552,
      "ọny": 9553,
      "Robert": 9554,
      "Wi": 9555,
      "anyụọ": 9556,
      "sear": 9557,
      "marks": 9558,
      "AASraw": 9559,
      "Tor": 9560,
      "stall": 9561,
      "diyo": 9562,
      "internet": 9563,
      "device": 9564,
      "Land": 9565,
      "Rut": 9566,
      "Ten": 9567,
      "zaghachi": 9568,
      "posh": 9569,
      "trade": 9570,
      "nyochaa": 9571,
      "Find": 9572,
      "depụtara": 9573,
      "adres": 9574,
      "requires": 9575,
      "surface": 9576,
      "bọt": 9577,
      "eguzogide": 9578,
      "ntutu": 9579,
      "Tour": 9580,
      "jw": 9581,
      "rot": 9582,
      "visor": 9583,
      "Ụmụaka": 9584,
      "Cam": 9585,
      "Nne": 9586,
      "nzọpụta": 9587,
      "forgiven": 9588,
      "lesson": 9589,
      "ọlite": 9590,
      "rine": 9591,
      "pty": 9592,
      "turning": 9593,
      "2002": 9594,
      "personally": 9595,
      "Live": 9596,
      "teachers": 9597,
      "Grand": 9598,
      "iṅomi": 9599,
      "keting": 9600,
      "lip": 9601,
      "association": 9602,
      "Number": 9603,
      "definite": 9604,
      "FE": 9605,
      "Mmụta": 9606,
      "Way": 9607,
      "story": 9608,
      "ements": 9609,
      "njedebe": 9610,
      "jọrọ": 9611,
      "otutu": 9612,
      "Robot": 9613,
      "hormone": 9614,
      "dam": 9615,
      "meant": 9616,
      "Archi": 9617,
      "Ecc": 9618,
      "VE": 9619,
      "nkwụnye": 9620,
      "erve": 9621,
      "bitcoin": 9622,
      "applications": 9623,
      "Digital": 9624,
      "GỊ": 9625,
      "IE": 9626,
      "gafee": 9627,
      "doctor": 9628,
      "yourselves": 9629,
      "setting": 9630,
      "Ịlaịja": 9631,
      "succeed": 9632,
      "Kwụ": 9633,
      "bil": 9634,
      "ilekọta": 9635,
      "Think": 9636,
      "supply": 9637,
      "continues": 9638,
      "details": 9639,
      "sen": 9640,
      "ịhọrọ": 9641,
      "onom": 9642,
      "lekọta": 9643,
      "lion": 9644,
      "ads": 9645,
      "pure": 9646,
      "Latin": 9647,
      "inyogo": 9648,
      "gifts": 9649,
      "volume": 9650,
      "truths": 9651,
      "Enter": 9652,
      "NY": 9653,
      "tw": 9654,
      "ọkpụrụkpụ": 9655,
      "observed": 9656,
      "fọdụrụ": 9657,
      "systems": 9658,
      "length": 9659,
      "iberi": 9660,
      "destroyed": 9661,
      "Grow": 9662,
      "iburu": 9663,
      "hib": 9664,
      "abandon": 9665,
      "osise": 9666,
      "lower": 9667,
      "ewepụ": 9668,
      "entific": 9669,
      "ọlaedo": 9670,
      "BAỊ": 9671,
      "Bul": 9672,
      "Ekpere": 9673,
      "UM": 9674,
      "iland": 9675,
      "unities": 9676,
      "discre": 9677,
      "consequences": 9678,
      "FO": 9679,
      "Mer": 9680,
      "send": 9681,
      "illness": 9682,
      "options": 9683,
      "Tract": 9684,
      "extreme": 9685,
      "establ": 9686,
      "BIBLE": 9687,
      "Earth": 9688,
      "YOU": 9689,
      "Cur": 9690,
      "JE": 9691,
      "vice": 9692,
      "worshi": 9693,
      "obosara": 9694,
      "pted": 9695,
      "counter": 9696,
      "appeared": 9697,
      "writing": 9698,
      "Clean": 9699,
      "sco": 9700,
      "mbling": 9701,
      "measure": 9702,
      "BAỊBỤL": 9703,
      "Multi": 9704,
      "PM": 9705,
      "alụkwaghịm": 9706,
      "River": 9707,
      "capacity": 9708,
      "onia": 9709,
      "buted": 9710,
      "harma": 9711,
      "Trading": 9712,
      "financial": 9713,
      "humility": 9714,
      "finally": 9715,
      "George": 9716,
      "enwekwa": 9717,
      "friendly": 9718,
      "mbipụta": 9719,
      "Casino": 9720,
      "Amerịka": 9721,
      "Ànyị": 9722,
      "ọnọ": 9723,
      "jee": 9724,
      "nká": 9725,
      "ewetara": 9726,
      "Share": 9727,
      "imagine": 9728,
      "tribulation": 9729,
      "Kasị": 9730,
      "kụrụ": 9731,
      "ememme": 9732,
      "azụ̀": 9733,
      "ojiji": 9734,
      "Raw": 9735,
      "Public": 9736,
      "Alexand": 9737,
      "baby": 9738,
      "Wire": 9739,
      "ọwụwa": 9740,
      "emeputa": 9741,
      "tender": 9742,
      "��������": 9743,
      "Encyclo": 9744,
      "Ogologo": 9745,
      "Found": 9746,
      "Kpụ": 9747,
      "MGB": 9748,
      "Tele": 9749,
      "relative": 9750,
      "mated": 9751,
      "worshippers": 9752,
      "guzobere": 9753,
      "Help": 9754,
      "guaran": 9755,
      "Bịa": 9756,
      "Bap": 9757,
      "Nat": 9758,
      "across": 9759,
      "rum": 9760,
      "mpịa": 9761,
      "approval": 9762,
      "79": 9763,
      "Ki": 9764,
      "uri": 9765,
      "vit": 9766,
      "although": 9767,
      "chụrụ": 9768,
      "increased": 9769,
      "Equipment": 9770,
      "Lar": 9771,
      "Ndi": 9772,
      "azọpụta": 9773,
      "Ọzụzụ": 9774,
      "tiona": 9775,
      "bringing": 9776,
      "alcohol": 9777,
      "credit": 9778,
      "iwere": 9779,
      "oma": 9780,
      "ues": 9781,
      "emecha": 9782,
      "ọchịchịrị": 9783,
      "ISIOKWU": 9784,
      "entertain": 9785,
      "Bear": 9786,
      "MY": 9787,
      "Sand": 9788,
      "ology": 9789,
      "rend": 9790,
      "probably": 9791,
      "Reg": 9792,
      "anọghị": 9793,
      "Peace": 9794,
      "affection": 9795,
      "tokpo": 9796,
      "seemed": 9797,
      "mana": 9798,
      "erson": 9799,
      "Students": 9800,
      "Mir": 9801,
      "Nanị": 9802,
      "abata": 9803,
      "Study": 9804,
      "kwurịta": 9805,
      "perform": 9806,
      "Babịlọn": 9807,
      "attended": 9808,
      "double": 9809,
      "BS": 9810,
      "Pare": 9811,
      "dic": 9812,
      "dress": 9813,
      "jin": 9814,
      "akasi": 9815,
      "tum": 9816,
      "Nazi": 9817,
      "vidiyo": 9818,
      "kwesịghị": 9819,
      "Generator": 9820,
      "imebi": 9821,
      "ghai": 9822,
      "suggest": 9823,
      "aged": 9824,
      "ndes": 9825,
      "angers": 9826,
      "practices": 9827,
      "growing": 9828,
      "Osisi": 9829,
      "Ham": 9830,
      "Its": 9831,
      "Learn": 9832,
      "eager": 9833,
      "ive": 9834,
      "ora": 9835,
      "atory": 9836,
      "agbalịsi": 9837,
      "explo": 9838,
      "drugs": 9839,
      "Mother": 9840,
      "observe": 9841,
      "visions": 9842,
      "statement": 9843,
      "Hon": 9844,
      "KỌ": 9845,
      "sikwuo": 9846,
      "aku": 9847,
      "valid": 9848,
      "mercial": 9849,
      "Research": 9850,
      "advanced": 9851,
      "elderly": 9852,
      ">>": 9853,
      "BM": 9854,
      "bound": 9855,
      "ongwo": 9856,
      "performance": 9857,
      "Sub": 9858,
      "Samsung": 9859,
      "garden": 9860,
      "cow": 9861,
      "zigara": 9862,
      "emesi": 9863,
      "becomes": 9864,
      "nchịkwa": 9865,
      "Kit": 9866,
      "Search": 9867,
      "nya": 9868,
      "ende": 9869,
      "2003": 9870,
      "loyalty": 9871,
      "Western": 9872,
      "Udo": 9873,
      "eight": 9874,
      "ịpụrụ": 9875,
      "nabata": 9876,
      "ideas": 9877,
      "resurrected": 9878,
      "demand": 9879,
      "merela": 9880,
      "akpọlite": 9881,
      "Need": 9882,
      "university": 9883,
      "devotion": 9884,
      "Bre": 9885,
      "otions": 9886,
      "igno": 9887,
      "types": 9888,
      "handle": 9889,
      "grate": 9890,
      "electronic": 9891,
      "referred": 9892,
      "ịbanye": 9893,
      "applied": 9894,
      "tools": 9895,
      "nrụgide": 9896,
      "LD": 9897,
      "Money": 9898,
      "mile": 9899,
      "amba": 9900,
      "Colos": 9901,
      "gger": 9902,
      "district": 9903,
      "Uche": 9904,
      "ịkọrọ": 9905,
      "Station": 9906,
      "green": 9907,
      "Times": 9908,
      "pleasure": 9909,
      "testosterone": 9910,
      "Ngal": 9911,
      "igbochi": 9912,
      "rd": 9913,
      "modest": 9914,
      "ịkpata": 9915,
      "persecution": 9916,
      "particularly": 9917,
      "Ngalaba": 9918,
      "Uwe": 9919,
      "goes": 9920,
      "previous": 9921,
      "Food": 9922,
      "End": 9923,
      "iling": 9924,
      "soo": 9925,
      "imere": 9926,
      "zụọ": 9927,
      "render": 9928,
      "highly": 9929,
      "killed": 9930,
      "affected": 9931,
      "claimed": 9932,
      "CM": 9933,
      "FA": 9934,
      "ela": 9935,
      "rust": 9936,
      "acking": 9937,
      "faction": 9938,
      "arụsi": 9939,
      "girls": 9940,
      "Custo": 9941,
      "Iri": 9942,
      "Ije": 9943,
      "ịd": 9944,
      "chụọ": 9945,
      "answered": 9946,
      "okpukpu": 9947,
      "ịtụnanya": 9948,
      "police": 9949,
      "Straight": 9950,
      "pred": 9951,
      "isol": 9952,
      "sovere": 9953,
      "disciple": 9954,
      "Regard": 9955,
      "erube": 9956,
      "listed": 9957,
      "81": 9958,
      "arụrụ": 9959,
      "Kọlọ": 9960,
      "widely": 9961,
      "ax": 9962,
      "compet": 9963,
      "useum": 9964,
      "anụnụ": 9965,
      "situations": 9966,
      "xiety": 9967,
      "existence": 9968,
      "volunte": 9969,
      "Eche": 9970,
      "Ange": 9971,
      "ops": 9972,
      "Christianity": 9973,
      "dịghịkwa": 9974,
      "netic": 9975,
      "Cheap": 9976,
      "larị": 9977,
      "customer": 9978,
      "mbibi": 9979,
      "okpotokpo": 9980,
      "urugwu": 9981,
      "Without": 9982,
      "Paradaịs": 9983,
      "Sarah": 9984,
      "ederede": 9985,
      "119": 9986,
      "ỤKW": 9987,
      "safety": 9988,
      "rejoice": 9989,
      "ndesịta": 9990,
      "lesiast": 9991,
      "mature": 9992,
      "enu": 9993,
      "dobe": 9994,
      "dedication": 9995,
      "Italian": 9996,
      "Azụ": 9997,
      "pcs": 9998,
      "teena": 9999,
      "Dress": 10000,
      "Port": 10001,
      "Thess": 10002,
      "rights": 10003,
      "strive": 10004,
      "Plus": 10005,
      "Middle": 10006,
      "LTD": 10007,
      "Okpu": 10008,
      "refuge": 10009,
      "ises": 10010,
      "Nautilus": 10011,
      "cable": 10012,
      "remained": 10013,
      "manya": 10014,
      "essential": 10015,
      "ụmụazụ": 10016,
      "agbasa": 10017,
      "INE": 10018,
      "Bon": 10019,
      "auty": 10020,
      "manner": 10021,
      "akụrụngwa": 10022,
      "draul": 10023,
      "iloso": 10024,
      "sekit": 10025,
      "gies": 10026,
      "dish": 10027,
      "attending": 10028,
      "Among": 10029,
      "Nkwado": 10030,
      "Hor": 10031,
      "IG": 10032,
      "Oper": 10033,
      "io": 10034,
      "anx": 10035,
      "theme": 10036,
      "urged": 10037,
      "okoro": 10038,
      "nụnụ": 10039,
      "cripture": 10040,
      "Chegodị": 10041,
      "skin": 10042,
      "dabara": 10043,
      "sess": 10044,
      "gachara": 10045,
      "deci": 10046,
      "sets": 10047,
      "Lot": 10048,
      "awụ": 10049,
      "meters": 10050,
      "graf": 10051,
      "Exchange": 10052,
      "carried": 10053,
      "believed": 10054,
      "presented": 10055,
      "ville": 10056,
      "opportunities": 10057,
      "Near": 10058,
      "Sad": 10059,
      "pag": 10060,
      "bearing": 10061,
      "gets": 10062,
      "emeri": 10063,
      "Machinery": 10064,
      "opposition": 10065,
      "Being": 10066,
      "82": 10067,
      "Cla": 10068,
      "Ihu": 10069,
      "MM": 10070,
      "pul": 10071,
      "mesịa": 10072,
      "moment": 10073,
      "CSGO": 10074,
      "700": 10075,
      "ctional": 10076,
      "secure": 10077,
      "newspa": 10078,
      "providing": 10079,
      "writer": 10080,
      "Color": 10081,
      "Kọlọsi": 10082,
      "220": 10083,
      "Pres": 10084,
      "mụmụ": 10085,
      "kpee": 10086,
      "additional": 10087,
      "ókèala": 10088,
      "concerned": 10089,
      "Mc": 10090,
      "Non": 10091,
      "jet": 10092,
      "degree": 10093,
      "ghari": 10094,
      "viet": 10095,
      "prepar": 10096,
      "culture": 10097,
      "pattern": 10098,
      "missionaries": 10099,
      "military": 10100,
      "declared": 10101,
      "tongue": 10102,
      "tas": 10103,
      "saved": 10104,
      "quid": 10105,
      "Nether": 10106,
      "appearance": 10107,
      "Thailand": 10108,
      "houses": 10109,
      "Shanghai": 10110,
      "):": 10111,
      "Fun": 10112,
      "LA": 10113,
      "Tun": 10114,
      "gate": 10115,
      "conds": 10116,
      "ignty": 10117,
      "friger": 10118,
      "talking": 10119,
      "URU": 10120,
      "variety": 10121,
      "village": 10122,
      "Mb": 10123,
      "Tom": 10124,
      "lụọ": 10125,
      "greatly": 10126,
      "putting": 10127,
      "cryptocurrency": 10128,
      "Spirit": 10129,
      "ZỌ": 10130,
      "hair": 10131,
      "Ikekwe": 10132,
      "critical": 10133,
      "mpịakọta": 10134,
      "Eji": 10135,
      "Sex": 10136,
      "ounds": 10137,
      "2007": 10138,
      "straight": 10139,
      "digital": 10140,
      "Amụma": 10141,
      "Has": 10142,
      "Ọpụpụ": 10143,
      "anam": 10144,
      "alog": 10145,
      "lian": 10146,
      "exchange": 10147,
      "Austri": 10148,
      "Industry": 10149,
      "ngwụsị": 10150,
      "73": 10151,
      "gon": 10152,
      "mill": 10153,
      "sna": 10154,
      "onto": 10155,
      "matara": 10156,
      "hydro": 10157,
      "understood": 10158,
      "surely": 10159,
      "describes": 10160,
      "convinced": 10161,
      "Va": 10162,
      "rian": 10163,
      "object": 10164,
      "agụmakwụkwọ": 10165,
      "jirimara": 10166,
      "WordPress": 10167,
      "listening": 10168,
      "180": 10169,
      "audi": 10170,
      "Build": 10171,
      "onyere": 10172,
      "cooperation": 10173,
      "akporo": 10174,
      "gwugwu": 10175,
      "ishment": 10176,
      "volta": 10177,
      "Ngwaọrụ": 10178,
      "ambodo": 10179,
      "obu": 10180,
      "resid": 10181,
      "reesị": 10182,
      "bibie": 10183,
      "ejikarị": 10184,
      "chọgharị": 10185,
      "Author": 10186,
      "friendship": 10187,
      "court": 10188,
      "suffered": 10189,
      "shepherd": 10190,
      "gbatụrụ": 10191,
      "adult": 10192,
      "Heze": 10193,
      "harvest": 10194,
      "difference": 10195,
      "Philippians": 10196,
      "Enye": 10197,
      "Flight": 10198,
      "Teach": 10199,
      "VA": 10200,
      "admon": 10201,
      "overcome": 10202,
      "blind": 10203,
      "satisfaction": 10204,
      "consist": 10205,
      "desktop": 10206,
      "PU": 10207,
      "Pha": 10208,
      "ịsa": 10209,
      "machi": 10210,
      "perman": 10211,
      "failed": 10212,
      "brand": 10213,
      "Wedn": 10214,
      "draulic": 10215,
      "Nd": 10216,
[...]
